{
  " ": 1,
  "e": 2,
  "t": 3,
  "a": 4,
  "o": 5,
  "i": 6,
  "n": 7,
  "s": 8,
  "r": 9,
  "h": 10,
  "l": 11,
  "d": 12,
  "c": 13,
  "u": 14,
  "m": 15,
  "p": 16,
  "f": 17,
  "g": 18,
  "y": 19,
  "e ": 20,
  "w": 21,
  "b": 22,
  ".": 23,
  "v": 24,
  "s ": 25,
  ",": 26,
  "d ": 27,
  "in": 28,
  "t ": 29,
  "er": 30,
  "n ": 31,
  "k": 32,
  "he": 33,
  "he ": 34,
  "r ": 35,
  "ti": 36,
  ". ": 37,
  "on": 38,
  "or": 39,
  " a": 40,
  "re": 41,
  "the ": 42,
  "y ": 43,
  "the": 44,
  ", ": 45,
  "o ": 46,
  " the": 47,
  "ar": 48,
  " f": 49,
  " s": 50,
  "ng": 51,
  " w": 52,
  " o": 53,
  "nd ": 54,
  "al": 55,
  "nd": 56,
  "\n": 57,
  "ed": 58,
  "ing": 59,
  "st": 60,
  "en": 61,
  "T": 62,
  "f ": 63,
  "nt": 64,
  "and ": 65,
  "es": 66,
  "an": 67,
  " t": 68,
  "I": 69,
  ".\n": 70,
  " and ": 71,
  "to": 72,
  "l ": 73,
  " p": 74,
  "g ": 75,
  "at": 76,
  "to ": 77,
  "th": 78,
  "S": 79,
  " of ": 80,
  " to ": 81,
  "a ": 82,
  "and": 83,
  "A": 84,
  " c": 85,
  "ed ": 86,
  "C": 87,
  "ro": 88,
  "it": 89,
  " and": 90,
  "in ": 91,
  "h ": 92,
  "ur": 93,
  "ri": 94,
  "0": 95,
  "er ": 96,
  " a ": 97,
  "ve": 98,
  "re ": 99,
  "ent": 100,
  "le": 101,
  "te": 102,
  "or ": 103,
  "ati": 104,
  "is": 105,
  "is ": 106,
  "li": 107,
  "-": 108,
  "of": 109,
  " in ": 110,
  "x": 111,
  "ic": 112,
  "M": 113,
  "1": 114,
  "ha": 115,
  "at ": 116,
  "as": 117,
  "co": 118,
  " of": 119,
  "on ": 120,
  "me": 121,
  "ll": 122,
  "si": 123,
  "el": 124,
  "ce": 125,
  "se": 126,
  "ne": 127,
  "ea": 128,
  "P": 129,
  "ou": 130,
  "B": 131,
  " S": 132,
  "lo": 133,
  "ch": 134,
  "for": 135,
  " b": 136,
  "an ": 137,
  "et": 138,
  "es ": 139,
  "ow": 140,
  "W": 141,
  "de": 142,
  "2": 143,
  "hi": 144,
  "H": 145,
  "D": 146,
  "al ": 147,
  "\u2019": 148,
  "be": 149,
  " co": 150,
  "ly": 151,
  "ter": 152,
  "di": 153,
  "om": 154,
  "ct": 155,
  " be": 156,
  "ho": 157,
  "ex": 158,
  "ut": 159,
  "E": 160,
  "R": 161,
  "ay": 162,
  "m ": 163,
  "F": 164,
  "N": 165,
  "pro": 166,
  "ly ": 167,
  "th ": 168,
  "pe": 169,
  "ad": 170,
  "il": 171,
  "ra": 172,
  "L": 173,
  "st ": 174,
  " is ": 175,
  "ve ": 176,
  "un": 177,
  "ll ": 178,
  "ec": 179,
  "mo": 180,
  "op": 181,
  "hat ": 182,
  "s. ": 183,
  "ci": 184,
  "mp": 185,
  "O": 186,
  "ig": 187,
  "our": 188,
  "ol": 189,
  "en ": 190,
  "ac": 191,
  " pro": 192,
  " for": 193,
  "ear": 194,
  "j": 195,
  "ta": 196,
  "ge": 197,
  "G": 198,
  "ing ": 199,
  "ma": 200,
  "we": 201,
  "ir": 202,
  "la": 203,
  "hat": 204,
  "ot": 205,
  "w ": 206,
  "wa": 207,
  "q": 208,
  "s, ": 209,
  "nt ": 210,
  "you": 211,
  "ver": 212,
  "ith ": 213,
  "s a": 214,
  "k ": 215,
  "ni": 216,
  "le ": 217,
  "'": 218,
  "ry": 219,
  "us": 220,
  "ty": 221,
  "con": 222,
  "ur ": 223,
  " that ": 224,
  "z": 225,
  "ith": 226,
  "ca": 227,
  "wor": 228,
  "ul": 229,
  "ut ": 230,
  "so": 231,
  "our ": 232,
  " with ": 233,
  "u ": 234,
  ")": 235,
  "gh": 236,
  " wa": 237,
  "vi": 238,
  "res": 239,
  "ate": 240,
  " for ": 241,
  " con": 242,
  "are ": 243,
  "ment": 244,
  "ns": 245,
  "with": 246,
  "se ": 247,
  " with": 248,
  "(": 249,
  "ou ": 250,
  " we": 251,
  "his ": 252,
  "po": 253,
  "qu": 254,
  "her": 255,
  "I ": 256,
  "per": 257,
  "tion": 258,
  "3": 259,
  " wor": 260,
  "up": 261,
  "ld": 262,
  " i": 263,
  "The ": 264,
  "5": 265,
  "ce ": 266,
  "sp": 267,
  "ck": 268,
  "ation": 269,
  "that": 270,
  "you ": 271,
  "s.\n": 272,
  "com": 273,
  "te ": 274,
  "pp": 275,
  "s and ": 276,
  "do": 277,
  "ch ": 278,
  "ab": 279,
  "U": 280,
  "ke": 281,
  "ted ": 282,
  "est": 283,
  "me ": 284,
  "am": 285,
  "ect": 286,
  "ting": 287,
  "ry ": 288,
  "ill": 289,
  "id": 290,
  "ee": 291,
  "out": 292,
  "\"": 293,
  "p ": 294,
  "ent ": 295,
  "ep": 296,
  "su": 297,
  "e, ": 298,
  ":": 299,
  "od": 300,
  "mi": 301,
  " an ": 302,
  "s f": 303,
  "der": 304,
  "be ": 305,
  " at ": 306,
  "om ": 307,
  "9": 308,
  "4": 309,
  "em": 310,
  "fi": 311,
  "J": 312,
  "por": 313,
  "no": 314,
  "fe": 315,
  "!": 316,
  "ap": 317,
  "go": 318,
  "bo": 319,
  "lu": 320,
  "im": 321,
  "it ": 322,
  "ome": 323,
  "Y": 324,
  "The": 325,
  "sa": 326,
  "her ": 327,
  "s and": 328,
  "os": 329,
  "all": 330,
  " be ": 331,
  "ne ": 332,
  "ay ": 333,
  "ist": 334,
  "ow ": 335,
  "whi": 336,
  "pa": 337,
  "one": 338,
  "8": 339,
  "ity": 340,
  "ey": 341,
  "igh": 342,
  "ld ": 343,
  "ant": 344,
  " whi": 345,
  " com": 346,
  "rom ": 347,
  "ef": 348,
  "et ": 349,
  "ht": 350,
  "your ": 351,
  "ble": 352,
  "bu": 353,
  "t. ": 354,
  " po": 355,
  "ther": 356,
  "V": 357,
  "wo": 358,
  "s a ": 359,
  "hin": 360,
  "ain": 361,
  "by ": 362,
  "gi": 363,
  "sh": 364,
  "can": 365,
  "tt": 366,
  "ew": 367,
  "ere ": 368,
  "ill ": 369,
  " ca": 370,
  "s to ": 371,
  "ny": 372,
  " so": 373,
  "c ": 374,
  "7": 375,
  "eat": 376,
  "6": 377,
  "du": 378,
  "ser": 379,
  " by ": 380,
  " sa": 381,
  "out ": 382,
  "20": 383,
  "art": 384,
  "ore": 385,
  "nes": 386,
  "ure": 387,
  "K": 388,
  "ore ": 389,
  "ot ": 390,
  "?": 391,
  " su": 392,
  "han": 393,
  "your": 394,
  "\u2019s ": 395,
  ", and ": 396,
  "age": 397,
  "na": 398,
  ": ": 399,
  " bu": 400,
  "tic": 401,
  "e and ": 402,
  " can": 403,
  "ty ": 404,
  "all ": 405,
  "ic ": 406,
  "his": 407,
  "fa": 408,
  "fo": 409,
  "va": 410,
  "s in ": 411,
  "red": 412,
  "ces": 413,
  "In": 414,
  "ter ": 415,
  "any": 416,
  "ding": 417,
  "inc": 418,
  "nal": 419,
  "ide": 420,
  "ine": 421,
  "ke ": 422,
  "da": 423,
  "sc": 424,
  "ther ": 425,
  "oo": 426,
  "rin": 427,
  "ff": 428,
  "ag": 429,
  "ust": 430,
  " wo": 431,
  "ice": 432,
  "so ": 433,
  "uc": 434,
  "s s": 435,
  "hen ": 436,
  "din": 437,
  "ate ": 438,
  "eve": 439,
  "tu": 440,
  " sp": 441,
  " it ": 442,
  "rea": 443,
  "ber": 444,
  "ge ": 445,
  "have": 446,
  "ew ": 447,
  "port": 448,
  "use": 449,
  "ny ": 450,
  "gu": 451,
  "ue": 452,
  " from ": 453,
  " bo": 454,
  " will": 455,
  "over": 456,
  "y, ": 457,
  " fo": 458,
  "ning": 459,
  "ten": 460,
  " comp": 461,
  "have ": 462,
  "tra": 463,
  " in the ": 464,
  "ok": 465,
  "end": 466,
  "us ": 467,
  "ru": 468,
  "ir ": 469,
  "0 ": 470,
  "ran": 471,
  "de ": 472,
  " this ": 473,
  "n, ": 474,
  "not": 475,
  "nu": 476,
  "ub": 477,
  " fa": 478,
  "cho": 479,
  "s the": 480,
  "act": 481,
  "low": 482,
  "day": 483,
  "ack": 484,
  " was ": 485,
  " can ": 486,
  "ner": 487,
  "man": 488,
  "s of": 489,
  "ia": 490,
  " will ": 491,
  "rom": 492,
  "s p": 493,
  " of the ": 494,
  "ring": 495,
  "t, ": 496,
  "king": 497,
  "able": 498,
  "ual": 499,
  "year": 500,
  "not ": 501,
  "ck ": 502,
  "wn": 503,
  "any ": 504,
  "ding ": 505,
  "eg": 506,
  " of the": 507,
  " are": 508,
  ", and": 509,
  "und": 510,
  "nal ": 511,
  "we ": 512,
  "by": 513,
  "own": 514,
  "ble ": 515,
  " we ": 516,
  "\u2013": 517,
  "uld ": 518,
  "og": 519,
  "es. ": 520,
  "thin": 521,
  "kin": 522,
  "ugh": 523,
  "ver ": 524,
  "ad ": 525,
  "lar": 526,
  " ta": 527,
  "sion": 528,
  "ace": 529,
  "ight": 530,
  "here ": 531,
  "ite": 532,
  "ome ": 533,
  "ee ": 534,
  "/": 535,
  "mu": 536,
  "sto": 537,
  "hel": 538,
  "pi": 539,
  "men": 540,
  "har": 541,
  "way": 542,
  "rati": 543,
  "ys": 544,
  ". S": 545,
  "ach": 546,
  "uld": 547,
  "ven": 548,
  "vel": 549,
  "'s ": 550,
  "lea": 551,
  "more ": 552,
  "now": 553,
  "tr": 554,
  " by": 555,
  " as ": 556,
  "ons": 557,
  "Co": 558,
  "les": 559,
  "ak": 560,
  "ound": 561,
  "\u201c": 562,
  "s of ": 563,
  "mer": 564,
  "war": 565,
  "bi": 566,
  "but ": 567,
  "int": 568,
  "how": 569,
  "my": 570,
  "00": 571,
  "ds ": 572,
  " one": 573,
  "hen": 574,
  " all": 575,
  " ser": 576,
  "es, ": 577,
  "unt": 578,
  "gh ": 579,
  "ast": 580,
  "um": 581,
  "\u201d": 582,
  " but ": 583,
  "nder": 584,
  "equ": 585,
  "cor": 586,
  "St": 587,
  " their ": 588,
  "ough": 589,
  "ity ": 590,
  "cha": 591,
  "It": 592,
  "mber": 593,
  "lan": 594,
  "uti": 595,
  "ded": 596,
  "mar": 597,
  "d, ": 598,
  "eli": 599,
  "in the": 600,
  "one ": 601,
  "reat": 602,
  "onal": 603,
  "red ": 604,
  "ga": 605,
  "some": 606,
  ") ": 607,
  "peop": 608,
  "nati": 609,
  "has": 610,
  "pr": 611,
  " cont": 612,
  "des": 613,
  "my ": 614,
  "!\n": 615,
  "inclu": 616,
  " fi": 617,
  "ind": 618,
  "but": 619,
  " tra": 620,
  "son": 621,
  "eas": 622,
  " pa": 623,
  "sel": 624,
  "ren": 625,
  ", the": 626,
  "rec": 627,
  "ani": 628,
  "king ": 629,
  "nin": 630,
  " work": 631,
  "min": 632,
  "lin": 633,
  "ment ": 634,
  "imp": 635,
  " some": 636,
  "ure ": 637,
  "onal ": 638,
  "ned": 639,
  "rat": 640,
  "ba": 641,
  "able ": 642,
  "shi": 643,
  "ral": 644,
  "is a": 645,
  "g the ": 646,
  "ful": 647,
  "pla": 648,
  "el ": 649,
  ", w": 650,
  "evel": 651,
  "lic": 652,
  "ose": 653,
  "ation ": 654,
  "other ": 655,
  " from": 656,
  ";": 657,
  "time": 658,
  "ring ": 659,
  "mon": 660,
  "ling": 661,
  "We": 662,
  "use ": 663,
  "about ": 664,
  "y and ": 665,
  "ated ": 666,
  "This ": 667,
  "jo": 668,
  "this": 669,
  " but": 670,
  "A ": 671,
  "ult": 672,
  "cu": 673,
  "tion ": 674,
  "rac": 675,
  "t and ": 676,
  "they": 677,
  "hem": 678,
  "ning ": 679,
  "ous": 680,
  "dy": 681,
  "ish": 682,
  "ree": 683,
  "y to ": 684,
  "get": 685,
  "ant ": 686,
  "car": 687,
  "ft": 688,
  "dent": 689,
  "ine ": 690,
  "gr": 691,
  "den": 692,
  "od ": 693,
  " to the ": 694,
  "them": 695,
  " which": 696,
  ". The ": 697,
  "rent": 698,
  "der ": 699,
  "has ": 700,
  " their": 701,
  "peri": 702,
  " which ": 703,
  "ral ": 704,
  "id ": 705,
  "sta": 706,
  "Th": 707,
  "cer": 708,
  "ast ": 709,
  "ene": 710,
  " so ": 711,
  "fic": 712,
  "ary": 713,
  "?\n": 714,
  "on the ": 715,
  "ric": 716,
  "bet": 717,
  " other": 718,
  "ount": 719,
  ", a": 720,
  "on, ": 721,
  "ali": 722,
  "ho ": 723,
  "ice ": 724,
  "! ": 725,
  " over": 726,
  "loc": 727,
  " pr": 728,
  "vin": 729,
  "led": 730,
  "stu": 731,
  " bet": 732,
  " wh": 733,
  "ans": 734,
  "how ": 735,
  "age ": 736,
  "sk": 737,
  "more": 738,
  "col": 739,
  "ever": 740,
  "new": 741,
  "am ": 742,
  "ide ": 743,
  "lay": 744,
  "sen": 745,
  "also": 746,
  "ving": 747,
  "is a ": 748,
  "In ": 749,
  "ster": 750,
  "tive": 751,
  " when ": 752,
  "was": 753,
  "es.\n": 754,
  "s are": 755,
  "i ": 756,
  "We ": 757,
  "s for ": 758,
  " was": 759,
  "dis": 760,
  "ker": 761,
  "ffe": 762,
  " if ": 763,
  "es and ": 764,
  "? ": 765,
  "bl": 766,
  "ori": 767,
  "or the ": 768,
  " app": 769,
  "llow": 770,
  "ned ": 771,
  "get ": 772,
  "form": 773,
  "also ": 774,
  "win": 775,
  "5 ": 776,
  " pla": 777,
  "fer": 778,
  "nic": 779,
  "il ": 780,
  "up ": 781,
  "\u2019s": 782,
  "und ": 783,
  "eb": 784,
  " car": 785,
  "do ": 786,
  ". The": 787,
  ", s": 788,
  ", t": 789,
  "If ": 790,
  "ick": 791,
  "pt": 792,
  "&": 793,
  "ous ": 794,
  "edi": 795,
  "s for": 796,
  "to the": 797,
  "like": 798,
  "chan": 799,
  "its ": 800,
  "ary ": 801,
  "hy": 802,
  "exp": 803,
  "emo": 804,
  " col": 805,
  "know": 806,
  "ass": 807,
  "ved": 808,
  "ug": 809,
  "as a ": 810,
  "here": 811,
  "Ma": 812,
  " were ": 813,
  "eco": 814,
  "evi": 815,
  "vo": 816,
  "under": 817,
  " they ": 818,
  "pl": 819,
  "s the ": 820,
  "rate": 821,
  "med": 822,
  "help": 823,
  "ally ": 824,
  "Al": 825,
  "Re": 826,
  "ese ": 827,
  "ber ": 828,
  "ud": 829,
  "had": 830,
  "tem": 831,
  "now ": 832,
  ", but ": 833,
  "new ": 834,
  "ek": 835,
  "ration": 836,
  "- ": 837,
  "than ": 838,
  "ger": 839,
  "las": 840,
  " ba": 841,
  "ph": 842,
  "che": 843,
  "requ": 844,
  " well": 845,
  "ite ": 846,
  "ving ": 847,
  "ild": 848,
  "ded ": 849,
  "ech": 850,
  "cial ": 851,
  "\u2019t ": 852,
  "n\u2019t ": 853,
  "ret": 854,
  ".\nThe ": 855,
  " who ": 856,
  "s an ": 857,
  "like ": 858,
  "ating": 859,
  "rough": 860,
  "ree ": 861,
  " fe": 862,
  "fri": 863,
  "experi": 864,
  "br": 865,
  "e-": 866,
  "back": 867,
  "%": 868,
  "lear": 869,
  "rou": 870,
  "att": 871,
  "ed to ": 872,
  "ens": 873,
  "Mo": 874,
  "yer": 875,
  "cc": 876,
  "nto ": 877,
  "most ": 878,
  "mis": 879,
  " part": 880,
  "ally": 881,
  "ju": 882,
  "$": 883,
  "led ": 884,
  "ack ": 885,
  "2 ": 886,
  "each": 887,
  "No": 888,
  "gin": 889,
  "es and": 890,
  "For": 891,
  "uni": 892,
  "You": 893,
  ", p": 894,
  "ign": 895,
  "day ": 896,
  "wi": 897,
  "19": 898,
  "line": 899,
  " been ": 900,
  "s,": 901,
  "Ro": 902,
  "sh ": 903,
  " what ": 904,
  "s with": 905,
  "x ": 906,
  "fter": 907,
  "He": 908,
  " cha": 909,
  "ins": 910,
  "inter": 911,
  "ok ": 912,
  "ema": 913,
  "itt": 914,
  "lat": 915,
  "ame ": 916,
  "people": 917,
  "than": 918,
  "ol ": 919,
  "row": 920,
  "just": 921,
  "emp": 922,
  " would ": 923,
  "tain": 924,
  "ced": 925,
  "vent": 926,
  "see": 927,
  "Lo": 928,
  "read": 929,
  "10": 930,
  "make": 931,
  "ose ": 932,
  "ket": 933,
  "S ": 934,
  "hu": 935,
  "very ": 936,
  "ros": 937,
  "dep": 938,
  "no ": 939,
  "ese": 940,
  "long": 941,
  "inte": 942,
  "vis": 943,
  "thing": 944,
  "side": 945,
  "let": 946,
  "s are ": 947,
  "come": 948,
  " busi": 949,
  "gra": 950,
  " what": 951,
  "most": 952,
  "mb": 953,
  "even": 954,
  "cial": 955,
  "into ": 956,
  "rest": 957,
  "on the": 958,
  "rans": 959,
  "gene": 960,
  "every": 961,
  "bil": 962,
  "vail": 963,
  "top": 964,
  "chool": 965,
  "ces ": 966,
  "ms ": 967,
  " for the ": 968,
  " cho": 969,
  "Bo": 970,
  "mat": 971,
  "ris": 972,
  "rap": 973,
  "land": 974,
  "evelop": 975,
  "ven ": 976,
  "may": 977,
  "vice": 978,
  "may ": 979,
  "ell ": 980,
  "ach ": 981,
  "\u2013 ": 982,
  " back": 983,
  "lace": 984,
  "log": 985,
  "had ": 986,
  "round": 987,
  "\u201d ": 988,
  " been": 989,
  "mber ": 990,
  "chin": 991,
  "gro": 992,
  "Uni": 993,
  "ul ": 994,
  "inform": 995,
  "ler": 996,
  "s.": 997,
  "tech": 998,
  " week": 999,
  "ons ": 1000,
  ", f": 1001,
  "mate": 1002,
  "eat ": 1003,
  "rop": 1004,
  "eo": 1005,
  "Ca": 1006,
  "s to": 1007,
  "; ": 1008,
  "high": 1009,
  "vol": 1010,
  "pect": 1011,
  "tive ": 1012,
  "peci": 1013,
  "cy": 1014,
  "So": 1015,
  ", but": 1016,
  " sc": 1017,
  "vers": 1018,
  "e.": 1019,
  "00 ": 1020,
  "nan": 1021,
  "fter ": 1022,
  "b ": 1023,
  "life": 1024,
  "\u00ad": 1025,
  " imp": 1026,
  "through": 1027,
  "place": 1028,
  "hea": 1029,
  "pu": 1030,
  "ind ": 1031,
  "ise": 1032,
  "ence": 1033,
  "len": 1034,
  ".\nS": 1035,
  "just ": 1036,
  "rig": 1037,
  "ever ": 1038,
  "char": 1039,
  "s is ": 1040,
  "set": 1041,
  "duct": 1042,
  "nat": 1043,
  "les ": 1044,
  "It ": 1045,
  "end ": 1046,
  "develop": 1047,
  " who": 1048,
  " sub": 1049,
  "dri": 1050,
  "To": 1051,
  "mit": 1052,
  "\" ": 1053,
  "rit": 1054,
  "ved ": 1055,
  " sto": 1056,
  "s from ": 1057,
  " fri": 1058,
  "to be ": 1059,
  "about": 1060,
  " cre": 1061,
  "thing ": 1062,
  "home": 1063,
  "gram": 1064,
  "ict": 1065,
  "child": 1066,
  "ling ": 1067,
  " were": 1068,
  "ject": 1069,
  "ection": 1070,
  "chi": 1071,
  "lot": 1072,
  "& ": 1073,
  "hor": 1074,
  "stan": 1075,
  "dea": 1076,
  " br": 1077,
  "ref": 1078,
  "sw": 1079,
  " would": 1080,
  "lect": 1081,
  "hand": 1082,
  "s, and ": 1083,
  "es to ": 1084,
  " bas": 1085,
  "ract": 1086,
  " cli": 1087,
  "run": 1088,
  "udi": 1089,
  "val": 1090,
  "ks": 1091,
  " ob": 1092,
  " fami": 1093,
  "unc": 1094,
  "ming": 1095,
  "in a ": 1096,
  "member": 1097,
  "De": 1098,
  "eff": 1099,
  "nit": 1100,
  "Ho": 1101,
  "down": 1102,
  "nor": 1103,
  "Be": 1104,
  "jec": 1105,
  "ext": 1106,
  "Mar": 1107,
  "Q": 1108,
  "number": 1109,
  " wi": 1110,
  "Ch": 1111,
  " cor": 1112,
  "4 ": 1113,
  "ves ": 1114,
  "ular": 1115,
  "ced ": 1116,
  "net": 1117,
  "old": 1118,
  "right": 1119,
  "hal": 1120,
  "low ": 1121,
  "str": 1122,
  "ual ": 1123,
  "to be": 1124,
  "Con": 1125,
  " off": 1126,
  "ining": 1127,
  "ship": 1128,
  " world": 1129,
  "ana": 1130,
  "). ": 1131,
  "1 ": 1132,
  "good": 1133,
  "gain": 1134,
  "Li": 1135,
  "gg": 1136,
  " care": 1137,
  "look": 1138,
  "ful ": 1139,
  "gen": 1140,
  "h, ": 1141,
  "way ": 1142,
  "hear": 1143,
  " trans": 1144,
  "student": 1145,
  "these ": 1146,
  "\u2019t": 1147,
  "n\u2019t": 1148,
  "dia": 1149,
  "rep": 1150,
  "This": 1151,
  "Pro": 1152,
  "Wor": 1153,
  "ness ": 1154,
  "vest": 1155,
  "gar": 1156,
  " cour": 1157,
  "irst ": 1158,
  "old ": 1159,
  "s at ": 1160,
  "wo ": 1161,
  "mal": 1162,
  "on and ": 1163,
  "cons": 1164,
  "many ": 1165,
  "lit": 1166,
  "need": 1167,
  "month": 1168,
  "acc": 1169,
  "very": 1170,
  "ed, ": 1171,
  " tr": 1172,
  "made": 1173,
  "only": 1174,
  " them ": 1175,
  " some ": 1176,
  " there": 1177,
  " prof": 1178,
  "data": 1179,
  " ope": 1180,
  "org": 1181,
  "import": 1182,
  "ffer": 1183,
  "time ": 1184,
  "cip": 1185,
  "nment": 1186,
  "lis": 1187,
  "hould": 1188,
  "ed by ": 1189,
  "ff ": 1190,
  "reg": 1191,
  "cess": 1192,
  "reat ": 1193,
  "'s": 1194,
  "E ": 1195,
  "sist": 1196,
  "ron": 1197,
  "exa": 1198,
  "18": 1199,
  "list": 1200,
  "cei": 1201,
  "qual": 1202,
  "ly, ": 1203,
  "La": 1204,
  "ward": 1205,
  "rod": 1206,
  "eth": 1207,
  "rect": 1208,
  "hose": 1209,
  "ton": 1210,
  "ering": 1211,
  "For ": 1212,
  "reas": 1213,
  "nation": 1214,
  "too": 1215,
  "gy": 1216,
  "Ar": 1217,
  "'t ": 1218,
  "mor": 1219,
  "n't ": 1220,
  "es of ": 1221,
  "site": 1222,
  "make ": 1223,
  " product": 1224,
  "vari": 1225,
  "rent ": 1226,
  " show": 1227,
  "ze": 1228,
  "dist": 1229,
  ", c": 1230,
  "people ": 1231,
  "in a": 1232,
  "simp": 1233,
  "3 ": 1234,
  "Ex": 1235,
  "mple": 1236,
  "o, ": 1237,
  " such": 1238,
  "Jo": 1239,
  "mic": 1240,
  ".\nThe": 1241,
  "good ": 1242,
  "Do": 1243,
  "main": 1244,
  "\u2014": 1245,
  "righ": 1246,
  "hot": 1247,
  "eak": 1248,
  "sy": 1249,
  "sion ": 1250,
  "mes": 1251,
  " company": 1252,
  "rel": 1253,
  " pi": 1254,
  "level": 1255,
  "a, ": 1256,
  "revi": 1257,
  " cons": 1258,
  " pre": 1259,
  "s: ": 1260,
  " So": 1261,
  "nex": 1262,
  "Ha": 1263,
  " play": 1264,
  " at the ": 1265,
  "xi": 1266,
  " best": 1267,
  "hur": 1268,
  " one of ": 1269,
  "\u2018": 1270,
  "ution": 1271,
  "Pa": 1272,
  "ick ": 1273,
  "An": 1274,
  "then": 1275,
  "ques": 1276,
  "fact": 1277,
  "As": 1278,
  "see ": 1279,
  "s in the ": 1280,
  "vide": 1281,
  "ower": 1282,
  "Z": 1283,
  "help ": 1284,
  "even ": 1285,
  "son ": 1286,
  "fac": 1287,
  " from the ": 1288,
  "D ": 1289,
  " friend": 1290,
  " with the ": 1291,
  " when": 1292,
  "recei": 1293,
  " want": 1294,
  "to a": 1295,
  "room": 1296,
  "invest": 1297,
  "Sa": 1298,
  " count": 1299,
  "then ": 1300,
  "event": 1301,
  " take": 1302,
  "lar ": 1303,
  "lon": 1304,
  "efore ": 1305,
  "is the": 1306,
  "ight ": 1307,
  "mag": 1308,
  "eigh": 1309,
  "only ": 1310,
  " ty": 1311,
  "pho": 1312,
  "You ": 1313,
  " place": 1314,
  "ear ": 1315,
  " should": 1316,
  "usto": 1317,
  "ash": 1318,
  " first ": 1319,
  "you can ": 1320,
  "ppro": 1321,
  "New ": 1322,
  "ms": 1323,
  " two ": 1324,
  "go ": 1325,
  "cel": 1326,
  "again": 1327,
  " sh": 1328,
  "m, ": 1329,
  "6 ": 1330,
  "light": 1331,
  "Bu": 1332,
  " sen": 1333,
  "Po": 1334,
  "these": 1335,
  "ing the ": 1336,
  "did": 1337,
  "hould ": 1338,
  " service": 1339,
  "dec": 1340,
  "ade ": 1341,
  " over ": 1342,
  "as well": 1343,
  "Ad": 1344,
  "Ju": 1345,
  "dow": 1346,
  "ney": 1347,
  " plan": 1348,
  "oking": 1349,
  "rough ": 1350,
  "inf": 1351,
  "hop": 1352,
  " buil": 1353,
  "eng": 1354,
  "irst": 1355,
  "inan": 1356,
  "each ": 1357,
  "ical ": 1358,
  " two": 1359,
  "rate ": 1360,
  "him": 1361,
  "ed to": 1362,
  "ep ": 1363,
  "deli": 1364,
  " war": 1365,
  "ined": 1366,
  "many": 1367,
  "def": 1368,
  " set": 1369,
  "le, ": 1370,
  " book": 1371,
  "great": 1372,
  ", we ": 1373,
  "dust": 1374,
  "start": 1375,
  "Car": 1376,
  "los": 1377,
  "Ame": 1378,
  "dra": 1379,
  " said": 1380,
  "know ": 1381,
  "range": 1382,
  " after": 1383,
  "remo": 1384,
  ", S": 1385,
  " offer": 1386,
  " for the": 1387,
  "come ": 1388,
  " cur": 1389,
  "view": 1390,
  "un ": 1391,
  "X": 1392,
  ", a ": 1393,
  " take ": 1394,
  " supp": 1395,
  "Gu": 1396,
  "stic": 1397,
  "Com": 1398,
  " area": 1399,
  " avail": 1400,
  "deci": 1401,
  "gover": 1402,
  "ince ": 1403,
  " school": 1404,
  "medi": 1405,
  " could": 1406,
  "nee": 1407,
  "much ": 1408,
  " free": 1409,
  "design": 1410,
  "000": 1411,
  " could ": 1412,
  "ish ": 1413,
  "test": 1414,
  "act ": 1415,
  " spea": 1416,
  "self": 1417,
  "ystem": 1418,
  "hic": 1419,
  "earch": 1420,
  "ween ": 1421,
  "met": 1422,
  "que": 1423,
  "ness": 1424,
  "dar": 1425,
  "mark": 1426,
  "leg": 1427,
  "ki": 1428,
  "oug": 1429,
  "every ": 1430,
  "Go": 1431,
  "del": 1432,
  " treat": 1433,
  "ele": 1434,
  "itu": 1435,
  "star": 1436,
  " top": 1437,
  ". A": 1438,
  "Fi": 1439,
  "s that ": 1440,
  " thi": 1441,
  "resent": 1442,
  "van": 1443,
  "mun": 1444,
  " between ": 1445,
  "sible": 1446,
  "back ": 1447,
  "st. ": 1448,
  "is an ": 1449,
  "pe ": 1450,
  "8 ": 1451,
  "late": 1452,
  "ect ": 1453,
  " where ": 1454,
  "tional": 1455,
  "round ": 1456,
  "mul": 1457,
  "Par": 1458,
  "sive ": 1459,
  " che": 1460,
  "tial": 1461,
  ", we": 1462,
  "result": 1463,
  "team": 1464,
  "through ": 1465,
  "dr": 1466,
  " fac": 1467,
  "nger": 1468,
  "disc": 1469,
  "On": 1470,
  " pho": 1471,
  " those": 1472,
  "T ": 1473,
  "line ": 1474,
  "meth": 1475,
  "des ": 1476,
  " after ": 1477,
  "He ": 1478,
  "rol": 1479,
  "How": 1480,
  "C ": 1481,
  "k, ": 1482,
  "bit": 1483,
  "\"\n": 1484,
  ". This ": 1485,
  " pri": 1486,
  " proper": 1487,
  " speci": 1488,
  "mil": 1489,
  "rip": 1490,
  " will be ": 1491,
  "s S": 1492,
  " best ": 1493,
  "vid": 1494,
  "ull": 1495,
  "osp": 1496,
  "ess": 1497,
  "ural": 1498,
  "s, and": 1499,
  " Sa": 1500,
  "it. ": 1501,
  " work ": 1502,
  "out the ": 1503,
  "When ": 1504,
  "hap": 1505,
  "to a ": 1506,
  "ask": 1507,
  "ed with ": 1508,
  "tip": 1509,
  " by the ": 1510,
  "tim": 1511,
  "sty": 1512,
  "its": 1513,
  "abil": 1514,
  "cause ": 1515,
  "ban": 1516,
  "great ": 1517,
  "sive": 1518,
  " power": 1519,
  "Di": 1520,
  "eld": 1521,
  "En": 1522,
  "s can": 1523,
  "man ": 1524,
  " sha": 1525,
  "really ": 1526,
  "\u2026": 1527,
  "ton ": 1528,
  "Univers": 1529,
  " au": 1530,
  "um ": 1531,
  " win": 1532,
  "ming ": 1533,
  "perfor": 1534,
  "put": 1535,
  " project": 1536,
  " is the ": 1537,
  "rial": 1538,
  " and the": 1539,
  "children": 1540,
  ").\n": 1541,
  ". It": 1542,
  "ce, ": 1543,
  "law": 1544,
  "rib": 1545,
  " with a ": 1546,
  " before ": 1547,
  "And ": 1548,
  "Me": 1549,
  "less ": 1550,
  " for a ": 1551,
  "ard": 1552,
  " fu": 1553,
  "Man": 1554,
  "exc": 1555,
  "7 ": 1556,
  "bor": 1557,
  " say": 1558,
  "wing ": 1559,
  "ually ": 1560,
  "hol": 1561,
  "To ": 1562,
  " allow": 1563,
  "requi": 1564,
  "ed in ": 1565,
  "), ": 1566,
  "uction": 1567,
  "ical": 1568,
  " should ": 1569,
  "state": 1570,
  "esta": 1571,
  "me, ": 1572,
  "ott": 1573,
  "Bl": 1574,
  "bs": 1575,
  "ress": 1576,
  " program": 1577,
  " par": 1578,
  "artic": 1579,
  ". I ": 1580,
  "ra ": 1581,
  "ve a ": 1582,
  "cra": 1583,
  " point": 1584,
  " pl": 1585,
  "fort": 1586,
  " cap": 1587,
  "loy": 1588,
  "efore": 1589,
  " water": 1590,
  "s from": 1591,
  "s. S": 1592,
  "s with ": 1593,
  "report": 1594,
  "mm": 1595,
  "port ": 1596,
  " poli": 1597,
  "head": 1598,
  "im ": 1599,
  "right ": 1600,
  "ative": 1601,
  "s in": 1602,
  " of a ": 1603,
  "na ": 1604,
  "ired": 1605,
  "tie": 1606,
  "arti": 1607,
  " few ": 1608,
  "spon": 1609,
  "ety": 1610,
  "ger ": 1611,
  "ye": 1612,
  " photo": 1613,
  "Ac": 1614,
  "hig": 1615,
  "direct": 1616,
  "ffic": 1617,
  "tial ": 1618,
  " feat": 1619,
  "uring": 1620,
  "US": 1621,
  "dro": 1622,
  "going ": 1623,
  " shi": 1624,
  "ucces": 1625,
  "much": 1626,
  "upport": 1627,
  "alth": 1628,
  "market": 1629,
  "9 ": 1630,
  "cing": 1631,
  "urn": 1632,
  "tting ": 1633,
  " post": 1634,
  " first": 1635,
  "urp": 1636,
  "ps": 1637,
  "hour": 1638,
  "ident": 1639,
  " of a": 1640,
  " compani": 1641,
  "sines": 1642,
  "ider": 1643,
  "rot": 1644,
  "respon": 1645,
  " find ": 1646,
  "tional ": 1647,
  "does ": 1648,
  "uto": 1649,
  "increas": 1650,
  "Chi": 1651,
  "mid": 1652,
  " if": 1653,
  "ise ": 1654,
  " while ": 1655,
  "fe ": 1656,
  "But ": 1657,
  "ner ": 1658,
  "nis": 1659,
  "30": 1660,
  "risk": 1661,
  "last ": 1662,
  "I\u2019": 1663,
  "it is ": 1664,
  " follow": 1665,
  "tio": 1666,
  " food": 1667,
  " business ": 1668,
  "mas": 1669,
  " tru": 1670,
  "ging ": 1671,
  "still ": 1672,
  "mus": 1673,
  ", b": 1674,
  "a and ": 1675,
  " with a": 1676,
  " commun": 1677,
  "L ": 1678,
  " web": 1679,
  "ity of ": 1680,
  "experience": 1681,
  "I wa": 1682,
  "vice ": 1683,
  " provide": 1684,
  " bea": 1685,
  "17": 1686,
  "ustomer": 1687,
  " sur": 1688,
  "mer ": 1689,
  " proces": 1690,
  "ought": 1691,
  "ce and ": 1692,
  "last": 1693,
  "Ba": 1694,
  "yo": 1695,
  "There ": 1696,
  "ather ": 1697,
  "Ta": 1698,
  "inst": 1699,
  "valu": 1700,
  ", i": 1701,
  " come": 1702,
  "art ": 1703,
  "tun": 1704,
  "it\u2019s ": 1705,
  "rant": 1706,
  "They ": 1707,
  "think": 1708,
  " player": 1709,
  "ft ": 1710,
  "rain": 1711,
  " with the": 1712,
  " way ": 1713,
  " find": 1714,
  "soci": 1715,
  "dan": 1716,
  "ody": 1717,
  "tinu": 1718,
  "reli": 1719,
  "grap": 1720,
  " before": 1721,
  "gan": 1722,
  " coll": 1723,
  "invol": 1724,
  "ta ": 1725,
  "grow": 1726,
  "order": 1727,
  "looking": 1728,
  "ener": 1729,
  "And": 1730,
  " back ": 1731,
  " Su": 1732,
  "dres": 1733,
  "non": 1734,
  "ept": 1735,
  "cy ": 1736,
  "give ": 1737,
  "ilit": 1738,
  "ined ": 1739,
  "group": 1740,
  " the world": 1741,
  "question": 1742,
  "Ti": 1743,
  "atient": 1744,
  "lease": 1745,
  "think ": 1746,
  "Mi": 1747,
  " foc": 1748,
  "techno": 1749,
  " pur": 1750,
  "s on ": 1751,
  "including ": 1752,
  " posi": 1753,
  ".\"\n": 1754,
  "unit": 1755,
  "gent": 1756,
  " finan": 1757,
  " customer": 1758,
  "fici": 1759,
  "made ": 1760,
  " as a": 1761,
  "prop": 1762,
  "ective": 1763,
  "high ": 1764,
  "era": 1765,
  "enc": 1766,
  "ster ": 1767,
  "Te": 1768,
  "enti": 1769,
  "own ": 1770,
  "Thi": 1771,
  "dat": 1772,
  "joy": 1773,
  "\u2019re ": 1774,
  "15": 1775,
  "'t": 1776,
  "bur": 1777,
  "ve the ": 1778,
  "s of the": 1779,
  "lease ": 1780,
  "on to ": 1781,
  ". We ": 1782,
  " busines": 1783,
  ", so": 1784,
  "vit": 1785,
  "Tu": 1786,
  "zed": 1787,
  "ance": 1788,
  "you are ": 1789,
  " cost": 1790,
  "sional": 1791,
  "tiv": 1792,
  "dent ": 1793,
  "pert": 1794,
  "ation, ": 1795,
  "the most ": 1796,
  "effect": 1797,
  " speaker": 1798,
  "vic": 1799,
  "elect": 1800,
  "work": 1801,
  "n't": 1802,
  "Da": 1803,
  "lication": 1804,
  "has been ": 1805,
  "s that": 1806,
  "gy ": 1807,
  "re are": 1808,
  " chang": 1809,
  "As ": 1810,
  "With ": 1811,
  "happ": 1812,
  "ign ": 1813,
  " ben": 1814,
  "option": 1815,
  "around": 1816,
  "leas": 1817,
  "s. The ": 1818,
  " and the ": 1819,
  "have a ": 1820,
  "interest": 1821,
  "gether": 1822,
  "200": 1823,
  "nec": 1824,
  "10 ": 1825,
  "all the ": 1826,
  "nel": 1827,
  " creat": 1828,
  "issu": 1829,
  "ond ": 1830,
  "Nor": 1831,
  " same ": 1832,
  "three ": 1833,
  " am ": 1834,
  "m and ": 1835,
  "at the": 1836,
  "ways ": 1837,
  "ty and ": 1838,
  "recom": 1839,
  "hous": 1840,
  " succes": 1841,
  " ph": 1842,
  "ground": 1843,
  "Min": 1844,
  "epte": 1845,
  " conc": 1846,
  "idea": 1847,
  " fact": 1848,
  "Than": 1849,
  "did ": 1850,
  "What": 1851,
  "histo": 1852,
  " fut": 1853,
  " continu": 1854,
  "cas": 1855,
  "organi": 1856,
  " the S": 1857,
  "Or": 1858,
  "ments ": 1859,
  "Ja": 1860,
  "love": 1861,
  "perf": 1862,
  " can be ": 1863,
  "ative ": 1864,
  "ether ": 1865,
  "more than ": 1866,
  "earch ": 1867,
  "ring the ": 1868,
  "less": 1869,
  "stay": 1870,
  " tot": 1871,
  "night": 1872,
  "eason": 1873,
  " system": 1874,
  "Sp": 1875,
  "bar": 1876,
  "ence ": 1877,
  ", which": 1878,
  "llow ": 1879,
  " form": 1880,
  "Ra": 1881,
  "online": 1882,
  "till": 1883,
  "does": 1884,
  "hou": 1885,
  "ties ": 1886,
  "cr": 1887,
  ", the ": 1888,
  " parti": 1889,
  "bly": 1890,
  "ik": 1891,
  "together": 1892,
  "ading": 1893,
  "model": 1894,
  "N ": 1895,
  "change": 1896,
  "using ": 1897,
  "What ": 1898,
  "person": 1899,
  " conf": 1900,
  "\u2019 ": 1901,
  "s by ": 1902,
  "s, the": 1903,
  "That": 1904,
  ". In ": 1905,
  "Wa": 1906,
  "peti": 1907,
  "vil": 1908,
  "Blue": 1909,
  "side ": 1910,
  " being ": 1911,
  "R ": 1912,
  "enter": 1913,
  "tail": 1914,
  " pu": 1915,
  "-s": 1916,
  "stra": 1917,
  " because ": 1918,
  "year ": 1919,
  "nother ": 1920,
  "zing": 1921,
  "mak": 1922,
  "Na": 1923,
  "s (": 1924,
  "don\u2019t ": 1925,
  "But": 1926,
  "face": 1927,
  "eam ": 1928,
  "job": 1929,
  "P ": 1930,
  "alk": 1931,
  " where": 1932,
  "*": 1933,
  "really": 1934,
  " word": 1935,
  "chool ": 1936,
  " blo": 1937,
  "Har": 1938,
  "Y ": 1939,
  "nut": 1940,
  "dition": 1941,
  "educ": 1942,
  ".\nA": 1943,
  "information": 1944,
  "logy": 1945,
  " found": 1946,
  "ment of ": 1947,
  "desig": 1948,
  " pass": 1949,
  " ana": 1950,
  "ka": 1951,
  "cated ": 1952,
  "cher": 1953,
  "aster": 1954,
  "house": 1955,
  " support": 1956,
  ". We": 1957,
  "dual": 1958,
  "on and": 1959,
  ", which ": 1960,
  " around ": 1961,
  "Per": 1962,
  "If": 1963,
  "tions ": 1964,
  "16": 1965,
  "ev": 1966,
  "never ": 1967,
  "national": 1968,
  "Fa": 1969,
  "expert": 1970,
  "ek ": 1971,
  "eptember ": 1972,
  "eting": 1973,
  "ze ": 1974,
  "ated": 1975,
  " for a": 1976,
  "user": 1977,
  "tain ": 1978,
  "cause": 1979,
  "st, ": 1980,
  "fy": 1981,
  " sw": 1982,
  "12": 1983,
  "Ge": 1984,
  "used ": 1985,
  "achi": 1986,
  " family": 1987,
  " far": 1988,
  "expect": 1989,
  "gre": 1990,
  "fferent": 1991,
  "different": 1992,
  " both ": 1993,
  "health": 1994,
  "game": 1995,
  "divi": 1996,
  "date": 1997,
  "qui": 1998,
  "blem": 1999,
  " cri": 2000,
  "lose": 2001,
  "ant to ": 2002,
  "loo": 2003,
  "day, ": 2004,
  "land ": 2005,
  "ed the ": 2006,
  "es the ": 2007,
  " sure": 2008,
  "video": 2009,
  ". It ": 2010,
  "reason": 2011,
  "national ": 2012,
  ", so ": 2013,
  "body": 2014,
  " she": 2015,
  "out the": 2016,
  "essional": 2017,
  "s or ": 2018,
  "le and ": 2019,
  " as the ": 2020,
  "Vi": 2021,
  "roo": 2022,
  " space": 2023,
  "s, p": 2024,
  "answ": 2025,
  "unt ": 2026,
  "My": 2027,
  "heat": 2028,
  " patient": 2029,
  "mach": 2030,
  "Hear": 2031,
  "lack": 2032,
  "those ": 2033,
  "keep": 2034,
  "hit": 2035,
  "vide ": 2036,
  "mall": 2037,
  "I am ": 2038,
  "real ": 2039,
  " better": 2040,
  "direc": 2041,
  "Pre": 2042,
  " buy": 2043,
  "exi": 2044,
  "Du": 2045,
  "ruct": 2046,
  "uri": 2047,
  "into": 2048,
  "enjoy": 2049,
  "ce of ": 2050,
  "They": 2051,
  "ush": 2052,
  "tori": 2053,
  " the same ": 2054,
  "olution": 2055,
  "long ": 2056,
  "cket": 2057,
  "-in": 2058,
  "irl": 2059,
  "Hi": 2060,
  " beauti": 2061,
  " free ": 2062,
  " pie": 2063,
  " sound": 2064,
  "ves": 2065,
  "easi": 2066,
  "rice": 2067,
  "Fo": 2068,
  "ligh": 2069,
  "iss": 2070,
  "maj": 2071,
  " case": 2072,
  "ing the": 2073,
  "hare": 2074,
  "nother": 2075,
  "you are": 2076,
  ".S": 2077,
  "ed and ": 2078,
  "thou": 2079,
  " charac": 2080,
  "material": 2081,
  ", in ": 2082,
  "load": 2083,
  "ister": 2084,
  "ware": 2085,
  "fferent ": 2086,
  "rid": 2087,
  "kind": 2088,
  "zation": 2089,
  "Col": 2090,
  " well ": 2091,
  "int ": 2092,
  "re is ": 2093,
  "important": 2094,
  "11": 2095,
  "fic ": 2096,
  "Wh": 2097,
  "ge, ": 2098,
  " business": 2099,
  "hone": 2100,
  "diffic": 2101,
  "ecur": 2102,
  ",000": 2103,
  "za": 2104,
  "illa": 2105,
  "bro": 2106,
  "ry, ": 2107,
  "ing to ": 2108,
  "How ": 2109,
  " problem": 2110,
  "yc": 2111,
  " from the": 2112,
  "kn": 2113,
  " professional": 2114,
  " client": 2115,
  "glo": 2116,
  " Se": 2117,
  " call": 2118,
  "vel ": 2119,
  " coup": 2120,
  "ager": 2121,
  "up to ": 2122,
  "include": 2123,
  "Dr": 2124,
  "ection ": 2125,
  "CS": 2126,
  "different ": 2127,
  "home ": 2128,
  "able to ": 2129,
  "ural ": 2130,
  ", it ": 2131,
  "need ": 2132,
  "ational ": 2133,
  "perc": 2134,
  "gest": 2135,
  " tri": 2136,
  "cell": 2137,
  "use of ": 2138,
  "There": 2139,
  "advan": 2140,
  "into the ": 2141,
  " working": 2142,
  "open": 2143,
  " connec": 2144,
  "yn": 2145,
  "ric ": 2146,
  "ed a ": 2147,
  "making ": 2148,
  "Med": 2149,
  "manage": 2150,
  " will be": 2151,
  "hard": 2152,
  "quick": 2153,
  "0.": 2154,
  "indivi": 2155,
  " both": 2156,
  "mig": 2157,
  "though": 2158,
  " can be": 2159,
  "sition": 2160,
  ", with": 2161,
  "pecial": 2162,
  "atch": 2163,
  "Ve": 2164,
  " company ": 2165,
  " create": 2166,
  " cult": 2167,
  "making": 2168,
  " analy": 2169,
  "TH": 2170,
  "Jes": 2171,
  "sal": 2172,
  "put ": 2173,
  " that the ": 2174,
  "ually": 2175,
  "le of ": 2176,
  "ppli": 2177,
  " ban": 2178,
  " while": 2179,
  "repa": 2180,
  "mind": 2181,
  "tions": 2182,
  " course": 2183,
  "God": 2184,
  "ditional ": 2185,
  "mission": 2186,
  "These ": 2187,
  "scrip": 2188,
  " pat": 2189,
  "B ": 2190,
  " pain": 2191,
  "Wo": 2192,
  "ently": 2193,
  "study": 2194,
  "has been": 2195,
  "let ": 2196,
  "equi": 2197,
  "you can": 2198,
  "performan": 2199,
  "ration ": 2200,
  "bly ": 2201,
  "lant": 2202,
  "ream": 2203,
  "la ": 2204,
  " concer": 2205,
  "action": 2206,
  "% ": 2207,
  "deal": 2208,
  "s have": 2209,
  " to get ": 2210,
  "All ": 2211,
  "heart": 2212,
  "as an ": 2213,
  "ource": 2214,
  "me and ": 2215,
  "30 ": 2216,
  "ed a": 2217,
  "Bi": 2218,
  "real": 2219,
  "Cen": 2220,
  "01": 2221,
  "Res": 2222,
  " coun": 2223,
  " since ": 2224,
  "F ": 2225,
  "gree": 2226,
  "rie": 2227,
  "must": 2228,
  "fer ": 2229,
  "on a ": 2230,
  "lay ": 2231,
  "near": 2232,
  " begin": 2233,
  "1.": 2234,
  "It is ": 2235,
  "I am": 2236,
  "acti": 2237,
  "wri": 2238,
  " season": 2239,
  "depen": 2240,
  "yer ": 2241,
  "his a": 2242,
  "isted ": 2243,
  "set ": 2244,
  " said ": 2245,
  "50": 2246,
  "information ": 2247,
  "rence": 2248,
  " provide ": 2249,
  "ining ": 2250,
  "AN": 2251,
  "eck ": 2252,
  "rite": 2253,
  "-b": 2254,
  "es to": 2255,
  " fin": 2256,
  "All": 2257,
  "anti": 2258,
  "Au": 2259,
  "always ": 2260,
  " off ": 2261,
  "gh the ": 2262,
  "App": 2263,
  " she ": 2264,
  " share": 2265,
  "anc": 2266,
  "ed at ": 2267,
  "Comp": 2268,
  " there ": 2269,
  ".com": 2270,
  "s, w": 2271,
  "Ri": 2272,
  "impro": 2273,
  "I was ": 2274,
  "en, ": 2275,
  "tical ": 2276,
  "key": 2277,
  "flow": 2278,
  "s, s": 2279,
  "might ": 2280,
  "[": 2281,
  " a few ": 2282,
  ". In": 2283,
  ". This": 2284,
  "nment ": 2285,
  "ation and ": 2286,
  "studi": 2287,
  "ures": 2288,
  "Gi": 2289,
  ".m": 2290,
  " School": 2291,
  "under ": 2292,
  "lass": 2293,
  "Pe": 2294,
  "es are ": 2295,
  "ittle": 2296,
  "0-": 2297,
  "rack": 2298,
  " fun": 2299,
  "got": 2300,
  "ations ": 2301,
  "late ": 2302,
  "s. The": 2303,
  " small": 2304,
  "ossible": 2305,
  "known": 2306,
  "employ": 2307,
  "]": 2308,
  "ital ": 2309,
  " cas": 2310,
  "2018": 2311,
  " competi": 2312,
  "opy": 2313,
  "Inter": 2314,
  " website": 2315,
  "ublic": 2316,
  "name": 2317,
  "increa": 2318,
  "ed the": 2319,
  "everal ": 2320,
  " big": 2321,
  " want ": 2322,
  "ossi": 2323,
  "ures ": 2324,
  "money": 2325,
  "exten": 2326,
  "associ": 2327,
  " color": 2328,
  "mess": 2329,
  " close": 2330,
  "offe": 2331,
  "s have ": 2332,
  "dai": 2333,
  "ky": 2334,
  "Pres": 2335,
  "look ": 2336,
  "an, ": 2337,
  "stand": 2338,
  "I\u2019m ": 2339,
  "in, ": 2340,
  " price": 2341,
  "account": 2342,
  " away": 2343,
  " body": 2344,
  "-f": 2345,
  "100": 2346,
  "irm": 2347,
  " the best ": 2348,
  "Do ": 2349,
  "quality": 2350,
  ".\nIn ": 2351,
  ".\nThis ": 2352,
  "AR": 2353,
  "need to": 2354,
  "Dep": 2355,
  "given": 2356,
  "Por": 2357,
  "\u20ac": 2358,
  "Heart": 2359,
  "Mary": 2360,
  "require": 2361,
  " comple": 2362,
  "that the": 2363,
  "uro": 2364,
  "Our ": 2365,
  "\u2019ve ": 2366,
  "s it ": 2367,
  "Tra": 2368,
  " few": 2369,
  " cal": 2370,
  "ham": 2371,
  "ym": 2372,
  "gal": 2373,
  " feel": 2374,
  " func": 2375,
  "My ": 2376,
  " process": 2377,
  "2.": 2378,
  "read ": 2379,
  "on to": 2380,
  "opport": 2381,
  "mix": 2382,
  "Fri": 2383,
  "ften ": 2384,
  " wonder": 2385,
  "40": 2386,
  "IS": 2387,
  " clas": 2388,
  " auto": 2389,
  "quar": 2390,
  "ux": 2391,
  "guide": 2392,
  "lax": 2393,
  "-1": 2394,
  "acces": 2395,
  ". I": 2396,
  ", co": 2397,
  "14": 2398,
  "ured": 2399,
  "including": 2400,
  "mean": 2401,
  "99": 2402,
  "change ": 2403,
  "000 ": 2404,
  "local": 2405,
  "during": 2406,
  " found ": 2407,
  "door": 2408,
  "years ": 2409,
  "New": 2410,
  "ting ": 2411,
  " and a": 2412,
  "ung ": 2413,
  "50 ": 2414,
  "1, ": 2415,
  "resta": 2416,
  " prot": 2417,
  " sho": 2418,
  "s of the ": 2419,
  "redi": 2420,
  "econd": 2421,
  ". If ": 2422,
  "little": 2423,
  "istic": 2424,
  "mic ": 2425,
  "mount": 2426,
  "on a": 2427,
  "you have": 2428,
  ", be": 2429,
  "lement": 2430,
  "You can ": 2431,
  " to do": 2432,
  "ready": 2433,
  "dig": 2434,
  "ero": 2435,
  "stro": 2436,
  ", su": 2437,
  "ball": 2438,
  "next": 2439,
  " without ": 2440,
  " sure ": 2441,
  " ten": 2442,
  "seri": 2443,
  "onship": 2444,
  "mal ": 2445,
  " and a ": 2446,
  "s, t": 2447,
  " tw": 2448,
  "ed by": 2449,
  "se and ": 2450,
  "ished": 2451,
  "irc": 2452,
  " skin": 2453,
  "ression": 2454,
  "urb": 2455,
  "rist": 2456,
  "s, a": 2457,
  "term": 2458,
  " type": 2459,
  "ital": 2460,
  "eld ": 2461,
  "too ": 2462,
  "nar": 2463,
  " come ": 2464,
  "denti": 2465,
  "United ": 2466,
  " abo": 2467,
  ". He": 2468,
  "envi": 2469,
  "ronment": 2470,
  " tu": 2471,
  "include ": 2472,
  "ching ": 2473,
  "El": 2474,
  "2017": 2475,
  "yar": 2476,
  "mill": 2477,
  "reci": 2478,
  "gl": 2479,
  " soft": 2480,
  "next ": 2481,
  "kill": 2482,
  "ler ": 2483,
  " class": 2484,
  " sig": 2485,
  "step": 2486,
  "tion, ": 2487,
  "uran": 2488,
  "ro ": 2489,
  "graph": 2490,
  " such ": 2491,
  " because": 2492,
  "bili": 2493,
  "it was ": 2494,
  "ly to ": 2495,
  "Oc": 2496,
  " bit": 2497,
  "research": 2498,
  " the best": 2499,
  "Mon": 2500,
  "vehic": 2501,
  "ve, ": 2502,
  " particip": 2503,
  " wri": 2504,
  "sio": 2505,
  "Lea": 2506,
  "order ": 2507,
  " secur": 2508,
  " works": 2509,
  "living": 2510,
  " Sp": 2511,
  "ittle ": 2512,
  "struct": 2513,
  " being": 2514,
  "I have": 2515,
  "hr": 2516,
  " training": 2517,
  "zed ": 2518,
  "today": 2519,
  " put ": 2520,
  "ES": 2521,
  " ind": 2522,
  "ed for ": 2523,
  "the most": 2524,
  "ity and ": 2525,
  "must ": 2526,
  "rating": 2527,
  "IN": 2528,
  "never": 2529,
  "lia": 2530,
  " country": 2531,
  "got ": 2532,
  "ey are": 2533,
  "' ": 2534,
  "number of ": 2535,
  " was a": 2536,
  "Our": 2537,
  "environment": 2538,
  "music": 2539,
  " offe": 2540,
  "rather ": 2541,
  "Your ": 2542,
  "eature": 2543,
  "2, ": 2544,
  "Counc": 2545,
  "lic ": 2546,
  "out of ": 2547,
  "regi": 2548,
  " benef": 2549,
  "Un": 2550,
  " bar": 2551,
  "keep ": 2552,
  "stor": 2553,
  "nger ": 2554,
  "20 ": 2555,
  "With": 2556,
  "need to ": 2557,
  "12 ": 2558,
  " pas": 2559,
  ", o": 2560,
  "general": 2561,
  " was a ": 2562,
  "meas": 2563,
  "s part": 2564,
  " want to ": 2565,
  "life ": 2566,
  "ver the ": 2567,
  " building": 2568,
  " available": 2569,
  "lb": 2570,
  "ably": 2571,
  "lege": 2572,
  "cular ": 2573,
  "ata ": 2574,
  " ori": 2575,
  "sonal": 2576,
  "review": 2577,
  "Americ": 2578,
  "you have ": 2579,
  "link": 2580,
  " consu": 2581,
  "Ed": 2582,
  " bro": 2583,
  "-c": 2584,
  "don": 2585,
  "done": 2586,
  "U.S": 2587,
  "On ": 2588,
  " pict": 2589,
  "ject ": 2590,
  "One": 2591,
  "top ": 2592,
  "dam": 2593,
  "s on": 2594,
  "s will": 2595,
  "hole": 2596,
  "eu": 2597,
  "method": 2598,
  ". He ": 2599,
  " fil": 2600,
  "fication": 2601,
  "image": 2602,
  "..\n": 2603,
  " cent": 2604,
  "tool": 2605,
  "ute ": 2606,
  "..": 2607,
  "At": 2608,
  "pot": 2609,
  "es that ": 2610,
  ") and ": 2611,
  "individual": 2612,
  "issue": 2613,
  "Le": 2614,
  " within": 2615,
  "cyc": 2616,
  "ulation": 2617,
  " cr": 2618,
  "gine": 2619,
  ", with ": 2620,
  " often ": 2621,
  " several ": 2622,
  "goal": 2623,
  "ard ": 2624,
  "us. ": 2625,
  "ry and ": 2626,
  "mili": 2627,
  "Br": 2628,
  "him ": 2629,
  "play ": 2630,
  "pecial ": 2631,
  " contact ": 2632,
  " bott": 2633,
  "ef ": 2634,
  "3, ": 2635,
  "Air": 2636,
  "tai": 2637,
  " pay": 2638,
  "I have ": 2639,
  " try": 2640,
  " something ": 2641,
  " beca": 2642,
  "hes": 2643,
  " the first ": 2644,
  "about the ": 2645,
  " tur": 2646,
  "At ": 2647,
  " same": 2648,
  "th of ": 2649,
  " service ": 2650,
  "zing ": 2651,
  "ince": 2652,
  "online ": 2653,
  "during ": 2654,
  "may be ": 2655,
  " past": 2656,
  "owner": 2657,
  "nect": 2658,
  " tal": 2659,
  "ed on ": 2660,
  "are not ": 2661,
  "he was ": 2662,
  "phone": 2663,
  "TE": 2664,
  "O ": 2665,
  " Ser": 2666,
  " typ": 2667,
  "east": 2668,
  "bra": 2669,
  "nufact": 2670,
  "omm": 2671,
  ", if ": 2672,
  " below": 2673,
  "leader": 2674,
  "cess ": 2675,
  "s? ": 2676,
  "alled ": 2677,
  " present": 2678,
  "ides ": 2679,
  " full": 2680,
  " why ": 2681,
  "lated ": 2682,
  " parent": 2683,
  "Wi": 2684,
  "sful": 2685,
  " family ": 2686,
  "After": 2687,
  "mone": 2688,
  ". You ": 2689,
  "s who ": 2690,
  "rator": 2691,
  "ties": 2692,
  "Ber": 2693,
  "urge": 2694,
  "7, ": 2695,
  "stat": 2696,
  " set ": 2697,
  "disp": 2698,
  "ditional": 2699,
  "ve the": 2700,
  "large": 2701,
  "s so ": 2702,
  "mine": 2703,
  "Ne": 2704,
  " check": 2705,
  "th, ": 2706,
  "ray": 2707,
  "strate": 2708,
  " prob": 2709,
  "s, the ": 2710,
  "es with": 2711,
  "da ": 2712,
  "s or": 2713,
  "Wil": 2714,
  "has a ": 2715,
  " beli": 2716,
  "ak ": 2717,
  "ften": 2718,
  "cade": 2719,
  "Of": 2720,
  "ment, ": 2721,
  " bring": 2722,
  "government": 2723,
  " page": 2724,
  "y, and ": 2725,
  "tern": 2726,
  "move": 2727,
  "o and ": 2728,
  " women": 2729,
  "expl": 2730,
  "getting ": 2731,
  "'ve ": 2732,
  "Gro": 2733,
  "struction": 2734,
  "May": 2735,
  "rand ": 2736,
  "ating ": 2737,
  " travel": 2738,
  "tooth": 2739,
  "ma ": 2740,
  "ild ": 2741,
  "tical": 2742,
  "mall ": 2743,
  " skill": 2744,
  "might": 2745,
  " coo": 2746,
  "deter": 2747,
  "bre": 2748,
  "ecome": 2749,
  "assist": 2750,
  " prac": 2751,
  " still": 2752,
  "chedu": 2753,
  "Op": 2754,
  "here are ": 2755,
  "sent ": 2756,
  " flow": 2757,
  " clear": 2758,
  "activi": 2759,
  "'re ": 2760,
  "sible ": 2761,
  ".\n\"": 2762,
  "wide": 2763,
  "glob": 2764,
  " full ": 2765,
  "Pi": 2766,
  "pproach": 2767,
  "logy ": 2768,
  "scrib": 2769,
  "\u00e9": 2770,
  "Ci": 2771,
  "little ": 2772,
  "nea": 2773,
  "leng": 2774,
  "vant": 2775,
  "used": 2776,
  "tory": 2777,
  "ope ": 2778,
  "t the ": 2779,
  " field": 2780,
  "eating": 2781,
  "thought": 2782,
  "\u2019ll ": 2783,
  " become": 2784,
  "ries ": 2785,
  "noun": 2786,
  "nov": 2787,
  "limit": 2788,
  "ently ": 2789,
  " bur": 2790,
  "ings ": 2791,
  "Fe": 2792,
  " identi": 2793,
  "milli": 2794,
  "experien": 2795,
  "rough the ": 2796,
  "moder": 2797,
  " choice": 2798,
  "Wal": 2799,
  "ody ": 2800,
  " over the ": 2801,
  "rence ": 2802,
  "time, ": 2803,
  "199": 2804,
  "OH": 2805,
  "dump": 2806,
  "\u00e2": 2807,
  "\u00e2\u20ac": 2808,
  "M ": 2809,
  "love ": 2810,
  " webs": 2811,
  "ester": 2812,
  "live": 2813,
  "amount": 2814,
  "ween": 2815,
  "jour": 2816,
  "resi": 2817,
  " solution": 2818,
  "Mc": 2819,
  " prepa": 2820,
  "t to": 2821,
  "ce the ": 2822,
  "tead": 2823,
  " tar": 2824,
  "sequ": 2825,
  " compa": 2826,
  " beh": 2827,
  "atten": 2828,
  "gest ": 2829,
  " place ": 2830,
  "rial ": 2831,
  "Pri": 2832,
  "as well as ": 2833,
  " base": 2834,
  " foot": 2835,
  " comfort": 2836,
  "through the ": 2837,
  " audi": 2838,
  "iding": 2839,
  "ed in the ": 2840,
  "neigh": 2841,
  "urant": 2842,
  " corpo": 2843,
  "apart": 2844,
  "300": 2845,
  "ons of ": 2846,
  "ird": 2847,
  "wan": 2848,
  "pet": 2849,
  "you will ": 2850,
  " to make": 2851,
  "local ": 2852,
  " someth": 2853,
  "lion": 2854,
  "s in the": 2855,
  "ways": 2856,
  " public": 2857,
  "es, and ": 2858,
  "refer": 2859,
  "ider ": 2860,
  "Eve": 2861,
  "going": 2862,
  "s.\nThe ": 2863,
  " aver": 2864,
  "at a ": 2865,
  "tem ": 2866,
  "vement": 2867,
  "stru": 2868,
  "rated ": 2869,
  "sional ": 2870,
  "example": 2871,
  "que ": 2872,
  "early ": 2873,
  "une ": 2874,
  "ing a ": 2875,
  "National ": 2876,
  "Bar": 2877,
  "ected ": 2878,
  "makes ": 2879,
  " common": 2880,
  "staff": 2881,
  "iner": 2882,
  "lexi": 2883,
  "accom": 2884,
  " phys": 2885,
  "itch": 2886,
  ", this ": 2887,
  "animal": 2888,
  "duced": 2889,
  " school ": 2890,
  "ure of ": 2891,
  "aken": 2892,
  " copy": 2893,
  "8, ": 2894,
  " blood": 2895,
  "ternal ": 2896,
  "rub": 2897,
  " Supp": 2898,
  "Is": 2899,
  "sonal ": 2900,
  " better ": 2901,
  "value": 2902,
  "is to ": 2903,
  "etc": 2904,
  " safe": 2905,
  "represent": 2906,
  " super": 2907,
  "s as ": 2908,
  "Dis": 2909,
  " between": 2910,
  "ured ": 2911,
  "enough": 2912,
  " story": 2913,
  "emplo": 2914,
  " another ": 2915,
  "When": 2916,
  "Ga": 2917,
  "rite ": 2918,
  "Ke": 2919,
  " be a": 2920,
  " such as ": 2921,
  "return": 2922,
  "18 ": 2923,
  " character": 2924,
  "wide ": 2925,
  "ractice": 2926,
  "men ": 2927,
  "tice ": 2928,
  "dio": 2929,
  "lean": 2930,
  " feature": 2931,
  " fan": 2932,
  " total": 2933,
  "8-": 2934,
  " speak": 2935,
  "s for the ": 2936,
  "unch": 2937,
  "perfect": 2938,
  "down ": 2939,
  "These": 2940,
  "manufact": 2941,
  "s?\n": 2942,
  " another": 2943,
  "ted to": 2944,
  ".\u201d ": 2945,
  "dor": 2946,
  "size": 2947,
  "mobi": 2948,
  "No ": 2949,
  "igned": 2950,
  " community": 2951,
  "style": 2952,
  ",000 ": 2953,
  "thy": 2954,
  "duce": 2955,
  "large ": 2956,
  " possi": 2957,
  "ing, ": 2958,
  "email": 2959,
  "ationship": 2960,
  " famili": 2961,
  "point": 2962,
  "meet": 2963,
  " book ": 2964,
  "Cha": 2965,
  "ildr": 2966,
  " a new ": 2967,
  "techni": 2968,
  "IT": 2969,
  " occ": 2970,
  "hotel": 2971,
  " circ": 2972,
  "March ": 2973,
  "relax": 2974,
  "July ": 2975,
  "Thur": 2976,
  "Thurs": 2977,
  " financial ": 2978,
  "v. ": 2979,
  "mass": 2980,
  " flo": 2981,
  "ors ": 2982,
  "Qu": 2983,
  "Indi": 2984,
  "dustry": 2985,
  "road": 2986,
  "stand ": 2987,
  " working ": 2988,
  "lot of ": 2989,
  "It\u2019s ": 2990,
  "ogni": 2991,
  "ing a": 2992,
  "rema": 2993,
  " to make ": 2994,
  "ment. ": 2995,
  "multip": 2996,
  "als ": 2997,
  "book": 2998,
  "lip": 2999,
  "s can ": 3000,
  "al and ": 3001,
  "Net": 3002,
  " plant": 3003,
  " brand": 3004,
  "propri": 3005,
  " show ": 3006,
  "mot": 3007,
  " Sun": 3008,
  "matic": 3009,
  "ingle ": 3010,
  "U ": 3011,
  "location": 3012,
  "restaurant": 3013,
  "cording ": 3014,
  " Sw": 3015,
  "CN": 3016,
  "until ": 3017,
  "detail": 3018,
  " application": 3019,
  " second": 3020,
  " feel ": 3021,
  "lick ": 3022,
  "personal ": 3023,
  "having": 3024,
  "dard": 3025,
  "However": 3026,
  " pack": 3027,
  " wro": 3028,
  "elie": 3029,
  " compu": 3030,
  "upport ": 3031,
  "cond ": 3032,
  "s, but ": 3033,
  " spe": 3034,
  ". A ": 3035,
  "z ": 3036,
  "acher": 3037,
  " along": 3038,
  "3.": 3039,
  "effort": 3040,
  "it's ": 3041,
  "dom": 3042,
  "half": 3043,
  "announ": 3044,
  "rew": 3045,
  " wall": 3046,
  "mon ": 3047,
  "ed with": 3048,
  "race": 3049,
  " say ": 3050,
  "Janu": 3051,
  "icket": 3052,
  " water ": 3053,
  "doing": 3054,
  "relationship": 3055,
  "gui": 3056,
  "end of ": 3057,
  ". And ": 3058,
  "Ban": 3059,
  ",\" ": 3060,
  "ates ": 3061,
  "Af": 3062,
  "run ": 3063,
  "evol": 3064,
  " play ": 3065,
  "Cent": 3066,
  "veni": 3067,
  "mination": 3068,
  "investig": 3069,
  " buy ": 3070,
  " tab": 3071,
  "s!\n": 3072,
  "+": 3073,
  " clo": 3074,
  "able to": 3075,
  "Euro": 3076,
  " by the": 3077,
  "reach": 3078,
  "hort": 3079,
  "s we ": 3080,
  "bb": 3081,
  "mend": 3082,
  " prin": 3083,
  "vision": 3084,
  "vor": 3085,
  "percent": 3086,
  "grea": 3087,
  " team ": 3088,
  "st and ": 3089,
  "ough ": 3090,
  "us, ": 3091,
  " future": 3092,
  "rior": 3093,
  " special": 3094,
  " of this ": 3095,
  "ash ": 3096,
  "ford": 3097,
  "bilit": 3098,
  "they are": 3099,
  "ward ": 3100,
  "ult ": 3101,
  "India": 3102,
  "chas": 3103,
  "ters ": 3104,
  "ability": 3105,
  "ury": 3106,
  " current ": 3107,
  "90": 3108,
  "rad": 3109,
  "Please ": 3110,
  " all the": 3111,
  " approach": 3112,
  "charge": 3113,
  "rating ": 3114,
  "Mor": 3115,
  "through the": 3116,
  " text": 3117,
  "bac": 3118,
  "Nove": 3119,
  "neg": 3120,
  " supply": 3121,
  "Code": 3122,
  " purp": 3123,
  "yl": 3124,
  " put": 3125,
  " contract": 3126,
  "Pr": 3127,
  "effici": 3128,
  "you\u2019re ": 3129,
  " conside": 3130,
  "standard": 3131,
  "ront": 3132,
  "net ": 3133,
  "\u2019ve": 3134,
  "reme": 3135,
  " cra": 3136,
  "always": 3137,
  " the p": 3138,
  "give": 3139,
  "Can": 3140,
  "into the": 3141,
  "nigh": 3142,
  " bre": 3143,
  "fully ": 3144,
  "hallen": 3145,
  "ystem ": 3146,
  "hom": 3147,
  "against ": 3148,
  " wel": 3149,
  "stop": 3150,
  " often": 3151,
  "inj": 3152,
  "hosp": 3153,
  "ents ": 3154,
  "charg": 3155,
  "ously ": 3156,
  "ously": 3157,
  "milar": 3158,
  " sol": 3159,
  "tion and ": 3160,
  "encour": 3161,
  "V ": 3162,
  "due": 3163,
  "CA": 3164,
  "ury ": 3165,
  "have a": 3166,
  " pati": 3167,
  " pol": 3168,
  "16 ": 3169,
  " board": 3170,
  "quite": 3171,
  "quarter": 3172,
  " collection": 3173,
  "9, ": 3174,
  "co ": 3175,
  "lege ": 3176,
  "stay ": 3177,
  " control": 3178,
  "personal": 3179,
  "Cor": 3180,
  "ans ": 3181,
  "esti": 3182,
  "dog": 3183,
  "industry": 3184,
  "vert": 3185,
  "celeb": 3186,
  "ly and ": 3187,
  "it, ": 3188,
  "If you ": 3189,
  "tire": 3190,
  " break": 3191,
  "rum": 3192,
  "variety": 3193,
  "ch, ": 3194,
  ". But ": 3195,
  "ant to": 3196,
  " proble": 3197,
  " the s": 3198,
  "least ": 3199,
  "quali": 3200,
  " press": 3201,
  "room ": 3202,
  "2-": 3203,
  " appro": 3204,
  "activ": 3205,
  " sy": 3206,
  "lead": 3207,
  "urther ": 3208,
  "-bas": 3209,
  "host": 3210,
  ". They ": 3211,
  "you to ": 3212,
  "outh ": 3213,
  "ation of ": 3214,
  "hood": 3215,
  "accu": 3216,
  "teri": 3217,
  "recogni": 3218,
  " connect": 3219,
  "atch ": 3220,
  "sia": 3221,
  " practice": 3222,
  "appropri": 3223,
  "One ": 3224,
  "email ": 3225,
  " treatment": 3226,
  "mode": 3227,
  "Mr": 3228,
  "AS": 3229,
  "docu": 3230,
  " air": 3231,
  "\u043e": 3232,
  " provi": 3233,
  "ER": 3234,
  "development": 3235,
  "don't ": 3236,
  "hole ": 3237,
  ". So": 3238,
  " search": 3239,
  "ably ": 3240,
  "heal": 3241,
  "ession": 3242,
  "-to": 3243,
  " commit": 3244,
  "alth ": 3245,
  "An ": 3246,
  "rust": 3247,
  "ference": 3248,
  "times ": 3249,
  "hing ": 3250,
  "ley": 3251,
  "Thank": 3252,
  "mea": 3253,
  "tee": 3254,
  " soon": 3255,
  "ve and ": 3256,
  "gram ": 3257,
  "s to the ": 3258,
  "quality ": 3259,
  " position": 3260,
  " called ": 3261,
  "s all": 3262,
  "There are ": 3263,
  "disco": 3264,
  "Goog": 3265,
  "work ": 3266,
  "4-": 3267,
  ". You": 3268,
  "ann": 3269,
  "ollo": 3270,
  "opportuni": 3271,
  "s you ": 3272,
  "regar": 3273,
  " fig": 3274,
  "US ": 3275,
  "seen": 3276,
  "sepa": 3277,
  "Gene": 3278,
  "Fl": 3279,
  "zi": 3280,
  "don\u2019t": 3281,
  "during the ": 3282,
  " prog": 3283,
  "childr": 3284,
  "to work": 3285,
  ", they ": 3286,
  "rol ": 3287,
  "lete ": 3288,
  "Depart": 3289,
  "the in": 3290,
  "bag": 3291,
  "ity and": 3292,
  "bio": 3293,
  "4, ": 3294,
  "descrip": 3295,
  " wine": 3296,
  " wire": 3297,
  "Kore": 3298,
  "riv": 3299,
  "self ": 3300,
  "s! ": 3301,
  "ations": 3302,
  "lock": 3303,
  "cord": 3304,
  "uct ": 3305,
  "especi": 3306,
  "#": 3307,
  "gue": 3308,
  " way to ": 3309,
  "qua": 3310,
  "Fir": 3311,
  "left": 3312,
  "Apr": 3313,
  " is s": 3314,
  " boo": 3315,
  " a few": 3316,
  "lent ": 3317,
  "s; ": 3318,
  " clos": 3319,
  "request": 3320,
  " poten": 3321,
  "or of ": 3322,
  "lier": 3323,
  "ed that ": 3324,
  "ummer": 3325,
  "ding the ": 3326,
  ".\nWe ": 3327,
  "Ka": 3328,
  "main ": 3329,
  " purcha": 3330,
  "enough ": 3331,
  " challen": 3332,
  "rican": 3333,
  "about the": 3334,
  "medic": 3335,
  "arri": 3336,
  "defin": 3337,
  "store": 3338,
  "Char": 3339,
  "legal": 3340,
  "in S": 3341,
  "everal": 3342,
  " oil": 3343,
  "indepen": 3344,
  "AT": 3345,
  " bat": 3346,
  "appoint": 3347,
  "nor ": 3348,
  "IC": 3349,
  "research ": 3350,
  "highly ": 3351,
  "ly. ": 3352,
  "TA": 3353,
  "mecha": 3354,
  "machine": 3355,
  "Get ": 3356,
  "simple ": 3357,
  "ircu": 3358,
  " conveni": 3359,
  " surge": 3360,
  "deral ": 3361,
  "mg": 3362,
  "nior ": 3363,
  "add": 3364,
  "I'": 3365,
  "kit": 3366,
  " benefit": 3367,
  "\u2019re": 3368,
  "G ": 3369,
  " prop": 3370,
  ".\nI ": 3371,
  "ort": 3372,
  "immedi": 3373,
  "dence": 3374,
  "eight ": 3375,
  "major": 3376,
  " be a ": 3377,
  "resp": 3378,
  "\u2019ll": 3379,
  "25": 3380,
  "hon": 3381,
  "teacher": 3382,
  " the same": 3383,
  "things ": 3384,
  " four": 3385,
  "RE": 3386,
  "rise": 3387,
  "various ": 3388,
  "on that ": 3389,
  ". For ": 3390,
  "lid": 3391,
  "alway": 3392,
  "dance": 3393,
  "201": 3394,
  " tea": 3395,
  "American": 3396,
  ") and": 3397,
  " of their ": 3398,
  "OR": 3399,
  "has a": 3400,
  "cie": 3401,
  "usually ": 3402,
  " pleas": 3403,
  "expan": 3404,
  "State": 3405,
  "TI": 3406,
  "number of": 3407,
  "14 ": 3408,
  "EN": 3409,
  "ends ": 3410,
  "lik": 3411,
  "Just": 3412,
  " told ": 3413,
  "hl": 3414,
  "min ": 3415,
  "J ": 3416,
  "elder": 3417,
  "f-": 3418,
  " condition": 3419,
  "data ": 3420,
  "minut": 3421,
  "K ": 3422,
  "tory ": 3423,
  " belie": 3424,
  "Chris": 3425,
  "ware ": 3426,
  "vent ": 3427,
  "s\u2019": 3428,
  "s\u2019 ": 3429,
  " social ": 3430,
  "1-": 3431,
  "NO": 3432,
  "Octo": 3433,
  " as the": 3434,
  "rug": 3435,
  "resh": 3436,
  "alk ": 3437,
  "4.": 3438,
  "already": 3439,
  "almost ": 3440,
  "@": 3441,
  "the right": 3442,
  " cut": 3443,
  "ment and ": 3444,
  "rently ": 3445,
  "ed and": 3446,
  "drin": 3447,
  "Ph": 3448,
  ", sa": 3449,
  "ing that ": 3450,
  " successful": 3451,
  "simple": 3452,
  "I would ": 3453,
  "rown": 3454,
  " bring ": 3455,
  "s;": 3456,
  "to take ": 3457,
  "age, ": 3458,
  "s about ": 3459,
  " combi": 3460,
  "AC": 3461,
  "us a": 3462,
  "million ": 3463,
  " to see ": 3464,
  "Ab": 3465,
  " item": 3466,
  "influ": 3467,
  "rout": 3468,
  "ly and": 3469,
  ".\" ": 3470,
  " contain": 3471,
  "Chin": 3472,
  " phone": 3473,
  "you to": 3474,
  " source": 3475,
  "children ": 3476,
  " the t": 3477,
  "Presi": 3478,
  "ton, ": 3479,
  "living ": 3480,
  "est. ": 3481,
  "lot of": 3482,
  "ity in ": 3483,
  "China": 3484,
  " circu": 3485,
  "Port": 3486,
  "his s": 3487,
  "Gre": 3488,
  "itor": 3489,
  "acros": 3490,
  "alread": 3491,
  "s were ": 3492,
  "In the ": 3493,
  "second ": 3494,
  "s, f": 3495,
  "exer": 3496,
  "resident": 3497,
  "achin": 3498,
  " indic": 3499,
  "date ": 3500,
  "s will ": 3501,
  " applic": 3502,
  " turn": 3503,
  "uthor": 3504,
  "in the ": 3505,
  "performance": 3506,
  "Coun": 3507,
  "actually ": 3508,
  "on-": 3509,
  "ing and ": 3510,
  "vered": 3511,
  "organization": 3512,
  " five ": 3513,
  "exact": 3514,
  " const": 3515,
  "have the ": 3516,
  "s avail": 3517,
  "uction ": 3518,
  " surp": 3519,
  "exist": 3520,
  "Center": 3521,
  "normal": 3522,
  "2019": 3523,
  "examp": 3524,
  " to your ": 3525,
  "enhan": 3526,
  "imag": 3527,
  "lab": 3528,
  "s.\nS": 3529,
  "later": 3530,
  " without": 3531,
  "voc": 3532,
  "mart": 3533,
  "s at the ": 3534,
  "Joh": 3535,
  "vat": 3536,
  "describ": 3537,
  "War": 3538,
  "the A": 3539,
  " ticket": 3540,
  "active": 3541,
  "agent": 3542,
  "Manage": 3543,
  "les and ": 3544,
  "Busi": 3545,
  ". She ": 3546,
  "1,": 3547,
  " p.m": 3548,
  "-p": 3549,
  "period": 3550,
  "Fran": 3551,
  "age of ": 3552,
  " some of ": 3553,
  "do not ": 3554,
  "ledge": 3555,
  "vices ": 3556,
  ", pro": 3557,
  " situ": 3558,
  "inten": 3559,
  "big ": 3560,
  " fla": 3561,
  " choose": 3562,
  "themsel": 3563,
  "Win": 3564,
  "Now": 3565,
  "s, but": 3566,
  " tell ": 3567,
  "ria": 3568,
  "hope": 3569,
  "nific": 3570,
  "fering": 3571,
  "s they ": 3572,
  ". But": 3573,
  "technology": 3574,
  " paper": 3575,
  "understand": 3576,
  "everyone": 3577,
  " four ": 3578,
  "econo": 3579,
  "essional ": 3580,
  "left ": 3581,
  "until": 3582,
  " sale": 3583,
  "ity to": 3584,
  "ecuti": 3585,
  " watch": 3586,
  "unique": 3587,
  " further ": 3588,
  "ky ": 3589,
  " commer": 3590,
  ".\nA ": 3591,
  "happen": 3592,
  "iting ": 3593,
  " fore": 3594,
  "Inst": 3595,
  ", such": 3596,
  "IP": 3597,
  "Cho": 3598,
  " special ": 3599,
  "mod": 3600,
  "Well": 3601,
  ", for": 3602,
  "ters": 3603,
  "Cour": 3604,
  "visi": 3605,
  "AL": 3606,
  "Ama": 3607,
  "-up": 3608,
  "excel": 3609,
  "ingle": 3610,
  "reading": 3611,
  " should be ": 3612,
  " wide ": 3613,
  "held": 3614,
  "loud": 3615,
  " code": 3616,
  "ecret": 3617,
  " bag": 3618,
  "Stre": 3619,
  "allo": 3620,
  ". N": 3621,
  "UR": 3622,
  "Of ": 3623,
  " sound ": 3624,
  "_": 3625,
  "version": 3626,
  " cover": 3627,
  "re-": 3628,
  "Europe": 3629,
  " partner": 3630,
  "me to ": 3631,
  "13": 3632,
  "that is ": 3633,
  "American ": 3634,
  "kid": 3635,
  ", to ": 3636,
  "roduction": 3637,
  "Inc": 3638,
  "s-": 3639,
  "ought ": 3640,
  "ilt": 3641,
  "ither": 3642,
  "already ": 3643,
  "row ": 3644,
  "nical ": 3645,
  "experience ": 3646,
  "you will": 3647,
  "check ": 3648,
  "ective ": 3649,
  "pping": 3650,
  "After ": 3651,
  "s)": 3652,
  "exerc": 3653,
  ". They": 3654,
  "Ins": 3655,
  "learn ": 3656,
  "does not ": 3657,
  "form ": 3658,
  "regular": 3659,
  "peration": 3660,
  " appli": 3661,
  "alled": 3662,
  "ished ": 3663,
  "start ": 3664,
  "pirit": 3665,
  "decision": 3666,
  "5-": 3667,
  "in an ": 3668,
  "ever, ": 3669,
  "ors": 3670,
  " suit": 3671,
  "care ": 3672,
  "ya": 3673,
  "les, ": 3674,
  "loa": 3675,
  "th and ": 3676,
  "guest": 3677,
  "son, ": 3678,
  "evalu": 3679,
  "pring": 3680,
  "Im": 3681,
  "abilit": 3682,
  "nate ": 3683,
  "answer": 3684,
  "\u2019s a ": 3685,
  " follo": 3686,
  " sign": 3687,
  "the last ": 3688,
  " whether ": 3689,
  "ashing": 3690,
  " bath": 3691,
  "mong": 3692,
  "artist": 3693,
  "going to ": 3694,
  " firm": 3695,
  "us.\n": 3696,
  " task": 3697,
  "ference ": 3698,
  "it\u2019s": 3699,
  "this a": 3700,
  "s ago": 3701,
  "100 ": 3702,
  "nalys": 3703,
  "28": 3704,
  " topic": 3705,
  "Dr. ": 3706,
  "cher ": 3707,
  "ji": 3708,
  "den ": 3709,
  " all of ": 3710,
  "fall": 3711,
  "important ": 3712,
  "blish": 3713,
  " box": 3714,
  "ship ": 3715,
  " comm": 3716,
  "ending ": 3717,
  "accor": 3718,
  "stall": 3719,
  "W ": 3720,
  "is that ": 3721,
  " servic": 3722,
  "required": 3723,
  "langu": 3724,
  "human": 3725,
  "have been ": 3726,
  "network": 3727,
  " ste": 3728,
  "meeting": 3729,
  "accept": 3730,
  " a new": 3731,
  "les. ": 3732,
  "s, c": 3733,
  "gua": 3734,
  ".\nI": 3735,
  "perat": 3736,
  "opular": 3737,
  "ense": 3738,
  "to find ": 3739,
  "needed": 3740,
  " tit": 3741,
  ",\"": 3742,
  " of your ": 3743,
  "--": 3744,
  ". T": 3745,
  "history": 3746,
  " schedu": 3747,
  " world ": 3748,
  "holi": 3749,
  " office": 3750,
  ".\nIn": 3751,
  "NA": 3752,
  ", an ": 3753,
  "atur": 3754,
  "70": 3755,
  "urance": 3756,
  "role": 3757,
  ". When ": 3758,
  "jud": 3759,
  "the C": 3760,
  "ad, ": 3761,
  "design ": 3762,
  "achie": 3763,
  "-t": 3764,
  "Wed": 3765,
  " share ": 3766,
  "Met": 3767,
  "January ": 3768,
  "high-": 3769,
  "ically": 3770,
  "lux": 3771,
  "bour": 3772,
  "s show": 3773,
  "senior ": 3774,
  ",\u201d ": 3775,
  ".\n\u201c": 3776,
  "dem": 3777,
  " is not ": 3778,
  "Christ": 3779,
  "management": 3780,
  "fy ": 3781,
  "15 ": 3782,
  "record": 3783,
  "ja": 3784,
  "ror": 3785,
  "yste": 3786,
  "s like ": 3787,
  "ed by the ": 3788,
  "hite ": 3789,
  "munic": 3790,
  " prov": 3791,
  " sit": 3792,
  "matter": 3793,
  "bit ": 3794,
  "ww": 3795,
  "once ": 3796,
  "Hu": 3797,
  "neces": 3798,
  "rali": 3799,
  "CE": 3800,
  " sense": 3801,
  "hold": 3802,
  "Gr": 3803,
  " town": 3804,
  "understan": 3805,
  "5.": 3806,
  " front": 3807,
  "(S": 3808,
  "gradu": 3809,
  "ution ": 3810,
  " spa": 3811,
  "ks to ": 3812,
  "ignific": 3813,
  "media": 3814,
  "zen": 3815,
  "mazing": 3816,
  "inspi": 3817,
  "instead": 3818,
  " oc": 3819,
  "explo": 3820,
  "Es": 3821,
  "multi": 3822,
  "19 ": 3823,
  "rently": 3824,
  "game ": 3825,
  " beautiful": 3826,
  "given ": 3827,
  "ams": 3828,
  "Hol": 3829,
  "to an ": 3830,
  "ribut": 3831,
  " occur": 3832,
  " talk": 3833,
  "employe": 3834,
  "running": 3835,
  "Her": 3836,
  "John ": 3837,
  "drop": 3838,
  " wide": 3839,
  "Washing": 3840,
  " taken": 3841,
  "reven": 3842,
  " complete ": 3843,
  "Tri": 3844,
  " for an ": 3845,
  "recently": 3846,
  "Cam": 3847,
  "yard": 3848,
  "Des": 3849,
  "equip": 3850,
  "roduc": 3851,
  "Je": 3852,
  "\u2014 ": 3853,
  "serv": 3854,
  "yourself": 3855,
  "three": 3856,
  "s from the ": 3857,
  "knowledge": 3858,
  " small ": 3859,
  " short": 3860,
  "fied ": 3861,
  " whole ": 3862,
  " contin": 3863,
  "s by": 3864,
  ", con": 3865,
  " offer ": 3866,
  "easy": 3867,
  " is not": 3868,
  " blog": 3869,
  "ON": 3870,
  "Cli": 3871,
  "Tru": 3872,
  "million": 3873,
  "s who": 3874,
  " bud": 3875,
  "strong": 3876,
  "-a": 3877,
  " is f": 3878,
  "energy": 3879,
  "2014": 3880,
  "rong ": 3881,
  "innov": 3882,
  "tely ": 3883,
  "addres": 3884,
  "as well ": 3885,
  "hos": 3886,
  "holder": 3887,
  " if you ": 3888,
  "eeling": 3889,
  " author": 3890,
  "apo": 3891,
  "similar": 3892,
  " tak": 3893,
  " spot": 3894,
  "intro": 3895,
  "ustain": 3896,
  "test ": 3897,
  " so that ": 3898,
  "leep": 3899,
  "lated": 3900,
  "member ": 3901,
  "ossible ": 3902,
  " princip": 3903,
  "ritten": 3904,
  ". It is ": 3905,
  "resist": 3906,
  "us to ": 3907,
  "onent": 3908,
  "toward": 3909,
  "88": 3910,
  "7.": 3911,
  " based ": 3912,
  " single": 3913,
  "associat": 3914,
  "pair": 3915,
  "revious ": 3916,
  "pm": 3917,
  "22": 3918,
  "udy ": 3919,
  "nel ": 3920,
  "difficul": 3921,
  "urnit": 3922,
  "Cont": 3923,
  "effective": 3924,
  " sea": 3925,
  "This is ": 3926,
  "mate ": 3927,
  "60": 3928,
  "ashi": 3929,
  "ney ": 3930,
  "urther": 3931,
  "duce ": 3932,
  "releas": 3933,
  " comb": 3934,
  "natural": 3935,
  "stre": 3936,
  " appea": 3937,
  "hn": 3938,
  "iling": 3939,
  " sec": 3940,
  "in their ": 3941,
  "ark": 3942,
  "market ": 3943,
  "the new ": 3944,
  "recommend": 3945,
  " walk": 3946,
  "ouch": 3947,
  "chit": 3948,
  " past ": 3949,
  "open ": 3950,
  "ask ": 3951,
  "that they ": 3952,
  " consist": 3953,
  " cours": 3954,
  " content": 3955,
  "use the ": 3956,
  " city": 3957,
  "Is ": 3958,
  "his is ": 3959,
  "nice": 3960,
  " believe": 3961,
  ", for ": 3962,
  "includes ": 3963,
  " in your": 3964,
  "Eng": 3965,
  "H ": 3966,
  "hort ": 3967,
  "aper ": 3968,
  "ME": 3969,
  "His ": 3970,
  "Peop": 3971,
  " piece": 3972,
  "% of ": 3973,
  "adult": 3974,
  ". She": 3975,
  " para": 3976,
  "government ": 3977,
  "t, the ": 3978,
  "medical ": 3979,
  "ficer": 3980,
  "moo": 3981,
  " food ": 3982,
  "ted the ": 3983,
  "tential ": 3984,
  "uccess": 3985,
  "meal": 3986,
  " traditional ": 3987,
  "U.S. ": 3988,
  "TV": 3989,
  " bac": 3990,
  "Nat": 3991,
  " such a": 3992,
  "Most": 3993,
  "kers ": 3994,
  "MI": 3995,
  "Glo": 3996,
  "musc": 3997,
  "More": 3998,
  " bran": 3999,
  "35 ": 4000,
  " analysi": 4001,
  "ender": 4002,
  "zo": 4003,
  "dress": 4004,
  "advant": 4005,
  "...": 4006,
  "emer": 4007,
  " call ": 4008,
  "ko": 4009,
  "cot": 4010,
  "streng": 4011,
  " partic": 4012,
  " support ": 4013,
  "al, ": 4014,
  "have been": 4015,
  "draw": 4016,
  " the first": 4017,
  "2015": 4018,
  "lai": 4019,
  " want to": 4020,
  "s) ": 4021,
  "drive": 4022,
  " camp": 4023,
  "emb": 4024,
  " property": 4025,
  "girl": 4026,
  "ately": 4027,
  "ley ": 4028,
  "ational": 4029,
  "lose ": 4030,
  "nute": 4031,
  " particular": 4032,
  "yet": 4033,
  "though ": 4034,
  "lap": 4035,
  "aniz": 4036,
  "hampi": 4037,
  "nomic": 4038,
  "latest ": 4039,
  "pace ": 4040,
  "young ": 4041,
  "You can": 4042,
  "s can be ": 4043,
  " the c": 4044,
  " potential": 4045,
  "pped ": 4046,
  "Home ": 4047,
  " fresh": 4048,
  "Gover": 4049,
  "es in": 4050,
  " career": 4051,
  "nication": 4052,
  " a good ": 4053,
  "ator": 4054,
  "money ": 4055,
  " specific ": 4056,
  " focus": 4057,
  " professional ": 4058,
  "gor": 4059,
  "Ap": 4060,
  "rab": 4061,
  "ross ": 4062,
  "Ko": 4063,
  " several": 4064,
  "rateg": 4065,
  "six": 4066,
  "Why ": 4067,
  " above": 4068,
  "yet ": 4069,
  "in-": 4070,
  "AP": 4071,
  "duced ": 4072,
  "rant ": 4073,
  "Day": 4074,
  "Wednes": 4075,
  "Fu": 4076,
  " brand ": 4077,
  "Ob": 4078,
  " write": 4079,
  "each other": 4080,
  "veri": 4081,
  "Red": 4082,
  " workshop": 4083,
  "study ": 4084,
  "hlight": 4085,
  "dating": 4086,
  " shift": 4087,
  "Back": 4088,
  "rubber": 4089,
  "Nov. ": 4090,
  " pop": 4091,
  " fl": 4092,
  "urn ": 4093,
  "80": 4094,
  "third": 4095,
  "either": 4096,
  "I think ": 4097,
  " sal": 4098,
  " plat": 4099,
  "to take": 4100,
  "08": 4101,
  "tent ": 4102,
  "s/": 4103,
  "mitt": 4104,
  "miss": 4105,
  "North ": 4106,
  "Tech": 4107,
  " over the": 4108,
  "live ": 4109,
  "I\u2019ve ": 4110,
  "done ": 4111,
  "added": 4112,
  " to help ": 4113,
  "guaran": 4114,
  " why": 4115,
  "ease": 4116,
  "evel ": 4117,
  "didn\u2019t ": 4118,
  "ages ": 4119,
  "minute": 4120,
  "least": 4121,
  "gain ": 4122,
  "increase": 4123,
  "recent ": 4124,
  "ensure ": 4125,
  "aspect": 4126,
  " single ": 4127,
  " try ": 4128,
  "ed in": 4129,
  "If you": 4130,
  " possible": 4131,
  "natural ": 4132,
  "es with ": 4133,
  " pick": 4134,
  "chitect": 4135,
  "We are ": 4136,
  "ments": 4137,
  "organiz": 4138,
  "MS": 4139,
  "cili": 4140,
  " we are ": 4141,
  " function": 4142,
  "ush ": 4143,
  "moun": 4144,
  "munication": 4145,
  ", and the ": 4146,
  "logi": 4147,
  "St. ": 4148,
  ". That": 4149,
  "micro": 4150,
  " was the": 4151,
  " following ": 4152,
  "move ": 4153,
  "dence ": 4154,
  "major ": 4155,
  "Mu": 4156,
  " finish": 4157,
  "ties, ": 4158,
  " pattern": 4159,
  "Dist": 4160,
  "I had ": 4161,
  "gives ": 4162,
  "receive": 4163,
  "incredi": 4164,
  "Mid": 4165,
  "students ": 4166,
  " writing": 4167,
  "8.": 4168,
  "desi": 4169,
  "does not": 4170,
  "range of ": 4171,
  "nice ": 4172,
  "more than": 4173,
  "Vo": 4174,
  ". For": 4175,
  "ness and ": 4176,
  "ast. ": 4177,
  " success": 4178,
  "His": 4179,
  "Jesus ": 4180,
  "\u0438": 4181,
  "\u0430": 4182,
  "ance ": 4183,
  " specific": 4184,
  " wan": 4185,
  "pping ": 4186,
  "MA": 4187,
  " confi": 4188,
  "ept ": 4189,
  "kil": 4190,
  " to have": 4191,
  "visit": 4192,
  " within ": 4193,
  "I\u2019m": 4194,
  "advert": 4195,
  " become ": 4196,
  "mini": 4197,
  "1. ": 4198,
  "apt": 4199,
  "ter, ": 4200,
  "addi": 4201,
  "June ": 4202,
  "ither ": 4203,
  "tion to ": 4204,
  "engine": 4205,
  "Dece": 4206,
  "ed for": 4207,
  " whole": 4208,
  ", as ": 4209,
  "Aust": 4210,
  "key ": 4211,
  "rio": 4212,
  "ww.": 4213,
  "ross": 4214,
  "lite": 4215,
  " there are ": 4216,
  " provided": 4217,
  "-to-": 4218,
  "took": 4219,
  "\u2019d ": 4220,
  "however": 4221,
  "April ": 4222,
  "ed.\n": 4223,
  "the other ": 4224,
  "Bro": 4225,
  "PS": 4226,
  "ower ": 4227,
  " fir": 4228,
  "dest": 4229,
  "timate": 4230,
  "University of ": 4231,
  "element": 4232,
  " signific": 4233,
  " tran": 4234,
  " feeling": 4235,
  "eye": 4236,
  " significant": 4237,
  " provides ": 4238,
  "giving ": 4239,
  "cant ": 4240,
  "ector": 4241,
  "lance": 4242,
  " purchas": 4243,
  " built": 4244,
  "thank": 4245,
  "it will": 4246,
  "Stu": 4247,
  ". There": 4248,
  "King": 4249,
  "Pol": 4250,
  "lower": 4251,
  "High": 4252,
  " table": 4253,
  " create ": 4254,
  "ing and": 4255,
  " was the ": 4256,
  "ball ": 4257,
  ", who ": 4258,
  "like to ": 4259,
  "s. This ": 4260,
  ". C": 4261,
  "his f": 4262,
  "his p": 4263,
  "ficial ": 4264,
  "entire ": 4265,
  ". Some": 4266,
  "into a": 4267,
  "lag": 4268,
  ". D": 4269,
  "zz": 4270,
  "strugg": 4271,
  "known ": 4272,
  "oppor": 4273,
  "I will": 4274,
  "2018 ": 4275,
  " culture": 4276,
  "to p": 4277,
  " common ": 4278,
  "so, ": 4279,
  "Vis": 4280,
  " financial": 4281,
  "Bea": 4282,
  " security": 4283,
  " wit": 4284,
  "Council": 4285,
  "loved": 4286,
  "THE ": 4287,
  "evil": 4288,
  "highlight": 4289,
  "Are": 4290,
  "Pra": 4291,
  "tence": 4292,
  "Care ": 4293,
  " favo": 4294,
  "using": 4295,
  "letter": 4296,
  "Feb": 4297,
  "2. ": 4298,
  "uge": 4299,
  "dou": 4300,
  "lad": 4301,
  "extreme": 4302,
  "meet ": 4303,
  "iled": 4304,
  "outh": 4305,
  "install": 4306,
  "on your ": 4307,
  "having ": 4308,
  "certain": 4309,
  " forward": 4310,
  "either ": 4311,
  "match": 4312,
  " center": 4313,
  " popular": 4314,
  ". And": 4315,
  "learn": 4316,
  " came ": 4317,
  "the next ": 4318,
  "ly the ": 4319,
  " for your ": 4320,
  "urrent": 4321,
  " at least ": 4322,
  "house ": 4323,
  "'ll ": 4324,
  "Every": 4325,
  "alon": 4326,
  "the right ": 4327,
  " contact": 4328,
  " operation": 4329,
  "stri": 4330,
  " shop": 4331,
  "on (": 4332,
  " there is ": 4333,
  "tell": 4334,
  "Bel": 4335,
  "drug": 4336,
  "It's ": 4337,
  "ed. ": 4338,
  "laim": 4339,
  "nab": 4340,
  "11 ": 4341,
  "do not": 4342,
  " taking ": 4343,
  "\u2019s f": 4344,
  ", one": 4345,
  " thou": 4346,
  "brid": 4347,
  " trade": 4348,
  "ting the": 4349,
  "\u2026 ": 4350,
  "-o": 4351,
  " by a": 4352,
  "25 ": 4353,
  "had a ": 4354,
  "et and ": 4355,
  "roll": 4356,
  "the \"": 4357,
  "mission ": 4358,
  "I think": 4359,
  "I will ": 4360,
  " combination": 4361,
  "s, which": 4362,
  "del ": 4363,
  "religi": 4364,
  " pul": 4365,
  " potential ": 4366,
  "strateg": 4367,
  "ted in": 4368,
  "milit": 4369,
  " college": 4370,
  " flu": 4371,
  "dated ": 4372,
  "Hy": 4373,
  "years of ": 4374,
  " fun ": 4375,
  "Hous": 4376,
  " Ste": 4377,
  " cash": 4378,
  "that\u2019s ": 4379,
  " analys": 4380,
  " tes": 4381,
  "Business ": 4382,
  "Afric": 4383,
  "Who": 4384,
  "Free ": 4385,
  " furnit": 4386,
  "Note": 4387,
  "ting and": 4388,
  "rayer": 4389,
  "Medic": 4390,
  "/ ": 4391,
  " priv": 4392,
  "By ": 4393,
  "rict": 4394,
  "recor": 4395,
  "rest ": 4396,
  " a lot of ": 4397,
  "gam": 4398,
  "deep": 4399,
  ".\nWe": 4400,
  " Sc": 4401,
  "e, the ": 4402,
  "inger": 4403,
  "From ": 4404,
  " consider": 4405,
  "s you": 4406,
  "Not ": 4407,
  "ampa": 4408,
  "RA": 4409,
  "\u2019s a": 4410,
  "ficial": 4411,
  " the b": 4412,
  "doct": 4413,
  " bad": 4414,
  " communic": 4415,
  " car ": 4416,
  "ded to ": 4417,
  "morning": 4418,
  "prove": 4419,
  "may be": 4420,
  "mother": 4421,
  "higher ": 4422,
  "everything ": 4423,
  "s it": 4424,
  "ird ": 4425,
  "lue ": 4426,
  "evelo": 4427,
  "retty ": 4428,
  " previ": 4429,
  " a great ": 4430,
  "is one of ": 4431,
  "ppy ": 4432,
  "retur": 4433,
  "ter and ": 4434,
  "insp": 4435,
  "name ": 4436,
  " wal": 4437,
  " to do ": 4438,
  "arm": 4439,
  " one of the ": 4440,
  "dur": 4441,
  "received": 4442,
  "difficult": 4443,
  "Bur": 4444,
  "Tr": 4445,
  "eau": 4446,
  "are not": 4447,
  "Trans": 4448,
  "outside": 4449,
  "fford": 4450,
  "(a": 4451,
  " sl": 4452,
  "rang": 4453,
  "likely ": 4454,
  " purchase": 4455,
  " written": 4456,
  "Gar": 4457,
  "strong ": 4458,
  "Hel": 4459,
  "ffect": 4460,
  " soci": 4461,
  " in this": 4462,
  "entire": 4463,
  " beco": 4464,
  "06": 4465,
  "ality": 4466,
  "60 ": 4467,
  " contr": 4468,
  "Tues": 4469,
  "2010": 4470,
  "Wel": 4471,
  "City": 4472,
  "interview": 4473,
  " couple": 4474,
  "daily ": 4475,
  "November ": 4476,
  " fema": 4477,
  ".\nFor": 4478,
  "you need": 4479,
  "Mot": 4480,
  "separate": 4481,
  "thle": 4482,
  "ya ": 4483,
  "Insta": 4484,
  ".. ": 4485,
  "document": 4486,
  "non-": 4487,
  "cer ": 4488,
  "ress ": 4489,
  "fully": 4490,
  " something": 4491,
  "light ": 4492,
  " track": 4493,
  "UK": 4494,
  "Associ": 4495,
  "the time": 4496,
  "lot ": 4497,
  ".\nIf ": 4498,
  "Lin": 4499,
  "atis": 4500,
  "halleng": 4501,
  " sun": 4502,
  "niti": 4503,
  "Mic": 4504,
  "fied": 4505,
  "hori": 4506,
  "coun": 4507,
  "ding to ": 4508,
  "understand ": 4509,
  " by a ": 4510,
  "\u2019s s": 4511,
  "New Y": 4512,
  "2016": 4513,
  "xim": 4514,
  "lif": 4515,
  "s for the": 4516,
  "\u2019s p": 4517,
  " system ": 4518,
  "zer": 4519,
  " of our ": 4520,
  " campa": 4521,
  "die": 4522,
  "certain ": 4523,
  " in 19": 4524,
  "October ": 4525,
  "vou": 4526,
  "labo": 4527,
  "s on the ": 4528,
  "rea ": 4529,
  "s but ": 4530,
  "97": 4531,
  "Ni": 4532,
  "manager": 4533,
  "seen ": 4534,
  "depart": 4535,
  "grat": 4536,
  "doing ": 4537,
  "improve": 4538,
  " for you": 4539,
  "ches": 4540,
  "9.": 4541,
  "tempt": 4542,
  "Medi": 4543,
  "wards ": 4544,
  "chance": 4545,
  "ed to the ": 4546,
  "eather": 4547,
  "oker": 4548,
  "(1": 4549,
  "n the ": 4550,
  "hop ": 4551,
  "times": 4552,
  "ly a": 4553,
  "Let": 4554,
  " occa": 4555,
  "insurance": 4556,
  " currently ": 4557,
  "midd": 4558,
  "40 ": 4559,
  " that you ": 4560,
  "urer": 4561,
  " block": 4562,
  "dict": 4563,
  "Ki": 4564,
  "Cre": 4565,
  " Sh": 4566,
  " section": 4567,
  "metal": 4568,
  "s possible": 4569,
  "enter ": 4570,
  "device": 4571,
  "reve": 4572,
  "Revi": 4573,
  "s also ": 4574,
  "hurch": 4575,
  "Most ": 4576,
  "mobile": 4577,
  " sustain": 4578,
  "blue": 4579,
  "land, ": 4580,
  " agen": 4581,
  "download": 4582,
  "gori": 4583,
  " positive ": 4584,
  "fili": 4585,
  "ategori": 4586,
  "didn't ": 4587,
  " a t": 4588,
  " award": 4589,
  "Law": 4590,
  "older ": 4591,
  "pert ": 4592,
  " officer": 4593,
  "The S": 4594,
  "tics ": 4595,
  " foundation": 4596,
  "hypo": 4597,
  "sco ": 4598,
  "lear ": 4599,
  "glas": 4600,
  "That ": 4601,
  "thern ": 4602,
  "24": 4603,
  ",\u201d": 4604,
  "event ": 4605,
  "iled ": 4606,
  " clea": 4607,
  "not be ": 4608,
  "nam": 4609,
  "happe": 4610,
  "I'm ": 4611,
  "add ": 4612,
  " comment": 4613,
  "5, ": 4614,
  "s.\nThe": 4615,
  " to see": 4616,
  "iler": 4617,
  "region": 4618,
  "sary": 4619,
  " available ": 4620,
  " taking": 4621,
  " syste": 4622,
  " fee": 4623,
  " sci": 4624,
  "how to ": 4625,
  "driver": 4626,
  "rely ": 4627,
  "ure, ": 4628,
  "t. The ": 4629,
  " touch": 4630,
  "=": 4631,
  "assess": 4632,
  " pay ": 4633,
  "ork ": 4634,
  "dustry ": 4635,
  "learning": 4636,
  "ED": 4637,
  "near ": 4638,
  "the \u201c": 4639,
  " bit ": 4640,
  " project ": 4641,
  "raction": 4642,
  "bility": 4643,
  ". You can ": 4644,
  " true": 4645,
  "means": 4646,
  "Off": 4647,
  "anything ": 4648,
  "ana ": 4649,
  " summer": 4650,
  "NE": 4651,
  "ability ": 4652,
  "human ": 4653,
  "Now ": 4654,
  "LE": 4655,
  "gard": 4656,
  "ries": 4657,
  "s, b": 4658,
  "night ": 4659,
  " a b": 4660,
  " target": 4661,
  "cious ": 4662,
  " spo": 4663,
  "mem": 4664,
  "you want": 4665,
  " save ": 4666,
  "achieve": 4667,
  "via": 4668,
  "Geor": 4669,
  " case ": 4670,
  ". To ": 4671,
  " community ": 4672,
  " to give ": 4673,
  "ecia": 4674,
  "lead ": 4675,
  "35": 4676,
  "medical": 4677,
  " offers ": 4678,
  "grand": 4679,
  "mes to ": 4680,
  "ity, ": 4681,
  "excell": 4682,
  "excellent": 4683,
  " since": 4684,
  "les of ": 4685,
  "Tur": 4686,
  "neighbor": 4687,
  "use the": 4688,
  " squ": 4689,
  ", and the": 4690,
  "selection": 4691,
  "09": 4692,
  "hard ": 4693,
  "ation to ": 4694,
  "you're ": 4695,
  " future ": 4696,
  "s also": 4697,
  " it is": 4698,
  "black ": 4699,
  " component": 4700,
  " social": 4701,
  "going to": 4702,
  "Then ": 4703,
  "2019 ": 4704,
  "range of": 4705,
  " ini": 4706,
  "Willi": 4707,
  "John": 4708,
  "ability to ": 4709,
  "House ": 4710,
  ".\nSo": 4711,
  "years ago": 4712,
  "advanced ": 4713,
  "repair": 4714,
  "general ": 4715,
  "\u0440": 4716,
  "ON ": 4717,
  "Each ": 4718,
  " conta": 4719,
  "stake": 4720,
  " impact ": 4721,
  "eper": 4722,
  "Department of ": 4723,
  "increased ": 4724,
  "estate ": 4725,
  "you should": 4726,
  " ST": 4727,
  "risk of ": 4728,
  "\u00c1": 4729,
  "\u0435": 4730,
  "black": 4731,
  "deco": 4732,
  "bon": 4733,
  "deb": 4734,
  " fall": 4735,
  " this s": 4736,
  "Rep": 4737,
  "graphic": 4738,
  "k you": 4739,
  "Cana": 4740,
  "ublic ": 4741,
  "98": 4742,
  "unding": 4743,
  "Engl": 4744,
  "Ear": 4745,
  " implement": 4746,
  "memo": 4747,
  "especially": 4748,
  " fit": 4749,
  "ation and": 4750,
  " tha": 4751,
  " white": 4752,
  " from a ": 4753,
  "thought ": 4754,
  "ld, ": 4755,
  "on your": 4756,
  "Val": 4757,
  " for your": 4758,
  " per ": 4759,
  "Art": 4760,
  "\u00a3": 4761,
  " fire": 4762,
  "17 ": 4763,
  " sk": 4764,
  "edding": 4765,
  "A. ": 4766,
  "ity of": 4767,
  "alt": 4768,
  "econ": 4769,
  "New York ": 4770,
  "integ": 4771,
  "y to": 4772,
  "develo": 4773,
  "oss": 4774,
  " went ": 4775,
  "sert": 4776,
  "education": 4777,
  "vices": 4778,
  "unds ": 4779,
  " computer": 4780,
  "6, ": 4781,
  "international": 4782,
  " survi": 4783,
  " wrong": 4784,
  "hund": 4785,
  "Bas": 4786,
  "igned ": 4787,
  "addition": 4788,
  " brow": 4789,
  " appear": 4790,
  "movement": 4791,
  "release": 4792,
  " bank": 4793,
  " practi": 4794,
  "nifi": 4795,
  "Even": 4796,
  " clean": 4797,
  "hoo": 4798,
  "ty of ": 4799,
  "related ": 4800,
  "used to ": 4801,
  ". Th": 4802,
  "rush": 4803,
  "responsible": 4804,
  " collabo": 4805,
  "rob": 4806,
  " fair": 4807,
  "II": 4808,
  "Google ": 4809,
  "eption": 4810,
  "nificant ": 4811,
  "zy": 4812,
  "minist": 4813,
  "is avail": 4814,
  "ony ": 4815,
  "ly.\n": 4816,
  " plan ": 4817,
  "omen ": 4818,
  "ly in ": 4819,
  "s!": 4820,
  "ly with ": 4821,
  "death": 4822,
  "However, ": 4823,
  "le-": 4824,
  "Loc": 4825,
  ". To": 4826,
  " consider ": 4827,
  "Ty": 4828,
  "ting and ": 4829,
  "as it ": 4830,
  "els": 4831,
  "message": 4832,
  "Down": 4833,
  "friend": 4834,
  "group ": 4835,
  " transfer": 4836,
  "uper ": 4837,
  "video ": 4838,
  "daily": 4839,
  " worth": 4840,
  "due to ": 4841,
  "lim": 4842,
  "channel": 4843,
  " previous ": 4844,
  " board ": 4845,
  "rather than ": 4846,
  "answer ": 4847,
  ".\"\n\"": 4848,
  "drive ": 4849,
  " a.m": 4850,
  "Hand": 4851,
  ".\"": 4852,
  "Thursday": 4853,
  "\u043d": 4854,
  "Excel": 4855,
  "deral": 4856,
  " would be ": 4857,
  "load ": 4858,
  " af": 4859,
  "Lu": 4860,
  "tered": 4861,
  "May ": 4862,
  "Us": 4863,
  " build": 4864,
  " of your": 4865,
  "hus": 4866,
  "International ": 4867,
  "Che": 4868,
  "grant": 4869,
  " production": 4870,
  "additional ": 4871,
  "needs ": 4872,
  "dol": 4873,
  "uggest": 4874,
  "visit ": 4875,
  "s were": 4876,
  "cast": 4877,
  "ord": 4878,
  " to get": 4879,
  " the other": 4880,
  " allow ": 4881,
  " they are ": 4882,
  " the f": 4883,
  ". \"": 4884,
  "ribu": 4885,
  ". Be": 4886,
  " current": 4887,
  ". If": 4888,
  "red to": 4889,
  "Cap": 4890,
  " came": 4891,
  "es. The ": 4892,
  "Mil": 4893,
  "ers ": 4894,
  " to your": 4895,
  ", that ": 4896,
  "itute": 4897,
  "able for ": 4898,
  "istration": 4899,
  "to provide": 4900,
  "comp": 4901,
  "remain": 4902,
  "I can": 4903,
  "growth": 4904,
  "note": 4905,
  " concern": 4906,
  "tery": 4907,
  "illing ": 4908,
  "sell": 4909,
  ". P": 4910,
  " to help": 4911,
  " with an ": 4912,
  "edge": 4913,
  "'ve": 4914,
  "industry ": 4915,
  "replace": 4916,
  "volu": 4917,
  "investment": 4918,
  "Please": 4919,
  " South ": 4920,
  "LA": 4921,
  "the new": 4922,
  "ternal": 4923,
  "direction": 4924,
  " progres": 4925,
  "Word": 4926,
  "wise": 4927,
  "kno": 4928,
  "xy": 4929,
  "later ": 4930,
  "aster ": 4931,
  " care ": 4932,
  "as well as": 4933,
  "active ": 4934,
  "list of ": 4935,
  "UN": 4936,
  "Lou": 4937,
  "lower ": 4938,
  "ants ": 4939,
  "received ": 4940,
  "or a ": 4941,
  "it.\n": 4942,
  "ility": 4943,
  "refl": 4944,
  "quite ": 4945,
  " saw": 4946,
  "s). ": 4947,
  "decided ": 4948,
  "Blo": 4949,
  " a bit": 4950,
  "out a": 4951,
  " there are": 4952,
  "strategi": 4953,
  " sector": 4954,
  "LI": 4955,
  "roof": 4956,
  "Ass": 4957,
  "President ": 4958,
  "eleg": 4959,
  " warm": 4960,
  "redu": 4961,
  "Am": 4962,
  " syn": 4963,
  "Que": 4964,
  "Found": 4965,
  "NC": 4966,
  " features ": 4967,
  "City ": 4968,
  " weekend": 4969,
  "Fun": 4970,
  "Award": 4971,
  " college ": 4972,
  "locat": 4973,
  "apartment": 4974,
  "expression": 4975,
  "Research ": 4976,
  "real estate ": 4977,
  " farmer": 4978,
  "17, ": 4979,
  "18, ": 4980,
  "jet": 4981,
  "logo": 4982,
  " surgery": 4983,
  "emotional": 4984,
  "Disco": 4985,
  " Si": 4986,
  "World ": 4987,
  "in this ": 4988,
  "hall": 4989,
  " challeng": 4990,
  "Febru": 4991,
  "lie": 4992,
  "RS": 4993,
  " someone": 4994,
  "doesn\u2019t ": 4995,
  "display": 4996,
  "fety": 4997,
  "ves. ": 4998,
  "reco": 4999,
  "responsi": 5000,
  "CO": 5001,
  "val ": 5002,
  "500": 5003,
  "dry": 5004,
  "degree": 5005,
  " site ": 5006,
  "Pla": 5007,
  "vy ": 5008,
  " websit": 5009,
  "I was": 5010,
  "akes ": 5011,
  "id, ": 5012,
  "dedic": 5013,
  "ms of ": 5014,
  " factor": 5015,
  "or, ": 5016,
  "Australi": 5017,
  "tte ": 5018,
  " obser": 5019,
  " Satur": 5020,
  "irth": 5021,
  "det": 5022,
  "es on ": 5023,
  "mentio": 5024,
  " the top": 5025,
  " someone ": 5026,
  "view ": 5027,
  "X ": 5028,
  "tion to": 5029,
  "sential": 5030,
  " beginning": 5031,
  "remi": 5032,
  "Ter": 5033,
  "s to the": 5034,
  " facili": 5035,
  " cru": 5036,
  "mel": 5037,
  " cost ": 5038,
  " policy": 5039,
  " connection": 5040,
  "ris ": 5041,
  "viro": 5042,
  "Black": 5043,
  "damage": 5044,
  "heard": 5045,
  "] ": 5046,
  " area ": 5047,
  " training ": 5048,
  "pper ": 5049,
  "Reg": 5050,
  "how to": 5051,
  "get the ": 5052,
  " power ": 5053,
  "holiday": 5054,
  "I\u2019ve": 5055,
  "es. The": 5056,
  "up and ": 5057,
  "involved": 5058,
  "ran ": 5059,
  " campaign": 5060,
  "University": 5061,
  " following": 5062,
  " beau": 5063,
  " short ": 5064,
  " path": 5065,
  "days": 5066,
  "ly for ": 5067,
  " allows ": 5068,
  " from a": 5069,
  "unded": 5070,
  "lam": 5071,
  "Vol": 5072,
  "elli": 5073,
  " was s": 5074,
  "huge": 5075,
  " probably": 5076,
  " significant ": 5077,
  "es or ": 5078,
  "modern": 5079,
  " trend": 5080,
  " watch ": 5081,
  "s after ": 5082,
  "located ": 5083,
  "tizen": 5084,
  " subject": 5085,
  "siz": 5086,
  " cause": 5087,
  "v ": 5088,
  "disease": 5089,
  "vehicle": 5090,
  "voi": 5091,
  ". All ": 5092,
  "largest ": 5093,
  "It is": 5094,
  "Pas": 5095,
  "s\u2014": 5096,
  "I want": 5097,
  "persp": 5098,
  "s after": 5099,
  " construction": 5100,
  "Let ": 5101,
  "report ": 5102,
  "expert ": 5103,
  "tery ": 5104,
  "-in-": 5105,
  "AND ": 5106,
  "vil ": 5107,
  "order to": 5108,
  "motor": 5109,
  "Her ": 5110,
  "Dia": 5111,
  "\u00b7": 5112,
  "ine, ": 5113,
  "\u2122": 5114,
  ">": 5115,
  "rica": 5116,
  "hile ": 5117,
  "While ": 5118,
  "once": 5119,
  "3-": 5120,
  " brea": 5121,
  " services ": 5122,
  "Stat": 5123,
  "lub": 5124,
  " aware": 5125,
  " software": 5126,
  "ed on": 5127,
  "uk": 5128,
  "ginal": 5129,
  " compli": 5130,
  "Pl": 5131,
  "job ": 5132,
  "rame": 5133,
  "hope ": 5134,
  " purpose": 5135,
  "chen": 5136,
  " satis": 5137,
  "demo": 5138,
  "mong ": 5139,
  "ically ": 5140,
  "struc": 5141,
  "6-": 5142,
  "door ": 5143,
  "ud ": 5144,
  " is also": 5145,
  "took ": 5146,
  ".\nFor ": 5147,
  "EC": 5148,
  " collect": 5149,
  "unique ": 5150,
  "person ": 5151,
  "to their ": 5152,
  " feed": 5153,
  "discus": 5154,
  " spirit": 5155,
  "ness, ": 5156,
  "uses ": 5157,
  "Once ": 5158,
  "kind of ": 5159,
  "Face": 5160,
  "usually": 5161,
  "resting": 5162,
  "04": 5163,
  "phi": 5164,
  "gaz": 5165,
  " communi": 5166,
  "Brit": 5167,
  "multiple ": 5168,
  " consumer": 5169,
  "6.": 5170,
  "s and the ": 5171,
  "'ll": 5172,
  "architect": 5173,
  "hold ": 5174,
  "time and ": 5175,
  " we are": 5176,
  "economic": 5177,
  " flexi": 5178,
  "logical ": 5179,
  " behind": 5180,
  "media ": 5181,
  "easy ": 5182,
  "getting": 5183,
  " behind ": 5184,
  " one of the": 5185,
  " should be": 5186,
  ". E": 5187,
  "attempt": 5188,
  " building ": 5189,
  "ners ": 5190,
  " tre": 5191,
  "or to ": 5192,
  ". B": 5193,
  ". As ": 5194,
  ". These ": 5195,
  "estate": 5196,
  "s, we": 5197,
  "omew": 5198,
  "get a ": 5199,
  ".\nAs ": 5200,
  "remember": 5201,
  "Whe": 5202,
  "ing for ": 5203,
  " cream": 5204,
  "nation ": 5205,
  "you should ": 5206,
  "ideal": 5207,
  "atego": 5208,
  "mited ": 5209,
  "ritt": 5210,
  "I've ": 5211,
  " worth ": 5212,
  ". \u201c": 5213,
  "alco": 5214,
  "hill": 5215,
  "lism": 5216,
  "Studi": 5217,
  "during the": 5218,
  "Year": 5219,
  "Star": 5220,
  " church": 5221,
  "University ": 5222,
  "le.\n": 5223,
  " spend ": 5224,
  "Asi": 5225,
  "Nu": 5226,
  "Hot": 5227,
  "Light": 5228,
  "mark ": 5229,
  " wonderful ": 5230,
  " fight": 5231,
  "di ": 5232,
  "reading ": 5233,
  "meter": 5234,
  " smart": 5235,
  " ima": 5236,
  " father": 5237,
  "mosp": 5238,
  "delivery": 5239,
  "House": 5240,
  " wee": 5241,
  "throughout the ": 5242,
  " profi": 5243,
  "attrac": 5244,
  "Also": 5245,
  "RI": 5246,
  "graphy": 5247,
  " former ": 5248,
  " prod": 5249,
  "reput": 5250,
  "General ": 5251,
  " affect": 5252,
  "outdoor": 5253,
  "People": 5254,
  " corporate ": 5255,
  "ens ": 5256,
  "updated ": 5257,
  " cab": 5258,
  "Ire": 5259,
  " prayer": 5260,
  "essay": 5261,
  "ttp": 5262,
  " fail": 5263,
  "roduct ": 5264,
  "to find": 5265,
  " complete": 5266,
  "itself": 5267,
  "ed from ": 5268,
  "Chur": 5269,
  "via ": 5270,
  "rup": 5271,
  "into a ": 5272,
  "seem": 5273,
  " sil": 5274,
  "nue ": 5275,
  "oluti": 5276,
  " appreci": 5277,
  "that are": 5278,
  "thy ": 5279,
  "I can ": 5280,
  " public ": 5281,
  " safety": 5282,
  "ble, ": 5283,
  "Just ": 5284,
  "necess": 5285,
  " of an ": 5286,
  ", at ": 5287,
  "ties. ": 5288,
  ", there": 5289,
  "maxim": 5290,
  "marketing": 5291,
  "street": 5292,
  "green": 5293,
  "-- ": 5294,
  " wood": 5295,
  " floor": 5296,
  "increase ": 5297,
  " of their": 5298,
  "side of ": 5299,
  " consult": 5300,
  "tian": 5301,
  ".\nIt": 5302,
  "45": 5303,
  ". However": 5304,
  " print": 5305,
  "tempor": 5306,
  "s. A": 5307,
  " build ": 5308,
  ", where ": 5309,
  "hile": 5310,
  " coming ": 5311,
  " concept": 5312,
  ". F": 5313,
  "mental ": 5314,
  "While": 5315,
  "zon": 5316,
  "me. ": 5317,
  "infor": 5318,
  "t. The": 5319,
  "he said": 5320,
  "les.\n": 5321,
  "radi": 5322,
  "perform": 5323,
  " correct": 5324,
  "-S": 5325,
  " sym": 5326,
  "us and ": 5327,
  " challenge": 5328,
  "Home": 5329,
  "generation": 5330,
  " communication": 5331,
  " capac": 5332,
  "vided ": 5333,
  "it would": 5334,
  "reen": 5335,
  "viding": 5336,
  "is and ": 5337,
  "5%": 5338,
  "s, S": 5339,
  "language": 5340,
  "volun": 5341,
  "\u00ae": 5342,
  "hospital": 5343,
  " bri": 5344,
  " afford": 5345,
  " aut": 5346,
  "Int": 5347,
  "assi": 5348,
  "CI": 5349,
  "dream": 5350,
  "exci": 5351,
  "rical": 5352,
  "le and": 5353,
  "zar": 5354,
  "ting a ": 5355,
  "29": 5356,
  "regard": 5357,
  " companies ": 5358,
  "Mer": 5359,
  "highe": 5360,
  "highest ": 5361,
  "s, we ": 5362,
  "itely ": 5363,
  "laying ": 5364,
  "World": 5365,
  " specia": 5366,
  "eason ": 5367,
  " for this ": 5368,
  "gel": 5369,
  "executi": 5370,
  "remember ": 5371,
  "global ": 5372,
  "technology ": 5373,
  "tail ": 5374,
  " a lot of": 5375,
  "admin": 5376,
  ": \"": 5377,
  "excellent ": 5378,
  "ites ": 5379,
  "to play": 5380,
  "ffee": 5381,
  "epi": 5382,
  "born": 5383,
  "CC": 5384,
  " panel": 5385,
  "citizen": 5386,
  "invit": 5387,
  ".) ": 5388,
  "lying": 5389,
  ".\nWhat": 5390,
  "Prin": 5391,
  "menu": 5392,
  "evening": 5393,
  "mooth": 5394,
  "manner": 5395,
  "ties and": 5396,
  " offered": 5397,
  "according ": 5398,
  " scho": 5399,
  " was p": 5400,
  "oken": 5401,
  "advis": 5402,
  " testing": 5403,
  "you need to ": 5404,
  "exam": 5405,
  "investor": 5406,
  "earning": 5407,
  "Women": 5408,
  " belong": 5409,
  "Manager": 5410,
  "Georg": 5411,
  " section ": 5412,
  "Apple": 5413,
  "dumpster": 5414,
  "vir": 5415,
  "hair": 5416,
  "st the ": 5417,
  " tour": 5418,
  "ensure": 5419,
  "Va": 5420,
  "es that": 5421,
  " tax": 5422,
  "expla": 5423,
  "Rus": 5424,
  " trip": 5425,
  "Cali": 5426,
  "America": 5427,
  "launch": 5428,
  "s like": 5429,
  "Your": 5430,
  "uss": 5431,
  " fix": 5432,
  "Cur": 5433,
  " a s": 5434,
  "you\u2019re": 5435,
  " frequ": 5436,
  "the B": 5437,
  "actually": 5438,
  "Up": 5439,
  "Not": 5440,
  " session": 5441,
  "pped": 5442,
  "incor": 5443,
  "means ": 5444,
  "state ": 5445,
  "We are": 5446,
  "resen": 5447,
  "gift": 5448,
  "rever": 5449,
  "understanding": 5450,
  "mately ": 5451,
  "December ": 5452,
  "9-": 5453,
  "designed": 5454,
  "me to": 5455,
  "the way": 5456,
  "ces of ": 5457,
  "article": 5458,
  "matic ": 5459,
  "ustom": 5460,
  ".\nWhen ": 5461,
  "vill": 5462,
  "ble and ": 5463,
  "mine ": 5464,
  "level ": 5465,
  " probably ": 5466,
  "thr": 5467,
  "Mat": 5468,
  " cyc": 5469,
  "Great ": 5470,
  "-co": 5471,
  ", while ": 5472,
  " sens": 5473,
  " wish": 5474,
  "have to": 5475,
  "held ": 5476,
  " prim": 5477,
  "modern ": 5478,
  "gger": 5479,
  "Park": 5480,
  "amount of ": 5481,
  "rical ": 5482,
  ". It\u2019s ": 5483,
  "enab": 5484,
  "utili": 5485,
  " services": 5486,
  "did not ": 5487,
  "relative": 5488,
  "entry": 5489,
  "gon": 5490,
  "Click ": 5491,
  " teach": 5492,
  "ning the ": 5493,
  " be the ": 5494,
  "solu": 5495,
  ". These": 5496,
  " sleep": 5497,
  "rates ": 5498,
  "it for ": 5499,
  "verse": 5500,
  "gges": 5501,
  "mazing ": 5502,
  "global": 5503,
  " basic ": 5504,
  "out of": 5505,
  "unda": 5506,
  " course ": 5507,
  "giving": 5508,
  " the way ": 5509,
  "cience": 5510,
  "attach": 5511,
  "garden": 5512,
  "ext ": 5513,
  " a good": 5514,
  "36": 5515,
  " average": 5516,
  "quo": 5517,
  "mend ": 5518,
  " close ": 5519,
  "motion": 5520,
  "useful": 5521,
  "OL": 5522,
  " worker": 5523,
  "drink": 5524,
  "marri": 5525,
  " is very ": 5526,
  " try to ": 5527,
  "taining ": 5528,
  " phone ": 5529,
  " overall ": 5530,
  " fear": 5531,
  "habit": 5532,
  "dinner": 5533,
  "definitely ": 5534,
  "venture": 5535,
  "example, ": 5536,
  ". (": 5537,
  "y, the ": 5538,
  "Den": 5539,
  "tained ": 5540,
  "reduce": 5541,
  "stres": 5542,
  "s - ": 5543,
  "material ": 5544,
  "recommend ": 5545,
  "semi": 5546,
  "administ": 5547,
  "nism": 5548,
  "atmosp": 5549,
  "that a": 5550,
  "grapher": 5551,
  " with you": 5552,
  "not a ": 5553,
  "them to ": 5554,
  " School ": 5555,
  "va ": 5556,
  "Bank": 5557,
  "Student": 5558,
  " pressure": 5559,
  "that\u2019s": 5560,
  "related": 5561,
  "utic": 5562,
  "may have": 5563,
  "resol": 5564,
  "join ": 5565,
  "ists ": 5566,
  "appropriate ": 5567,
  "normal ": 5568,
  " plu": 5569,
  "rental": 5570,
  " at home": 5571,
  "MO": 5572,
  "Cr": 5573,
  " weigh": 5574,
  "learned": 5575,
  "ness and": 5576,
  "FF": 5577,
  "revenue": 5578,
  "internal ": 5579,
  "Council ": 5580,
  "\u0442": 5581,
  "Pan": 5582,
  "Tor": 5583,
  "lance ": 5584,
  "chief": 5585,
  " Secret": 5586,
  " wine ": 5587,
  "\u00da": 5588,
  "diagram": 5589,
  "Ger": 5590,
  "heet": 5591,
  "vider": 5592,
  "band": 5593,
  " property ": 5594,
  "3. ": 5595,
  "are the ": 5596,
  "mari": 5597,
  "Pow": 5598,
  "mit ": 5599,
  ", who": 5600,
  " impact": 5601,
  "joy ": 5602,
  "noti": 5603,
  "access": 5604,
  "Clas": 5605,
  " opi": 5606,
  " objec": 5607,
  "ces and ": 5608,
  "else": 5609,
  " original": 5610,
  "that will ": 5611,
  " aff": 5612,
  "ronic": 5613,
  "doub": 5614,
  "tained": 5615,
  " in our ": 5616,
  "26": 5617,
  " initi": 5618,
  "international ": 5619,
  "demon": 5620,
  "ure and ": 5621,
  "resul": 5622,
  "ane ": 5623,
  " this year": 5624,
  "six ": 5625,
  "nature": 5626,
  "discuss": 5627,
  ", of": 5628,
  "nance": 5629,
  "at a": 5630,
  "mile": 5631,
  "s. It": 5632,
  "anyone": 5633,
  " in my ": 5634,
  "weet": 5635,
  "ruit": 5636,
  "it to ": 5637,
  ".\nP": 5638,
  "NS": 5639,
  "uthori": 5640,
  "necessary": 5641,
  "ing to": 5642,
  "deta": 5643,
  "out a ": 5644,
  ", some": 5645,
  "devi": 5646,
  " concent": 5647,
  "s can be": 5648,
  " a great": 5649,
  "We have ": 5650,
  " popu": 5651,
  "meaning": 5652,
  "gol": 5653,
  "Book": 5654,
  "an a": 5655,
  "ream ": 5656,
  " promo": 5657,
  "hot ": 5658,
  " is to": 5659,
  "range ": 5660,
  " body ": 5661,
  "easily ": 5662,
  "-based ": 5663,
  " bill": 5664,
  "gue ": 5665,
  " pros": 5666,
  " week ": 5667,
  "s, co": 5668,
  " train": 5669,
  "up the ": 5670,
  "log ": 5671,
  "it will ": 5672,
  " sport": 5673,
  "ils ": 5674,
  "ij": 5675,
  "respect": 5676,
  " well-": 5677,
  "Gra": 5678,
  "leading ": 5679,
  "mental": 5680,
  " faith": 5681,
  "Jam": 5682,
  "ffici": 5683,
  " is p": 5684,
  " called": 5685,
  " suggest": 5686,
  " this is ": 5687,
  "on this ": 5688,
  "deliver": 5689,
  "s which ": 5690,
  "simply ": 5691,
  " taken ": 5692,
  "statement": 5693,
  " prom": 5694,
  " beautiful ": 5695,
  "void": 5696,
  " and S": 5697,
  "on that": 5698,
  " couple of ": 5699,
  "standing": 5700,
  "s. We": 5701,
  "phon": 5702,
  "ha ": 5703,
  "they were ": 5704,
  " champi": 5705,
  " final": 5706,
  "isting": 5707,
  " among": 5708,
  "across ": 5709,
  "attor": 5710,
  ", ca": 5711,
  "earn ": 5712,
  " based on ": 5713,
  "% of": 5714,
  "young": 5715,
  " could be": 5716,
  " space ": 5717,
  "es have ": 5718,
  "-con": 5719,
  "enviro": 5720,
  "portion": 5721,
  "tification": 5722,
  " counter": 5723,
  "tee ": 5724,
  "ist. ": 5725,
  "month ": 5726,
  "gent ": 5727,
  "s and the": 5728,
  "chick": 5729,
  "limited ": 5730,
  "is of ": 5731,
  "years, ": 5732,
  ". Our": 5733,
  "s is": 5734,
  "ity.\n": 5735,
  "ties of ": 5736,
  "ass ": 5737,
  "univers": 5738,
  "us and": 5739,
  "interp": 5740,
  "Board": 5741,
  " travel ": 5742,
  ", such as ": 5743,
  "prof": 5744,
  " pred": 5745,
  "Mul": 5746,
  "500 ": 5747,
  ". What ": 5748,
  "tially": 5749,
  " talent": 5750,
  " provided ": 5751,
  "High ": 5752,
  " writt": 5753,
  " off the ": 5754,
  "55": 5755,
  "Commit": 5756,
  " theme": 5757,
  "viron": 5758,
  " breakf": 5759,
  "Before ": 5760,
  " operator": 5761,
  "your child": 5762,
  "Hosp": 5763,
  " supplement": 5764,
  " a c": 5765,
  " scholar": 5766,
  "rail": 5767,
  " successful ": 5768,
  ", in the ": 5769,
  " iP": 5770,
  "Hal": 5771,
  "to t": 5772,
  "rupt": 5773,
  "chip": 5774,
  " core": 5775,
  "IV": 5776,
  "(C": 5777,
  "Group ": 5778,
  "accommod": 5779,
  "illa ": 5780,
  "negative ": 5781,
  "ratio": 5782,
  "Minister": 5783,
  "external ": 5784,
  " Super": 5785,
  "UA": 5786,
  "Lod": 5787,
  "http": 5788,
  "RO": 5789,
  "select": 5790,
  "moment": 5791,
  "rative": 5792,
  ", is ": 5793,
  " temp": 5794,
  "divid": 5795,
  "temperat": 5796,
  "to provide ": 5797,
  "abs": 5798,
  " song": 5799,
  "rated": 5800,
  "scri": 5801,
  "OS": 5802,
  "nally": 5803,
  "argu": 5804,
  "rance": 5805,
  "myself": 5806,
  "Company": 5807,
  "gin ": 5808,
  "Cal": 5809,
  "notice": 5810,
  "seems ": 5811,
  "vy": 5812,
  "rich": 5813,
  " coming": 5814,
  "ride": 5815,
  " follow ": 5816,
  "longer": 5817,
  "Fren": 5818,
  "sa ": 5819,
  " to have ": 5820,
  " we have": 5821,
  " slow": 5822,
  "s, which ": 5823,
  "It was ": 5824,
  ", when ": 5825,
  "essential": 5826,
  "started": 5827,
  "acqui": 5828,
  "nutri": 5829,
  "sett": 5830,
  "red to ": 5831,
  "leave": 5832,
  "I don\u2019t ": 5833,
  "additional": 5834,
  "Here": 5835,
  " bed": 5836,
  " setting": 5837,
  "your own": 5838,
  "07": 5839,
  "ited": 5840,
  "s \u2013 ": 5841,
  "everyone ": 5842,
  "tion and": 5843,
  " talk ": 5844,
  "Then": 5845,
  "engage": 5846,
  " way to": 5847,
  "By": 5848,
  "EA": 5849,
  "lean ": 5850,
  "at all": 5851,
  "75": 5852,
  " convers": 5853,
  "ilo": 5854,
  "around the": 5855,
  "exactly": 5856,
  "Christian": 5857,
  "used to": 5858,
  "Cat": 5859,
  "27": 5860,
  " SE": 5861,
  "voice": 5862,
  "West ": 5863,
  ". Our ": 5864,
  "24 ": 5865,
  "year-": 5866,
  "If you are ": 5867,
  "ister ": 5868,
  "list ": 5869,
  " pet": 5870,
  "certi": 5871,
  ".\nThis": 5872,
  "Many": 5873,
  " offering": 5874,
  "ski": 5875,
  " pretty ": 5876,
  "A, ": 5877,
  "damag": 5878,
  " part of the ": 5879,
  "le. ": 5880,
  " projec": 5881,
  "disa": 5882,
  "IA": 5883,
  " beg": 5884,
  "experienced": 5885,
  " at least": 5886,
  "refore": 5887,
  " pool": 5888,
  " whe": 5889,
  "Elect": 5890,
  "s & ": 5891,
  " proced": 5892,
  "Flo": 5893,
  "I had": 5894,
  " official": 5895,
  " shown": 5896,
  "evidence": 5897,
  "versi": 5898,
  " possible ": 5899,
  " trust": 5900,
  " pub": 5901,
  " present ": 5902,
  " true ": 5903,
  "defi": 5904,
  "volunte": 5905,
  " shot": 5906,
  "sence": 5907,
  "Ru": 5908,
  "blished": 5909,
  "lio": 5910,
  "redit ": 5911,
  "gri": 5912,
  "College": 5913,
  " currently": 5914,
  "est, ": 5915,
  " and other": 5916,
  " of my ": 5917,
  " served": 5918,
  "gen ": 5919,
  "teen": 5920,
  "income": 5921,
  "designer": 5922,
  "mended": 5923,
  "RT": 5924,
  "First ": 5925,
  "healthy": 5926,
  "description": 5927,
  "Make": 5928,
  " catego": 5929,
  "23": 5930,
  "deep ": 5931,
  " commercial": 5932,
  " Sci": 5933,
  "amera": 5934,
  ". With ": 5935,
  "quickly ": 5936,
  " switch": 5937,
  "helps ": 5938,
  "guide ": 5939,
  " familiar": 5940,
  "rule": 5941,
  ".\nW": 5942,
  " part ": 5943,
  " written ": 5944,
  "diet": 5945,
  "judg": 5946,
  "in front": 5947,
  "months ": 5948,
  "logy, ": 5949,
  "use of the ": 5950,
  "members ": 5951,
  "goes ": 5952,
  "LS": 5953,
  "tunity": 5954,
  "USA": 5955,
  "65": 5956,
  "machine ": 5957,
  "vary": 5958,
  "opportunity": 5959,
  "role ": 5960,
  "States ": 5961,
  " of p": 5962,
  "s may ": 5963,
  "Right": 5964,
  " treatment ": 5965,
  "Conc": 5966,
  " polici": 5967,
  "driving": 5968,
  " Spring": 5969,
  "mur": 5970,
  "Wednesday": 5971,
  "UL": 5972,
  "Lab": 5973,
  "(G": 5974,
  "zip": 5975,
  "mechanic": 5976,
  "Test ": 5977,
  " sentence": 5978,
  "Korean ": 5979,
  " tenden": 5980,
  "\u200a": 5981,
  "., ": 5982,
  " provider": 5983,
  "... ": 5984,
  "ppy": 5985,
  "dential": 5986,
  " tou": 5987,
  "nical": 5988,
  "demand": 5989,
  "wear": 5990,
  "gredi": 5991,
  "learning ": 5992,
  "ustomer ": 5993,
  "1/": 5994,
  "C. ": 5995,
  "exclu": 5996,
  "map": 5997,
  "happy": 5998,
  "Exp": 5999,
  "nally ": 6000,
  "everything": 6001,
  "against": 6002,
  "cian": 6003,
  " believe ": 6004,
  " post ": 6005,
  "Phi": 6006,
  "guy": 6007,
  " stock ": 6008,
  "perfect ": 6009,
  "viding ": 6010,
  "started ": 6011,
  " sup": 6012,
  "ground ": 6013,
  "AM": 6014,
  "aching ": 6015,
  "head ": 6016,
  "simi": 6017,
  " if you": 6018,
  "aste": 6019,
  "prove ": 6020,
  "Tex": 6021,
  "sion, ": 6022,
  " situation": 6023,
  "Can ": 6024,
  "-w": 6025,
  "not be": 6026,
  ".\nYou ": 6027,
  " pres": 6028,
  "improve ": 6029,
  "Ari": 6030,
  " is also ": 6031,
  "Afri": 6032,
  "IS ": 6033,
  "to work ": 6034,
  " claim": 6035,
  "rise ": 6036,
  "in which ": 6037,
  " creating": 6038,
  "diag": 6039,
  "es (": 6040,
  "s is the ": 6041,
  " colo": 6042,
  "moni": 6043,
  " chemic": 6044,
  " the a": 6045,
  "internet": 6046,
  "gie": 6047,
  " cool": 6048,
  "kitchen": 6049,
  "don't": 6050,
  "ties.\n": 6051,
  "Part": 6052,
  "hundred": 6053,
  "7-": 6054,
  "es in the": 6055,
  " weather": 6056,
  " tub": 6057,
  "know that ": 6058,
  "on their ": 6059,
  "nia ": 6060,
  " corner": 6061,
  " correc": 6062,
  ": The ": 6063,
  "roller": 6064,
  "acco": 6065,
  "interesting": 6066,
  "Ken": 6067,
  "Count": 6068,
  "s. In ": 6069,
  "gets ": 6070,
  "news": 6071,
  "digital ": 6072,
  "don ": 6073,
  "mean ": 6074,
  "ense ": 6075,
  "itude": 6076,
  " bottom": 6077,
  "anyw": 6078,
  "2013": 6079,
  " popular ": 6080,
  " positive": 6081,
  "Lan": 6082,
  " proc": 6083,
  "on S": 6084,
  ". Al": 6085,
  "Friday": 6086,
  "ent to ": 6087,
  " saw ": 6088,
  " and p": 6089,
  "'s a": 6090,
  "ught ": 6091,
  "it co": 6092,
  "activity": 6093,
  " obvi": 6094,
  "elling": 6095,
  "Roy": 6096,
  "up with ": 6097,
  "music ": 6098,
  "cord ": 6099,
  " cook": 6100,
  " of these": 6101,
  "jun": 6102,
  "'s s": 6103,
  "Institute": 6104,
  "Top": 6105,
  "earth": 6106,
  "hun": 6107,
  " apply": 6108,
  "elling ": 6109,
  "explain": 6110,
  "lant ": 6111,
  "ly, the ": 6112,
  "in which": 6113,
  "itting ": 6114,
  " providing": 6115,
  "action ": 6116,
  "techniqu": 6117,
  "I could": 6118,
  "s with a ": 6119,
  ". After": 6120,
  "advantage": 6121,
  " woman": 6122,
  " camera": 6123,
  "day and ": 6124,
  "10-": 6125,
  "mid-": 6126,
  "s which": 6127,
  " the case": 6128,
  "ally, ": 6129,
  "lesson": 6130,
  " blood ": 6131,
  "33": 6132,
  "s that are ": 6133,
  "Ir": 6134,
  "vib": 6135,
  "bert ": 6136,
  "James ": 6137,
  "than a ": 6138,
  "environ": 6139,
  "Glob": 6140,
  "94": 6141,
  "base": 6142,
  "dad": 6143,
  "East ": 6144,
  " weak": 6145,
  " competitive": 6146,
  "use a": 6147,
  "United States ": 6148,
  "Central ": 6149,
  "2014 ": 6150,
  "Street": 6151,
  "37": 6152,
  "heap ": 6153,
  "vast": 6154,
  "Les": 6155,
  "studio": 6156,
  "dining": 6157,
  "Hope ": 6158,
  "heatre": 6159,
  "results ": 6160,
  "Run": 6161,
  " at 1": 6162,
  "enn": 6163,
  "requirement": 6164,
  "nia": 6165,
  "Jap": 6166,
  "redit": 6167,
  "vey": 6168,
  " website ": 6169,
  " custo": 6170,
  "Black ": 6171,
  "Pub": 6172,
  "Pu": 6173,
  "fference": 6174,
  "daugh": 6175,
  "difference": 6176,
  "mist": 6177,
  "nion": 6178,
  "havi": 6179,
  "urs": 6180,
  "ginal ": 6181,
  "error": 6182,
  "ri ": 6183,
  "tention": 6184,
  " suppli": 6185,
  "plex": 6186,
  "me.\n": 6187,
  "looking ": 6188,
  " a little ": 6189,
  "gate": 6190,
  "hi ": 6191,
  "stuff": 6192,
  "quickly": 6193,
  "'re": 6194,
  "Thank you": 6195,
  " progra": 6196,
  "ency": 6197,
  " be able to ": 6198,
  "Stan": 6199,
  "IL": 6200,
  "ned to ": 6201,
  " boy": 6202,
  "housand": 6203,
  "I could ": 6204,
  "movi": 6205,
  " to keep ": 6206,
  "Augu": 6207,
  "ising": 6208,
  " amazing": 6209,
  "looking for": 6210,
  "adjust": 6211,
  "dead": 6212,
  "today ": 6213,
  " wear": 6214,
  "gether ": 6215,
  "master": 6216,
  "y the ": 6217,
  "DA": 6218,
  "unity to ": 6219,
  "les and": 6220,
  "together ": 6221,
  "White ": 6222,
  " some of the ": 6223,
  " to go": 6224,
  "Medical ": 6225,
  "TS": 6226,
  "s:": 6227,
  " custom": 6228,
  " serve": 6229,
  "annual ": 6230,
  "rank": 6231,
  "indust": 6232,
  " and s": 6233,
  " wonderful": 6234,
  "recently ": 6235,
  "interes": 6236,
  " products ": 6237,
  "e to": 6238,
  "ly in": 6239,
  "absolu": 6240,
  "vie": 6241,
  "pected": 6242,
  "visitor": 6243,
  " carri": 6244,
  "easier": 6245,
  "law ": 6246,
  ". What": 6247,
  " authori": 6248,
  "es, the ": 6249,
  "Best ": 6250,
  ".\nT": 6251,
  "tions of ": 6252,
  "ast, ": 6253,
  "ding to the ": 6254,
  " photograph": 6255,
  " impres": 6256,
  "cious": 6257,
  "olid": 6258,
  "2) ": 6259,
  "Whether ": 6260,
  "gency ": 6261,
  "Dan": 6262,
  "update": 6263,
  "ded the ": 6264,
  "vac": 6265,
  "serie": 6266,
  "ents": 6267,
  " cl": 6268,
  "various": 6269,
  "leave ": 6270,
  "knew ": 6271,
  "aged": 6272,
  "likely": 6273,
  "you don\u2019t ": 6274,
  "s. If ": 6275,
  " transport": 6276,
  " sugges": 6277,
  " began": 6278,
  "dom ": 6279,
  "in their": 6280,
  " which is ": 6281,
  " competition": 6282,
  "it comes to ": 6283,
  " sce": 6284,
  "he is ": 6285,
  "Micha": 6286,
  "quant": 6287,
  " pick ": 6288,
  "otic": 6289,
  " carry ": 6290,
  " as possible": 6291,
  "gave ": 6292,
  "you want ": 6293,
  "es of the ": 6294,
  "65 ": 6295,
  "thinking ": 6296,
  " suc": 6297,
  " word ": 6298,
  "sion and ": 6299,
  "had been ": 6300,
  " for their ": 6301,
  "ensive ": 6302,
  "amin ": 6303,
  "or in": 6304,
  "urt": 6305,
  "s around ": 6306,
  "he has ": 6307,
  " built ": 6308,
  " such as": 6309,
  "or more": 6310,
  "helpful": 6311,
  "eyond ": 6312,
  "bec": 6313,
  " symb": 6314,
  "maker": 6315,
  "struction ": 6316,
  "Ye": 6317,
  "ituti": 6318,
  "ough, ": 6319,
  ") in ": 6320,
  "ates": 6321,
  "guarante": 6322,
  "ing.\n": 6323,
  "peed ": 6324,
  " words ": 6325,
  "Life": 6326,
  " women ": 6327,
  "intelli": 6328,
  "up to": 6329,
  "advance": 6330,
  "refore ": 6331,
  "Love": 6332,
  "s play": 6333,
  ".\nN": 6334,
  " cancer": 6335,
  " the w": 6336,
  " produced": 6337,
  "rapy": 6338,
  "model ": 6339,
  "mountain": 6340,
  "\u00b0": 6341,
  "designed ": 6342,
  " write ": 6343,
  "to say": 6344,
  "its f": 6345,
  "Yo": 6346,
  "s will be ": 6347,
  "var": 6348,
  "Fre": 6349,
  "rene": 6350,
  "nitial ": 6351,
  "OS ": 6352,
  "roof ": 6353,
  " sales": 6354,
  "regarding ": 6355,
  "chain": 6356,
  "reo": 6357,
  " initial ": 6358,
  "s. For ": 6359,
  "Kin": 6360,
  "tane": 6361,
  "advoc": 6362,
  " patter": 6363,
  "hyper": 6364,
  "student ": 6365,
  "inspiration": 6366,
  "driving ": 6367,
  " with my": 6368,
  " clinic": 6369,
  " icon": 6370,
  "ku": 6371,
  "$2": 6372,
  "draft": 6373,
  "database": 6374,
  "visor": 6375,
  "ines ": 6376,
  "you need to": 6377,
  " friendly": 6378,
  "enthu": 6379,
  "Order": 6380,
  "nant ": 6381,
  "fore, ": 6382,
  "Robert ": 6383,
  "Ros": 6384,
  "67": 6385,
  "evere ": 6386,
  "Result": 6387,
  "Part ": 6388,
  "dining ": 6389,
  "examination": 6390,
  "% of the ": 6391,
  "):": 6392,
  "Orlan": 6393,
  "Off ": 6394,
  "dumpster ": 6395,
  "!!\n": 6396,
  "\u2022": 6397,
  "\u200b": 6398,
  "tered ": 6399,
  " product ": 6400,
  "Educ": 6401,
  " produc": 6402,
  " agree": 6403,
  "reser": 6404,
  "Califor": 6405,
  "dard ": 6406,
  "lick": 6407,
  "board": 6408,
  "PC": 6409,
  "or more ": 6410,
  "Any": 6411,
  "s should": 6412,
  "aged ": 6413,
  "kin ": 6414,
  "Bra": 6415,
  "illing": 6416,
  " a little": 6417,
  "interest ": 6418,
  "address": 6419,
  "Prof": 6420,
  "listing": 6421,
  " of S": 6422,
  " far ": 6423,
  "nest": 6424,
  " picture": 6425,
  "harm": 6426,
  ". So ": 6427,
  " cross": 6428,
  "Gal": 6429,
  "God ": 6430,
  " further": 6431,
  " complex": 6432,
  "resource": 6433,
  " between the ": 6434,
  "February ": 6435,
  "s I": 6436,
  "stal": 6437,
  " birth": 6438,
  "similar ": 6439,
  " below ": 6440,
  "included": 6441,
  "gular ": 6442,
  "rative ": 6443,
  "that will": 6444,
  "or and ": 6445,
  "UK ": 6446,
  "ordi": 6447,
  " buyer": 6448,
  "hether": 6449,
  " button": 6450,
  "ed of ": 6451,
  " to our ": 6452,
  "Micro": 6453,
  "Clo": 6454,
  " frame": 6455,
  "s'": 6456,
  "energy ": 6457,
  " thousand": 6458,
  " with your ": 6459,
  "individ": 6460,
  "individual ": 6461,
  " choose ": 6462,
  "licens": 6463,
  " process ": 6464,
  "issue ": 6465,
  "vio": 6466,
  "variety of ": 6467,
  " of these ": 6468,
  " complet": 6469,
  " in order": 6470,
  "articular": 6471,
  " conclu": 6472,
  "strength": 6473,
  "running ": 6474,
  "station": 6475,
  "care": 6476,
  "opportunity to ": 6477,
  "to their": 6478,
  "uppor": 6479,
  "numer": 6480,
  "ting a": 6481,
  "ation.\n": 6482,
  ", where": 6483,
  "You will ": 6484,
  "feren": 6485,
  "s, a ": 6486,
  "nothing": 6487,
  "ript": 6488,
  "to this ": 6489,
  " wish ": 6490,
  "ensive": 6491,
  " constant": 6492,
  "real estate": 6493,
  "needed ": 6494,
  "maybe ": 6495,
  "-based": 6496,
  "red by ": 6497,
  " around the ": 6498,
  ", sp": 6499,
  "EL": 6500,
  "have the": 6501,
  "ing in ": 6502,
  "ate the ": 6503,
  "abric": 6504,
  " after the ": 6505,
  " and is ": 6506,
  "84": 6507,
  " bad ": 6508,
  " considered": 6509,
  "ummer ": 6510,
  "heel": 6511,
  " screen": 6512,
  "DI": 6513,
  "require ": 6514,
  "ving the ": 6515,
  " profit": 6516,
  " plen": 6517,
  "s from the": 6518,
  ". If you ": 6519,
  "ry and": 6520,
  "book ": 6521,
  " a year": 6522,
  "desk": 6523,
  "num": 6524,
  "Other ": 6525,
  "D. ": 6526,
  "in and ": 6527,
  " supplier": 6528,
  "Cra": 6529,
  "ds to": 6530,
  "s available": 6531,
  ", if": 6532,
  "'d ": 6533,
  " this p": 6534,
  "ties and ": 6535,
  " sell ": 6536,
  "restric": 6537,
  "like to": 6538,
  " prevent": 6539,
  "or other ": 6540,
  "unch ": 6541,
  " plac": 6542,
  "instruction": 6543,
  "coming": 6544,
  "itely": 6545,
  "end of the ": 6546,
  "BC": 6547,
  "experienced ": 6548,
  "to be a ": 6549,
  "version ": 6550,
  "dyna": 6551,
  "porting ": 6552,
  " fro": 6553,
  " football": 6554,
  "economy": 6555,
  "verse ": 6556,
  "aint ": 6557,
  "Work": 6558,
  " cloud": 6559,
  "help you": 6560,
  "moved": 6561,
  "s, or ": 6562,
  " favou": 6563,
  "any other ": 6564,
  "Hen": 6565,
  "'s f": 6566,
  "appropriate": 6567,
  "record ": 6568,
  "independent": 6569,
  " approach ": 6570,
  ".\nBut ": 6571,
  "s out": 6572,
  "Colo": 6573,
  "eligi": 6574,
  " confirm": 6575,
  " suffici": 6576,
  ", I ": 6577,
  "s there": 6578,
  "vering": 6579,
  " tree": 6580,
  "vention": 6581,
  " it and ": 6582,
  "Post": 6583,
  "valid": 6584,
  "bid": 6585,
  "Commer": 6586,
  "app ": 6587,
  "vision ": 6588,
  ".\nIf": 6589,
  "ism": 6590,
  "paper": 6591,
  ". There are ": 6592,
  "\" and ": 6593,
  " who are ": 6594,
  " bus": 6595,
  "directly ": 6596,
  "rapid": 6597,
  " whatever ": 6598,
  "Online ": 6599,
  "dating ": 6600,
  "Court": 6601,
  " season ": 6602,
  " society": 6603,
  " coffee": 6604,
  "s away": 6605,
  " of the S": 6606,
  "Data": 6607,
  " a bit ": 6608,
  "it with ": 6609,
  " apply ": 6610,
  "associated with ": 6611,
  "\u2019s S": 6612,
  " score": 6613,
  "knew": 6614,
  "Midd": 6615,
  "folio": 6616,
  " feature ": 6617,
  " security ": 6618,
  "Ry": 6619,
  "Dani": 6620,
  "Ita": 6621,
  "African ": 6622,
  "gio": 6623,
  "s she": 6624,
  "Gri": 6625,
  "sory ": 6626,
  " corporate": 6627,
  "decade": 6628,
  "OF ": 6629,
  "libr": 6630,
  "perspective": 6631,
  "stag": 6632,
  "here to": 6633,
  "Fut": 6634,
  "dose": 6635,
  "ultra": 6636,
  "Buy ": 6637,
  "HI": 6638,
  "Rou": 6639,
  " patients with ": 6640,
  "\u20b9": 6641,
  " card": 6642,
  "ingredi": 6643,
  " window": 6644,
  " file": 6645,
  "extra": 6646,
  "Out": 6647,
  "time to ": 6648,
  "inding": 6649,
  " colour": 6650,
  "als": 6651,
  "seat": 6652,
  "crat": 6653,
  "vea": 6654,
  " behavi": 6655,
  "Mus": 6656,
  " of our": 6657,
  " final ": 6658,
  " wea": 6659,
  "legal ": 6660,
  "response": 6661,
  "State ": 6662,
  "longer ": 6663,
  "I love ": 6664,
  "Program": 6665,
  "expos": 6666,
  "establish": 6667,
  "Are ": 6668,
  "had a": 6669,
  "inside": 6670,
  "logical": 6671,
  "posi": 6672,
  "or a": 6673,
  "native": 6674,
  "ID": 6675,
  " opp": 6676,
  "lex ": 6677,
  "Tw": 6678,
  "dollar": 6679,
  "Buil": 6680,
  "enjoy ": 6681,
  " servi": 6682,
  "step ": 6683,
  "regu": 6684,
  " focus ": 6685,
  "days ": 6686,
  "extra ": 6687,
  "* ": 6688,
  "CH": 6689,
  " a p": 6690,
  "nearly ": 6691,
  "From": 6692,
  "this week": 6693,
  "thre": 6694,
  "assu": 6695,
  " average ": 6696,
  "Bal": 6697,
  " to use ": 6698,
  "use of": 6699,
  "alb": 6700,
  "layer": 6701,
  "across the ": 6702,
  " sort": 6703,
  "'s p": 6704,
  "Fig": 6705,
  "Ce": 6706,
  " when the ": 6707,
  "s of a": 6708,
  "performance ": 6709,
  "perman": 6710,
  " paid": 6711,
  "sions ": 6712,
  "loved ": 6713,
  " comes ": 6714,
  " sin": 6715,
  " takes ": 6716,
  "s your ": 6717,
  " publish": 6718,
  "'s a ": 6719,
  "ourc": 6720,
  " be able to": 6721,
  "helped ": 6722,
  "First": 6723,
  "perate": 6724,
  "s. I ": 6725,
  "HE": 6726,
  "ed from": 6727,
  "ank": 6728,
  "se the ": 6729,
  "Have ": 6730,
  "number ": 6731,
  "LL": 6732,
  "account ": 6733,
  " within the": 6734,
  "ect the ": 6735,
  "County ": 6736,
  " coach": 6737,
  " continue": 6738,
  " feet": 6739,
  " somew": 6740,
  "ing from ": 6741,
  "haps ": 6742,
  "ER ": 6743,
  "Company ": 6744,
  "Inform": 6745,
  "statistic": 6746,
  " conduct": 6747,
  "you need ": 6748,
  " prefer": 6749,
  "hood ": 6750,
  " fif": 6751,
  "up the": 6752,
  "coming ": 6753,
  "alized ": 6754,
  "eeding": 6755,
  "help you ": 6756,
  "look at ": 6757,
  " premi": 6758,
  "place ": 6759,
  "serious ": 6760,
  " of my": 6761,
  " beer": 6762,
  ".\nTo": 6763,
  " before the ": 6764,
  "tainly ": 6765,
  " push": 6766,
  "osted ": 6767,
  " amazing ": 6768,
  " fal": 6769,
  ".\nE": 6770,
  "happi": 6771,
  " balance": 6772,
  " though ": 6773,
  "2012": 6774,
  "necessary ": 6775,
  "veget": 6776,
  " compet": 6777,
  " cause ": 6778,
  "attle": 6779,
  "With the ": 6780,
  "me that ": 6781,
  " spend": 6782,
  " context": 6783,
  "lass ": 6784,
  "storage": 6785,
  "s since ": 6786,
  "Van": 6787,
  "90 ": 6788,
  "s about": 6789,
  " physical": 6790,
  " is in ": 6791,
  "vul": 6792,
  "Techno": 6793,
  " and that ": 6794,
  "kept ": 6795,
  "items ": 6796,
  "\"S": 6797,
  "definitely": 6798,
  "involved ": 6799,
  "to share": 6800,
  "effect ": 6801,
  " opening": 6802,
  "ages": 6803,
  " critical ": 6804,
  "ested ": 6805,
  " sm": 6806,
  " in my": 6807,
  "Hea": 6808,
  " this f": 6809,
  "Review": 6810,
  "Over ": 6811,
  " oil ": 6812,
  " figure ": 6813,
  "ford ": 6814,
  "Use ": 6815,
  "removed": 6816,
  "starting ": 6817,
  "Water": 6818,
  "77": 6819,
  "t or": 6820,
  " won\u2019t ": 6821,
  "not the ": 6822,
  "porting": 6823,
  "Fac": 6824,
  "out and ": 6825,
  " caus": 6826,
  "rising": 6827,
  "s along": 6828,
  "\u00ed": 6829,
  "recommended": 6830,
  " is that": 6831,
  "deck": 6832,
  "s and a ": 6833,
  "2009": 6834,
  "spite ": 6835,
  "perform ": 6836,
  "vine": 6837,
  "print": 6838,
  " forum": 6839,
  "ary of ": 6840,
  "terior ": 6841,
  "rai": 6842,
  "liste": 6843,
  "\u00ae ": 6844,
  " bod": 6845,
  " passion": 6846,
  "oker ": 6847,
  "MC": 6848,
  ":30": 6849,
  " poss": 6850,
  "interpret": 6851,
  " opened ": 6852,
  " object": 6853,
  " beauty": 6854,
  "22 ": 6855,
  "/or": 6856,
  "day of ": 6857,
  " witness": 6858,
  ". However, ": 6859,
  " categori": 6860,
  " becoming": 6861,
  "er to": 6862,
  ". My": 6863,
  "he\u2019s ": 6864,
  " freedom": 6865,
  "accurate": 6866,
  "they will ": 6867,
  "s, they ": 6868,
  "input": 6869,
  "remove ": 6870,
  "Water ": 6871,
  "ishment": 6872,
  " senti": 6873,
  " those who ": 6874,
  "ciety ": 6875,
  "neering ": 6876,
  "\u00b7 ": 6877,
  " plant ": 6878,
  "aste ": 6879,
  "Zea": 6880,
  "New Zea": 6881,
  " fluid": 6882,
  "cm": 6883,
  "\u043b": 6884,
  "19, ": 6885,
  "expens": 6886,
  "tamin": 6887,
  "Chief ": 6888,
  "Test": 6889,
  " scre": 6890,
  "Viet": 6891,
  " in C": 6892,
  "Mecha": 6893,
  "tooth ": 6894,
  "located at ": 6895,
  "Develop": 6896,
  " stock": 6897,
  " in your ": 6898,
  "geo": 6899,
  " program ": 6900,
  "PA": 6901,
  "upon": 6902,
  "13 ": 6903,
  " customer ": 6904,
  "cing ": 6905,
  " we can ": 6906,
  "Em": 6907,
  "Bri": 6908,
  "stage": 6909,
  "Rec": 6910,
  "ink": 6911,
  " candi": 6912,
  "simply": 6913,
  ".\nR": 6914,
  "have to ": 6915,
  "alized": 6916,
  "style ": 6917,
  "rehen": 6918,
  " condi": 6919,
  "Plan": 6920,
  "Act": 6921,
  "measure": 6922,
  "s on the": 6923,
  "taining": 6924,
  "ed on the ": 6925,
  ": S": 6926,
  "Window": 6927,
  "rian": 6928,
  "incorpo": 6929,
  "tially ": 6930,
  "effective ": 6931,
  "leading": 6932,
  "August ": 6933,
  " shar": 6934,
  "desti": 6935,
  " produce": 6936,
  "Commun": 6937,
  "knowled": 6938,
  "scription": 6939,
  "express": 6940,
  "1:": 6941,
  " a very ": 6942,
  "Pen": 6943,
  " bul": 6944,
  "lin ": 6945,
  "third ": 6946,
  "; and ": 6947,
  "kie": 6948,
  "gun": 6949,
  "employee": 6950,
  "on their": 6951,
  "Ben": 6952,
  " weight ": 6953,
  "lying ": 6954,
  "fulf": 6955,
  " paint": 6956,
  "Poli": 6957,
  "Accor": 6958,
  "variety of": 6959,
  " can\u2019t": 6960,
  "according to ": 6961,
  " completely ": 6962,
  "immediately": 6963,
  "Jack": 6964,
  " trave": 6965,
  "hand ": 6966,
  "pite": 6967,
  "NY": 6968,
  "diffe": 6969,
  "they can ": 6970,
  "hibit": 6971,
  " tro": 6972,
  "Gol": 6973,
  " acade": 6974,
  "AB": 6975,
  "manufacturer": 6976,
  "Why": 6977,
  " to use": 6978,
  "early": 6979,
  "they\u2019re ": 6980,
  "Mas": 6981,
  "neck": 6982,
  "/w": 6983,
  "depending ": 6984,
  " opinion": 6985,
  "ource ": 6986,
  " fact ": 6987,
  "OT": 6988,
  "Indian ": 6989,
  "s. It ": 6990,
  " trac": 6991,
  "Free": 6992,
  "down the ": 6993,
  "out. ": 6994,
  "I know ": 6995,
  "determine": 6996,
  ".\nTo ": 6997,
  "it i": 6998,
  " to go ": 6999,
  "technical ": 7000,
  "rely": 7001,
  " pic": 7002,
  " brough": 7003,
  "Uk": 7004,
  ", wh": 7005,
  "er, ": 7006,
  ".\nB": 7007,
  "assistance": 7008,
  "danger": 7009,
  "turing ": 7010,
  " talking ": 7011,
  "ters, ": 7012,
  "Each": 7013,
  "s per ": 7014,
  " of what ": 7015,
  " conference": 7016,
  "TR": 7017,
  "way of ": 7018,
  " brought ": 7019,
  "they can": 7020,
  "existing ": 7021,
  "selling": 7022,
  " office ": 7023,
  "logist": 7024,
  "certainly ": 7025,
  "latest": 7026,
  "s, so": 7027,
  "earlier": 7028,
  "British ": 7029,
  "Network": 7030,
  "terior": 7031,
  "yi": 7032,
  "else ": 7033,
  "Histo": 7034,
  "network ": 7035,
  "nap": 7036,
  "like a": 7037,
  "decide": 7038,
  "(or ": 7039,
  " one of": 7040,
  "ising ": 7041,
  " between the": 7042,
  "Friday ": 7043,
  "Lat": 7044,
  "s, so ": 7045,
  " afterno": 7046,
  " placed ": 7047,
  "a, and ": 7048,
  "ries, ": 7049,
  " a lot ": 7050,
  ". No": 7051,
  "staff ": 7052,
  "Paci": 7053,
  "fication ": 7054,
  "OP": 7055,
  "red the ": 7056,
  "on, the ": 7057,
  "use and ": 7058,
  "s at": 7059,
  "opportuniti": 7060,
  "he was": 7061,
  "edding ": 7062,
  "as soon": 7063,
  "although ": 7064,
  " substan": 7065,
  "materi": 7066,
  "lict": 7067,
  "moving ": 7068,
  "lunch": 7069,
  "tering ": 7070,
  " calcu": 7071,
  ". Some ": 7072,
  "\u201cS": 7073,
  "happy ": 7074,
  "maximum": 7075,
  "seni": 7076,
  " speed": 7077,
  "Chica": 7078,
  "appe": 7079,
  " creative": 7080,
  " symbol": 7081,
  "197": 7082,
  "on an ": 7083,
  "DC": 7084,
  "directly": 7085,
  "day to ": 7086,
  "EE": 7087,
  "Chr": 7088,
  "posal": 7089,
  " specialist": 7090,
  "s. I": 7091,
  "threat": 7092,
  "laugh": 7093,
  "wesome": 7094,
  "reflect": 7095,
  "than the": 7096,
  "take": 7097,
  "s. He": 7098,
  ", what": 7099,
  "Hall": 7100,
  "image ": 7101,
  "cope": 7102,
  "Washington ": 7103,
  " sand": 7104,
  "es to the ": 7105,
  "Maybe ": 7106,
  "32": 7107,
  " for those": 7108,
  "it and": 7109,
  " parking": 7110,
  "heard ": 7111,
  " seven ": 7112,
  ", she ": 7113,
  "attorney": 7114,
  "WA": 7115,
  "Center ": 7116,
  " that they": 7117,
  "ed in the": 7118,
  " created ": 7119,
  " part of ": 7120,
  ". You can": 7121,
  "inde": 7122,
  "man, ": 7123,
  "2:": 7124,
  "may have ": 7125,
  " capable": 7126,
  "52": 7127,
  "s first": 7128,
  "49": 7129,
  " Sunday": 7130,
  "up and": 7131,
  " playing ": 7132,
  "reprene": 7133,
  "questions ": 7134,
  " friends ": 7135,
  "IM": 7136,
  " bench": 7137,
  " place to ": 7138,
  "every day": 7139,
  " figh": 7140,
  "routine": 7141,
  "Guide": 7142,
  "he has": 7143,
  "30, ": 7144,
  "grew ": 7145,
  "sented ": 7146,
  " sid": 7147,
  " System": 7148,
  "\u00e9 ": 7149,
  "et al": 7150,
  "much more ": 7151,
  " compati": 7152,
  "Mate": 7153,
  "Time": 7154,
  "chang": 7155,
  "appointment": 7156,
  "GS": 7157,
  "earn": 7158,
  "lymp": 7159,
  "gathe": 7160,
  " Sunday ": 7161,
  " comment ": 7162,
  "Ireland": 7163,
  "enthusi": 7164,
  " pain ": 7165,
  "religious ": 7166,
  "berg ": 7167,
  "13, ": 7168,
  " total of ": 7169,
  "New Year": 7170,
  "roman": 7171,
  "tocol": 7172,
  "Tip": 7173,
  "ice cream": 7174,
  "portra": 7175,
  "heatre ": 7176,
  " copyright": 7177,
  "\u00fa": 7178,
  "term ": 7179,
  "gency": 7180,
  "elt": 7181,
  "!! ": 7182,
  "ract ": 7183,
  " bra": 7184,
  " would be": 7185,
  "Mis": 7186,
  "to s": 7187,
  "s' ": 7188,
  " party": 7189,
  "ilm": 7190,
  "Web": 7191,
  "must be ": 7192,
  "easily": 7193,
  "> ": 7194,
  " clear ": 7195,
  "mail": 7196,
  "due ": 7197,
  " turn ": 7198,
  "retty": 7199,
  " can\u2019t ": 7200,
  "LO": 7201,
  "acid": 7202,
  "that it ": 7203,
  " traffic": 7204,
  " fine": 7205,
  "ed as ": 7206,
  "es for ": 7207,
  "you would ": 7208,
  "es have": 7209,
  "ending": 7210,
  " that, ": 7211,
  " favorite ": 7212,
  "relat": 7213,
  " fund": 7214,
  "ork": 7215,
  "mple ": 7216,
  " price ": 7217,
  "receive ": 7218,
  " background": 7219,
  "95": 7220,
  " stop ": 7221,
  "greater ": 7222,
  "ed by the": 7223,
  "mani": 7224,
  "standard ": 7225,
  "see the ": 7226,
  "ded by ": 7227,
  "York": 7228,
  "Green ": 7229,
  " traditional": 7230,
  "s).\n": 7231,
  "je": 7232,
  "using the ": 7233,
  "oud ": 7234,
  "Many ": 7235,
  "stick": 7236,
  "must be": 7237,
  ".\nRe": 7238,
  " five": 7239,
  "mind ": 7240,
  "In the": 7241,
  "not only ": 7242,
  "tian ": 7243,
  "size ": 7244,
  "s. We ": 7245,
  "ka ": 7246,
  "able and ": 7247,
  "MP": 7248,
  "growing ": 7249,
  "extremely ": 7250,
  "Cons": 7251,
  "Health ": 7252,
  "hibi": 7253,
  "2,": 7254,
  "\u201d and ": 7255,
  "PE": 7256,
  " wait": 7257,
  "arrange": 7258,
  ", or ": 7259,
  " turned ": 7260,
  "s in a ": 7261,
  "I would": 7262,
  " sugar": 7263,
  "get a": 7264,
  " form ": 7265,
  "hear ": 7266,
  "discount": 7267,
  "Group": 7268,
  "Inf": 7269,
  " basi": 7270,
  "nothing ": 7271,
  "as we ": 7272,
  "added ": 7273,
  "west ": 7274,
  " whether": 7275,
  "Def": 7276,
  "depos": 7277,
  "Andro": 7278,
  " overall": 7279,
  "vid ": 7280,
  "ractic": 7281,
  "ishing": 7282,
  "illust": 7283,
  "Here ": 7284,
  "huge ": 7285,
  " baby": 7286,
  "hit ": 7287,
  "(f": 7288,
  "ince the ": 7289,
  " flight": 7290,
  "you and ": 7291,
  "ning, ": 7292,
  "adequ": 7293,
  " to keep": 7294,
  "rian ": 7295,
  ". All": 7296,
  "recog": 7297,
  "asked ": 7298,
  "s app": 7299,
  " sca": 7300,
  "ed with the ": 7301,
  "return ": 7302,
  "access to ": 7303,
  " back to ": 7304,
  "vig": 7305,
  "jus": 7306,
  "economic ": 7307,
  "rict ": 7308,
  " co-": 7309,
  " in our": 7310,
  " sales ": 7311,
  ", please ": 7312,
  " physical ": 7313,
  "years": 7314,
  "exec": 7315,
  " trou": 7316,
  "remin": 7317,
  "out of the": 7318,
  "ups": 7319,
  "Trump": 7320,
  "value ": 7321,
  "accomp": 7322,
  " carry": 7323,
  "bility ": 7324,
  " ahead": 7325,
  " page ": 7326,
  "absor": 7327,
  " track ": 7328,
  " produce ": 7329,
  "Idea": 7330,
  "lands": 7331,
  "s their ": 7332,
  "inch": 7333,
  " is in": 7334,
  " if the ": 7335,
  "CP": 7336,
  " circum": 7337,
  " purpos": 7338,
  "Mari": 7339,
  " a small ": 7340,
  " walk ": 7341,
  "els ": 7342,
  "2011": 7343,
  "&apo": 7344,
  "level of ": 7345,
  "reason ": 7346,
  "usual": 7347,
  "Texa": 7348,
  "s some ": 7349,
  "double ": 7350,
  " problems ": 7351,
  "ence and ": 7352,
  " for me": 7353,
  "e and the ": 7354,
  " identifi": 7355,
  " in his ": 7356,
  "fair": 7357,
  " balan": 7358,
  "poration": 7359,
  "pie": 7360,
  " ten ": 7361,
  "ready to ": 7362,
  "48": 7363,
  "ractor": 7364,
  "&apos;": 7365,
  ", but the ": 7366,
  "Lt": 7367,
  " for all ": 7368,
  "bia": 7369,
  "Han": 7370,
  " paper ": 7371,
  "hotos": 7372,
  ". and ": 7373,
  "ng, ": 7374,
  " chemical": 7375,
  "ING ": 7376,
  "dealing": 7377,
  "tainly": 7378,
  "ndon ": 7379,
  "it wa": 7380,
  "Northern ": 7381,
  "delay": 7382,
  "2016 ": 7383,
  "dential ": 7384,
  "memori": 7385,
  "Michael ": 7386,
  "West": 7387,
  "lator": 7388,
  "Aug": 7389,
  " so much ": 7390,
  "s far": 7391,
  "quare": 7392,
  ", which is ": 7393,
  "how much ": 7394,
  "inven": 7395,
  "ft. ": 7396,
  "ucing ": 7397,
  "ned to": 7398,
  "it in ": 7399,
  " photographer": 7400,
  "half ": 7401,
  " comfortable": 7402,
  "rison": 7403,
  "th-": 7404,
  "injuri": 7405,
  "Two ": 7406,
  "sari": 7407,
  "s will be": 7408,
  " bec": 7409,
  "Top ": 7410,
  "guidance": 7411,
  " career ": 7412,
  "outcome": 7413,
  "anticip": 7414,
  " sharing ": 7415,
  " and will": 7416,
  "developing ": 7417,
  "Road": 7418,
  ", it": 7419,
  "Enter": 7420,
  " became ": 7421,
  "useum": 7422,
  "df": 7423,
  "middle": 7424,
  "label": 7425,
  " sample": 7426,
  " index": 7427,
  " bless": 7428,
  "s and a": 7429,
  " patient ": 7430,
  "senior": 7431,
  "generally": 7432,
  "peak ": 7433,
  "Street ": 7434,
  " police": 7435,
  ", she": 7436,
  "grate": 7437,
  " president": 7438,
  "norm": 7439,
  "(the ": 7440,
  ", there are ": 7441,
  "decisi": 7442,
  "eight": 7443,
  "en to": 7444,
  "ed with a ": 7445,
  "alist ": 7446,
  "Open ": 7447,
  "Mont": 7448,
  "s. They ": 7449,
  "announced ": 7450,
  "thlet": 7451,
  "output": 7452,
  "3,": 7453,
  "likely to ": 7454,
  "resolution": 7455,
  " contribut": 7456,
  " identify": 7457,
  "Monday": 7458,
  "youth": 7459,
  "port, ": 7460,
  " predic": 7461,
  "however ": 7462,
  "located": 7463,
  "result ": 7464,
  "extensive": 7465,
  "BO": 7466,
  "testing ": 7467,
  "using the": 7468,
  "visual ": 7469,
  "Global ": 7470,
  " sister": 7471,
  "portfolio": 7472,
  " teams ": 7473,
  "s of this ": 7474,
  "Prime ": 7475,
  " prices ": 7476,
  "or even ": 7477,
  "tioning": 7478,
  "vast ": 7479,
  " initial": 7480,
  "advanced": 7481,
  " to my": 7482,
  "info ": 7483,
  " spec": 7484,
  "investigation": 7485,
  " type ": 7486,
  "outf": 7487,
  "King ": 7488,
  "removal": 7489,
  " predict": 7490,
  "Apple ": 7491,
  "reti": 7492,
  " of The ": 7493,
  "s. She ": 7494,
  " cheap ": 7495,
  "empha": 7496,
  " players ": 7497,
  "Instagram": 7498,
  "lates ": 7499,
  "staying ": 7500,
  "Call": 7501,
  " automo": 7502,
  "repli": 7503,
  "Store": 7504,
  " object ": 7505,
  "generic ": 7506,
  "amsung ": 7507,
  "portable ": 7508,
  "PR": 7509,
  "self-": 7510,
  "upon ": 7511,
  "Dri": 7512,
  "long-": 7513,
  "com ": 7514,
  "Direct": 7515,
  " weight": 7516,
  "aller": 7517,
  " original ": 7518,
  " point ": 7519,
  "it was": 7520,
  " says ": 7521,
  "Vir": 7522,
  " we can": 7523,
  "reach ": 7524,
  "itution": 7525,
  " private ": 7526,
  "05": 7527,
  "higher": 7528,
  " film": 7529,
  "d to": 7530,
  "isn\u2019t ": 7531,
  " the work": 7532,
  "ment of": 7533,
  ". With": 7534,
  "dark": 7535,
  "ordin": 7536,
  "luc": 7537,
  " cup": 7538,
  "vered ": 7539,
  "United Stat": 7540,
  "accompl": 7541,
  "modi": 7542,
  " white ": 7543,
  "es.\nThe ": 7544,
  ", because ": 7545,
  " web ": 7546,
  " as s": 7547,
  "Mart": 7548,
  " away ": 7549,
  "Over": 7550,
  "tar ": 7551,
  "thinking": 7552,
  " with your": 7553,
  "divers": 7554,
  "AD": 7555,
  " slight": 7556,
  "unding ": 7557,
  " of his ": 7558,
  "able, ": 7559,
  " fr": 7560,
  "Chan": 7561,
  "Although ": 7562,
  "Mag": 7563,
  "OU": 7564,
  "ong ": 7565,
  "I don't ": 7566,
  " of this": 7567,
  " political ": 7568,
  "tely": 7569,
  "s sub": 7570,
  "age and ": 7571,
  "exercise": 7572,
  "ban ": 7573,
  "like a ": 7574,
  "instru": 7575,
  " plastic": 7576,
  "Pal": 7577,
  " fact that ": 7578,
  " shape": 7579,
  "Class": 7580,
  "s to be": 7581,
  "ources ": 7582,
  " sle": 7583,
  " park": 7584,
  "that a ": 7585,
  "Ran": 7586,
  "Caro": 7587,
  ". That ": 7588,
  "riting ": 7589,
  "Austra": 7590,
  "Rob": 7591,
  "s for a ": 7592,
  " city ": 7593,
  ". R": 7594,
  "yester": 7595,
  " agre": 7596,
  " click": 7597,
  "Cong": 7598,
  "us to": 7599,
  " particular ": 7600,
  "s should ": 7601,
  "Australia": 7602,
  "volume": 7603,
  "HS": 7604,
  "Dig": 7605,
  "Facebook": 7606,
  " aim": 7607,
  "on this": 7608,
  " sent ": 7609,
  "heart ": 7610,
  "regular ": 7611,
  " a f": 7612,
  "Catho": 7613,
  "x, ": 7614,
  "olution ": 7615,
  " www.": 7616,
  "movie": 7617,
  " a long ": 7618,
  "peace": 7619,
  "grow ": 7620,
  "us on ": 7621,
  "Regi": 7622,
  "lari": 7623,
  "Hill": 7624,
  "Fro": 7625,
  "istration ": 7626,
  "they were": 7627,
  " that are ": 7628,
  "North": 7629,
  "(A": 7630,
  "), and ": 7631,
  " types of ": 7632,
  "(s": 7633,
  "2017 ": 7634,
  "get to ": 7635,
  "quot": 7636,
  "il, ": 7637,
  " chair": 7638,
  "Finan": 7639,
  "did not": 7640,
  "how the ": 7641,
  "make sure ": 7642,
  "looking for ": 7643,
  "risk ": 7644,
  "Ann": 7645,
  " spect": 7646,
  " tel": 7647,
  "Acade": 7648,
  " clean ": 7649,
  "inspired": 7650,
  "Good": 7651,
  "ly-": 7652,
  "standing ": 7653,
  " began ": 7654,
  "ated in ": 7655,
  "roll ": 7656,
  " an in": 7657,
  "Find ": 7658,
  "distance": 7659,
  " brother": 7660,
  "moist": 7661,
  "are also ": 7662,
  "Ope": 7663,
  "has the": 7664,
  " painting": 7665,
  ". There ": 7666,
  ". By ": 7667,
  ", tra": 7668,
  " a large ": 7669,
  "certainly": 7670,
  "HO": 7671,
  "gone ": 7672,
  "didn\u2019t": 7673,
  " beyond ": 7674,
  "p the ": 7675,
  " sour": 7676,
  "s, or": 7677,
  " submit": 7678,
  ") is ": 7679,
  " powerful ": 7680,
  " confir": 7681,
  "s all ": 7682,
  " snow": 7683,
  "rising ": 7684,
  "numerous ": 7685,
  " primary": 7686,
  " and we ": 7687,
  "defini": 7688,
  " served ": 7689,
  "vering ": 7690,
  " sac": 7691,
  "rimari": 7692,
  "named": 7693,
  " class ": 7694,
  "along ": 7695,
  ".\nThat": 7696,
  " sale ": 7697,
  ". No ": 7698,
  "BA": 7699,
  "Eli": 7700,
  "itch ": 7701,
  "diseas": 7702,
  "Canada": 7703,
  "adventure": 7704,
  "ation is ": 7705,
  "ager ": 7706,
  "day. ": 7707,
  "tist ": 7708,
  "Camp": 7709,
  "liqu": 7710,
  ", or": 7711,
  " firm ": 7712,
  "able and": 7713,
  ".\nAnd ": 7714,
  "College ": 7715,
  ". Even": 7716,
  "ing an ": 7717,
  "increased": 7718,
  " conflict": 7719,
  "quick ": 7720,
  "ed an ": 7721,
  "jump": 7722,
  "binet": 7723,
  "oken ": 7724,
  "Do you ": 7725,
  "percent ": 7726,
  " created": 7727,
  " can't ": 7728,
  "thetic": 7729,
  "amount of": 7730,
  "ria ": 7731,
  "Management ": 7732,
  "92": 7733,
  "Monday ": 7734,
  "had to ": 7735,
  "31": 7736,
  "hotel ": 7737,
  " biggest": 7738,
  " powerful": 7739,
  "military ": 7740,
  "just a": 7741,
  "listen": 7742,
  "moved ": 7743,
  "disclos": 7744,
  "race ": 7745,
  "order to ": 7746,
  " offered ": 7747,
  " credit ": 7748,
  "Management": 7749,
  " auth": 7750,
  "Love ": 7751,
  " seven": 7752,
  " and an ": 7753,
  "Take": 7754,
  " and then ": 7755,
  ". Please ": 7756,
  "\".\n": 7757,
  "2 and ": 7758,
  "cale ": 7759,
  " contain ": 7760,
  "retail": 7761,
  " part of the": 7762,
  " is part": 7763,
  " sounds ": 7764,
  "engineering": 7765,
  " crash": 7766,
  " scope": 7767,
  "Chair": 7768,
  "Perf": 7769,
  " the company": 7770,
  "AG": 7771,
  "-out": 7772,
  "my own": 7773,
  "minat": 7774,
  ". Most": 7775,
  "lence": 7776,
  " where the": 7777,
  "lamp": 7778,
  " tac": 7779,
  "health care": 7780,
  "visual": 7781,
  "\u2019s the ": 7782,
  "buil": 7783,
  "Dra": 7784,
  "Pro ": 7785,
  ".\nPro": 7786,
  "Bob": 7787,
  " conten": 7788,
  "lod": 7789,
  " founder": 7790,
  " fast ": 7791,
  "rish ": 7792,
  "Advan": 7793,
  " trick": 7794,
  "or \u201c": 7795,
  "ables ": 7796,
  " center ": 7797,
  "negative": 7798,
  ": \u201c": 7799,
  "Amaz": 7800,
  "Grand ": 7801,
  "-win": 7802,
  "unless ": 7803,
  "invi": 7804,
  "alcohol": 7805,
  "series of ": 7806,
  " controller": 7807,
  "case": 7808,
  ". I\u2019m ": 7809,
  " willing ": 7810,
  "Lau": 7811,
  "gineering ": 7812,
  " therap": 7813,
  "Dr ": 7814,
  "s. But ": 7815,
  "18-": 7816,
  "2nd ": 7817,
  "enables ": 7818,
  " worry": 7819,
  " female ": 7820,
  "Cro": 7821,
  "luxury ": 7822,
  " comic": 7823,
  " conven": 7824,
  "4th ": 7825,
  "Give ": 7826,
  "on all ": 7827,
  "your business ": 7828,
  " School of ": 7829,
  " friends and": 7830,
  "Rail": 7831,
  "hei": 7832,
  "wai": 7833,
  "Ryan ": 7834,
  "Apart": 7835,
  "Moreover": 7836,
  "Mol": 7837,
  "massage": 7838,
  "Dump": 7839,
  "\u2009": 7840,
  "nuc": 7841,
  " server": 7842,
  " court": 7843,
  "that we ": 7844,
  "equipment": 7845,
  "west": 7846,
  "easy to ": 7847,
  " click ": 7848,
  " search ": 7849,
  " choco": 7850,
  "una": 7851,
  " favorite": 7852,
  " ship": 7853,
  "the result": 7854,
  " private": 7855,
  "in the world": 7856,
  " platform": 7857,
  "outside ": 7858,
  "ondon": 7859,
  " pha": 7860,
  "discip": 7861,
  "xe": 7862,
  "journey": 7863,
  "health ": 7864,
  ".\nC": 7865,
  "Ya": 7866,
  "Church": 7867,
  "London": 7868,
  "almost": 7869,
  "Demo": 7870,
  " brain": 7871,
  "nated": 7872,
  "hair ": 7873,
  " fast": 7874,
  "s but": 7875,
  "reader": 7876,
  "ussion": 7877,
  "Lar": 7878,
  " to re": 7879,
  "es on": 7880,
  "ternative": 7881,
  " software ": 7882,
  "not only": 7883,
  "like the ": 7884,
  "to S": 7885,
  "nos": 7886,
  "ximately ": 7887,
  "Coo": 7888,
  "grade": 7889,
  "ation of": 7890,
  "pproximately ": 7891,
  " soluti": 7892,
  "especially ": 7893,
  "Mark": 7894,
  "anyone ": 7895,
  " pag": 7896,
  "NG": 7897,
  " cla": 7898,
  "earcher": 7899,
  " above ": 7900,
  "an and ": 7901,
  "yr": 7902,
  "void ": 7903,
  "New York": 7904,
  " control ": 7905,
  "Other": 7906,
  "Dec": 7907,
  ". This is ": 7908,
  "tone ": 7909,
  " presen": 7910,
  "highly": 7911,
  "cement": 7912,
  " among ": 7913,
  " planning": 7914,
  " of all": 7915,
  " prior": 7916,
  "\u00e1": 7917,
  "ers": 7918,
  "deser": 7919,
  ".\nWhat ": 7920,
  " won": 7921,
  "to other": 7922,
  "reference": 7923,
  "21": 7924,
  ").": 7925,
  "85": 7926,
  " said, ": 7927,
  "Internet": 7928,
  " within the ": 7929,
  " as part": 7930,
  " compla": 7931,
  " content ": 7932,
  "increasing": 7933,
  "dered": 7934,
  ", I": 7935,
  "idea ": 7936,
  "$1": 7937,
  "English ": 7938,
  "s. In": 7939,
  "straight": 7940,
  "inding ": 7941,
  " again ": 7942,
  " suppor": 7943,
  " companie": 7944,
  " cheap": 7945,
  " surro": 7946,
  "interac": 7947,
  " spi": 7948,
  "respective": 7949,
  " pair": 7950,
  "mir": 7951,
  "alternative": 7952,
  "dition ": 7953,
  ", from ": 7954,
  "itting": 7955,
  "to buy": 7956,
  "s\u201d ": 7957,
  "himself": 7958,
  "s have been ": 7959,
  "tox": 7960,
  "Check ": 7961,
  "senger": 7962,
  "rui": 7963,
  " poor": 7964,
  " of them ": 7965,
  " of all ": 7966,
  "opti": 7967,
  "leadership": 7968,
  " when you": 7969,
  "electric": 7970,
  "Read ": 7971,
  ". One": 7972,
  "Art ": 7973,
  "\u201d.\n": 7974,
  "arch": 7975,
  "timi": 7976,
  ". W": 7977,
  "advertise": 7978,
  ".\nSo ": 7979,
  " take a ": 7980,
  " country ": 7981,
  "rais": 7982,
  "the-": 7983,
  "mac": 7984,
  "things": 7985,
  "hang": 7986,
  "to bring ": 7987,
  "Design ": 7988,
  ".\nBe": 7989,
  "enable ": 7990,
  " Service ": 7991,
  "one-": 7992,
  "ama ": 7993,
  "DS": 7994,
  " sometimes ": 7995,
  "Play": 7996,
  "ries. ": 7997,
  ". There are": 7998,
  "to be a": 7999,
  "200 ": 8000,
  " can't": 8001,
  "honor": 8002,
  "minutes ": 8003,
  "interested in ": 8004,
  "urg": 8005,
  "ewin": 8006,
  "Old ": 8007,
  "ation that ": 8008,
  "ires ": 8009,
  " fruit": 8010,
  "technologi": 8011,
  "at this ": 8012,
  "it a": 8013,
  " commercial ": 8014,
  "Book ": 8015,
  " critical": 8016,
  "including the ": 8017,
  " procedure": 8018,
  ". Un": 8019,
  "I\u2019ll ": 8020,
  "Tim": 8021,
  "encourage ": 8022,
  "23 ": 8023,
  "ptom": 8024,
  "ding and ": 8025,
  "year, ": 8026,
  ", by ": 8027,
  "eye ": 8028,
  "radio": 8029,
  "seg": 8030,
  "s them ": 8031,
  "ability to": 8032,
  "drop ": 8033,
  "it can ": 8034,
  " practic": 8035,
  "ray ": 8036,
  "ump ": 8037,
  ". It's ": 8038,
  " cool ": 8039,
  "ganis": 8040,
  "lives ": 8041,
  "although": 8042,
  "s.\nThis ": 8043,
  " told": 8044,
  "1 and ": 8045,
  "rint ": 8046,
  " friend ": 8047,
  "field ": 8048,
  " we were ": 8049,
  " schedule": 8050,
  "info": 8051,
  "alp": 8052,
  "larger": 8053,
  "s free": 8054,
  "75 ": 8055,
  "tari": 8056,
  "annual": 8057,
  "Learn ": 8058,
  " favor": 8059,
  "Bio": 8060,
  "repre": 8061,
  ".e": 8062,
  "km": 8063,
  "may not ": 8064,
  " work, ": 8065,
  "2000": 8066,
  "ate and ": 8067,
  " solid": 8068,
  "immediate": 8069,
  " sli": 8070,
  "know what ": 8071,
  "doesn\u2019t": 8072,
  "Who ": 8073,
  "anti-": 8074,
  "fort ": 8075,
  " smooth": 8076,
  "around the world": 8077,
  "minute ": 8078,
  " occasion": 8079,
  "arc": 8080,
  "venue": 8081,
  "neighborhood": 8082,
  "Direc": 8083,
  " totally ": 8084,
  "Congres": 8085,
  "replacement": 8086,
  "ation of the": 8087,
  "instituti": 8088,
  "Io": 8089,
  "low-": 8090,
  "simul": 8091,
  "Thin": 8092,
  "indi": 8093,
  "or her ": 8094,
  " worked ": 8095,
  "44": 8096,
  "eory": 8097,
  "jection": 8098,
  "atio": 8099,
  "regnan": 8100,
  "s was ": 8101,
  "tive and ": 8102,
  " publ": 8103,
  "deman": 8104,
  " projects ": 8105,
  " placed": 8106,
  ", but it ": 8107,
  "Tab": 8108,
  " conver": 8109,
  " sight": 8110,
  " cros": 8111,
  ".\nAs": 8112,
  "I do": 8113,
  "equipp": 8114,
  " classi": 8115,
  "straight ": 8116,
  "raise": 8117,
  ". Co": 8118,
  "instead of ": 8119,
  "developer": 8120,
  "evolution": 8121,
  "s into ": 8122,
  "entreprene": 8123,
  " clients ": 8124,
  "): ": 8125,
  "levels of ": 8126,
  " container": 8127,
  "Assist": 8128,
  ".\nSt": 8129,
  "William ": 8130,
  "Map": 8131,
  " serving": 8132,
  " of t": 8133,
  " willing": 8134,
  "Ku": 8135,
  "entr": 8136,
  "ink ": 8137,
  "Ash": 8138,
  " what we ": 8139,
  "ous and ": 8140,
  " creating ": 8141,
  "Chinese": 8142,
  "cutting ": 8143,
  "Year ": 8144,
  "born ": 8145,
  "MB": 8146,
  " is an": 8147,
  "pair ": 8148,
  "t. It ": 8149,
  "12, ": 8150,
  "s. T": 8151,
  "mination ": 8152,
  "Doct": 8153,
  "risk of": 8154,
  "are, ": 8155,
  "influence ": 8156,
  " therapy": 8157,
  "Amazon ": 8158,
  "cement ": 8159,
  "Phil": 8160,
  "upper ": 8161,
  "(T": 8162,
  ".\nAl": 8163,
  " Sport": 8164,
  "mill ": 8165,
  " bottle": 8166,
  " free to": 8167,
  " books ": 8168,
  " parameter": 8169,
  "Bru": 8170,
  "emotional ": 8171,
  " patch": 8172,
  " Saturday ": 8173,
  "Middle ": 8174,
  "Ol": 8175,
  "Help": 8176,
  "library": 8177,
  "Willia": 8178,
  "Joe ": 8179,
  "architecture": 8180,
  " with all ": 8181,
  "neighbour": 8182,
  "emotion": 8183,
  " counc": 8184,
  "civil ": 8185,
  "thletic": 8186,
  "logo ": 8187,
  " tablet": 8188,
  "binet ": 8189,
  "Guide ": 8190,
  "\u00a6": 8191,
  "\u2002": 8192,
  "dish": 8193,
  "virt": 8194,
  "Japan": 8195,
  "elt ": 8196,
  "under the ": 8197,
  " we have ": 8198,
  "I'm": 8199,
  "(i": 8200,
  " clai": 8201,
  " wedding": 8202,
  "mainte": 8203,
  "egg": 8204,
  "equal": 8205,
  "ingredient": 8206,
  "ly the": 8207,
  ".com ": 8208,
  " sco": 8209,
  " fat": 8210,
  "More ": 8211,
  "sions": 8212,
  " wai": 8213,
  " could be ": 8214,
  "timate ": 8215,
  " cat": 8216,
  "more about ": 8217,
  "s to be ": 8218,
  " San ": 8219,
  " surface": 8220,
  "uns": 8221,
  "doctor": 8222,
  "Jour": 8223,
  " cloth": 8224,
  " went": 8225,
  "pers": 8226,
  "greement": 8227,
  "last year": 8228,
  "user ": 8229,
  ".\nD": 8230,
  ") to ": 8231,
  "also be ": 8232,
  "seem ": 8233,
  "towards ": 8234,
  "ii": 8235,
  "you\u2019ll ": 8236,
  "ks of ": 8237,
  "mort": 8238,
  "s\"": 8239,
  "kind of": 8240,
  "HA": 8241,
  "ignment": 8242,
  "lou": 8243,
  "do you ": 8244,
  " agreement": 8245,
  "maintain": 8246,
  "English": 8247,
  "fferen": 8248,
  " areas": 8249,
  "iction": 8250,
  "lost": 8251,
  "96": 8252,
  "download ": 8253,
  "um, ": 8254,
  "doe": 8255,
  " pre-": 8256,
  "accident": 8257,
  "knowledge ": 8258,
  "ridge": 8259,
  " scene": 8260,
  "reduce ": 8261,
  "or to": 8262,
  "that we": 8263,
  "ambi": 8264,
  " poin": 8265,
  "s for a": 8266,
  "Every ": 8267,
  "blig": 8268,
  "magaz": 8269,
  " sensi": 8270,
  "ing of ": 8271,
  " craft": 8272,
  "ression ": 8273,
  " title": 8274,
  "alone": 8275,
  ". When": 8276,
  "galle": 8277,
  " color ": 8278,
  "I know": 8279,
  " political": 8280,
  "that can ": 8281,
  "Or ": 8282,
  " choos": 8283,
  "mut": 8284,
  "cape": 8285,
  " so many ": 8286,
  "e.g": 8287,
  "\"The ": 8288,
  "out to ": 8289,
  ".\nIt ": 8290,
  "ning and ": 8291,
  "lined": 8292,
  "(whi": 8293,
  "time to": 8294,
  "ity. ": 8295,
  " Sha": 8296,
  "alize ": 8297,
  "ranch": 8298,
  "you, ": 8299,
  ".\nHow ": 8300,
  " party ": 8301,
  "destination": 8302,
  "store ": 8303,
  " wat": 8304,
  "rival": 8305,
  "graphic ": 8306,
  "ducer": 8307,
  "Although": 8308,
  "Blu": 8309,
  "Today": 8310,
  "rown ": 8311,
  "EP": 8312,
  "vot": 8313,
  "t. It": 8314,
  "Jer": 8315,
  "tion of ": 8316,
  "ves, ": 8317,
  " provision": 8318,
  " onto ": 8319,
  "monit": 8320,
  ". L": 8321,
  "cio": 8322,
  "Vic": 8323,
  "ting in ": 8324,
  "efficiency": 8325,
  ".\nHe": 8326,
  "encoun": 8327,
  "important to ": 8328,
  " two-": 8329,
  " practice ": 8330,
  "position": 8331,
  " bathroom": 8332,
  "doesn't ": 8333,
  "immer": 8334,
  "cou": 8335,
  "DV": 8336,
  "Mac": 8337,
  "ous s": 8338,
  " type of": 8339,
  "IP ": 8340,
  "mys": 8341,
  "gged ": 8342,
  " a week": 8343,
  "tunate": 8344,
  "xid": 8345,
  "mad": 8346,
  "s with a": 8347,
  "s when ": 8348,
  "(p": 8349,
  ". I am ": 8350,
  "selling ": 8351,
  "adding": 8352,
  " operating": 8353,
  " samp": 8354,
  "existing": 8355,
  "seeing ": 8356,
  ". 1": 8357,
  "group of ": 8358,
  "minal": 8359,
  ".co": 8360,
  "any other": 8361,
  "45 ": 8362,
  "s up": 8363,
  "es will ": 8364,
  "George ": 8365,
  "helping ": 8366,
  " critic": 8367,
  "34": 8368,
  "explore": 8369,
  "39": 8370,
  "not to ": 8371,
  "owned": 8372,
  "orga": 8373,
  "regulation": 8374,
  "s, with": 8375,
  " winner": 8376,
  "update ": 8377,
  " works ": 8378,
  "your busines": 8379,
  "you're": 8380,
  "glad": 8381,
  "; the": 8382,
  "CD": 8383,
  "teaching ": 8384,
  " is made": 8385,
  "ration of ": 8386,
  "(2": 8387,
  " compens": 8388,
  "heavi": 8389,
  "Cas": 8390,
  "recommendation": 8391,
  "stea": 8392,
  "dium": 8393,
  "reme ": 8394,
  "dates ": 8395,
  "larger ": 8396,
  " participant": 8397,
  " characteristic": 8398,
  "organis": 8399,
  " plus ": 8400,
  " wheel": 8401,
  "rights ": 8402,
  "nisation": 8403,
  "on its ": 8404,
  " we\u2019re ": 8405,
  " as you ": 8406,
  " when it comes to ": 8407,
  "za ": 8408,
  "instant": 8409,
  "able. ": 8410,
  "level of": 8411,
  "mant": 8412,
  "torie": 8413,
  " bedro": 8414,
  "technique": 8415,
  "you have a ": 8416,
  "itself ": 8417,
  " science": 8418,
  "note ": 8419,
  "Keep": 8420,
  ".\nWith ": 8421,
  "has an ": 8422,
  " bedroom": 8423,
  "estimate": 8424,
  "exchange": 8425,
  "machin": 8426,
  "!\nThe ": 8427,
  "21 ": 8428,
  "edly": 8429,
  "Coll": 8430,
  " Sto": 8431,
  "thing that ": 8432,
  "mentioned ": 8433,
  "volunteer": 8434,
  "Bud": 8435,
  "necessari": 8436,
  "Master": 8437,
  " bid": 8438,
  " is now ": 8439,
  "Ret": 8440,
  "extensive ": 8441,
  "portun": 8442,
  "ook, ": 8443,
  "s would ": 8444,
  "ate the": 8445,
  "ations, ": 8446,
  "messag": 8447,
  " promotion": 8448,
  " opt": 8449,
  " broker": 8450,
  "Amazon": 8451,
  "D, ": 8452,
  "essor": 8453,
  "Information ": 8454,
  "ency ": 8455,
  "unit ": 8456,
  "unex": 8457,
  " shows ": 8458,
  "it\u2019s a ": 8459,
  "Radi": 8460,
  "member of the ": 8461,
  " climb": 8462,
  "or even": 8463,
  "improved": 8464,
  "itar": 8465,
  " sold ": 8466,
  " category": 8467,
  " televi": 8468,
  " funda": 8469,
  "T-": 8470,
  " figure": 8471,
  "(t": 8472,
  "ativ": 8473,
  " places ": 8474,
  " furniture": 8475,
  "is one of the ": 8476,
  "sion and": 8477,
  "in all": 8478,
  "morrow": 8479,
  "environment ": 8480,
  " we were": 8481,
  "opportun": 8482,
  "Ltd": 8483,
  ". Of": 8484,
  "RES": 8485,
  "experienc": 8486,
  "reference ": 8487,
  " and b": 8488,
  "it a ": 8489,
  "that can be ": 8490,
  ".\nWith": 8491,
  "ville, ": 8492,
  "phone ": 8493,
  "ull of ": 8494,
  "Mr ": 8495,
  " features": 8496,
  ". It is": 8497,
  "ling, ": 8498,
  "Bath": 8499,
  "Temp": 8500,
  " proof": 8501,
  "zen ": 8502,
  "Chap": 8503,
  " counsel": 8504,
  " target ": 8505,
  "June": 8506,
  "ville": 8507,
  " what the": 8508,
  "reen ": 8509,
  "pool": 8510,
  "loop": 8511,
  "ed up ": 8512,
  "Comm": 8513,
  "accommo": 8514,
  "advent": 8515,
  " fas": 8516,
  "exciting": 8517,
  "star ": 8518,
  "through a": 8519,
  "an over": 8520,
  "involve": 8521,
  "ly, the": 8522,
  " audio": 8523,
  "cession": 8524,
  " pictures": 8525,
  "s, it": 8526,
  "Tel": 8527,
  " to $": 8528,
  "Start": 8529,
  "sionate ": 8530,
  " filter": 8531,
  "Mur": 8532,
  "s, please": 8533,
  "YouTu": 8534,
  ". On ": 8535,
  "depth": 8536,
  ", he": 8537,
  "/c": 8538,
  "yard ": 8539,
  "ised": 8540,
  "rapy ": 8541,
  "it will be ": 8542,
  "ed with a": 8543,
  " published": 8544,
  "Online": 8545,
  "toc": 8546,
  "hysio": 8547,
  "12-": 8548,
  "dark ": 8549,
  " will help ": 8550,
  " to all ": 8551,
  " promin": 8552,
  "Colora": 8553,
  " couple of": 8554,
  "Way": 8555,
  "retail ": 8556,
  "Beauti": 8557,
  " for free": 8558,
  "decreas": 8559,
  "General": 8560,
  "Committee": 8561,
  "had the": 8562,
  " focu": 8563,
  "appo": 8564,
  " provin": 8565,
  " before you ": 8566,
  " facing": 8567,
  "Ala": 8568,
  "acting": 8569,
  "unge": 8570,
  "visited ": 8571,
  "gender ": 8572,
  " senten": 8573,
  ". His": 8574,
  "Pict": 8575,
  " shipp": 8576,
  "ds in": 8577,
  " wallpaper": 8578,
  "De ": 8579,
  "has not": 8580,
  "vitamin": 8581,
  "Studio ": 8582,
  "portrait": 8583,
  "Natural": 8584,
  "recording ": 8585,
  "Bob ": 8586,
  "deleg": 8587,
  " of E": 8588,
  ",\" he said": 8589,
  "visa": 8590,
  "University, ": 8591,
  "gla": 8592,
  "DE": 8593,
  "mers ": 8594,
  "acy ": 8595,
  " sheet": 8596,
  "Canadi": 8597,
  "|": 8598,
  "your own ": 8599,
  "198": 8600,
  "European ": 8601,
  "sycho": 8602,
  "your home": 8603,
  " basic": 8604,
  "illed": 8605,
  "M. ": 8606,
  " providing ": 8607,
  "legis": 8608,
  "inside ": 8609,
  "tinue ": 8610,
  "route": 8611,
  "lub ": 8612,
  " promis": 8613,
  "recent": 8614,
  "Ten": 8615,
  "mas ": 8616,
  " send ": 8617,
  "ors, ": 8618,
  "ronic ": 8619,
  "Call ": 8620,
  "chen ": 8621,
  "attention": 8622,
  "Good ": 8623,
  " capt": 8624,
  "ricult": 8625,
  " format": 8626,
  "strategy": 8627,
  "olen": 8628,
  "80 ": 8629,
  ". My ": 8630,
  "king the ": 8631,
  "tific": 8632,
  "ended ": 8633,
  " when you ": 8634,
  " that you": 8635,
  " cot": 8636,
  " so much": 8637,
  " spread": 8638,
  "(and ": 8639,
  "ported ": 8640,
  "ness of ": 8641,
  "ting, ": 8642,
  " flavor": 8643,
  " protect ": 8644,
  "cky ": 8645,
  "vint": 8646,
  " broad": 8647,
  " force": 8648,
  "excep": 8649,
  "access ": 8650,
  "lots of ": 8651,
  " face ": 8652,
  "es like ": 8653,
  "gran": 8654,
  "Health": 8655,
  " subst": 8656,
  "eather ": 8657,
  "BR": 8658,
  "Los ": 8659,
  "joint": 8660,
  "you want to ": 8661,
  " spring": 8662,
  "revent ": 8663,
  "stream": 8664,
  "relation": 8665,
  "on my ": 8666,
  "you may ": 8667,
  "cies ": 8668,
  "I\u2019d ": 8669,
  " oblig": 8670,
  "out of the ": 8671,
  "wered": 8672,
  " shared": 8673,
  "OR ": 8674,
  "rele": 8675,
  "ulation ": 8676,
  "Great": 8677,
  "\u2019d": 8678,
  "than the ": 8679,
  " taste": 8680,
  "researcher": 8681,
  " wrote": 8682,
  "make a ": 8683,
  "-on": 8684,
  "or the": 8685,
  " set of ": 8686,
  "differen": 8687,
  "VE": 8688,
  "38": 8689,
  " when I ": 8690,
  " flat": 8691,
  "degre": 8692,
  "roc": 8693,
  "ble to ": 8694,
  " offering ": 8695,
  "ribution": 8696,
  " all of the ": 8697,
  "Christian ": 8698,
  "Life ": 8699,
  "had been": 8700,
  " stori": 8701,
  "temporary ": 8702,
  " cop": 8703,
  "David ": 8704,
  "1st ": 8705,
  ", there ": 8706,
  "gap": 8707,
  "kids ": 8708,
  "Office": 8709,
  "native ": 8710,
  "Africa": 8711,
  "odd": 8712,
  "//w": 8713,
  "to say ": 8714,
  "changing ": 8715,
  "you get ": 8716,
  "Fin": 8717,
  "rink": 8718,
  "up, ": 8719,
  "relev": 8720,
  "ist, ": 8721,
  "mineral": 8722,
  "link ": 8723,
  "years. ": 8724,
  "multiple": 8725,
  "tion that ": 8726,
  "County": 8727,
  "akes": 8728,
  "largest": 8729,
  "Cla": 8730,
  " sti": 8731,
  " spent": 8732,
  "efficient": 8733,
  "Google": 8734,
  "hum": 8735,
  "tein": 8736,
  " to learn ": 8737,
  " wanted ": 8738,
  "you do": 8739,
  "remark": 8740,
  ".\nOne": 8741,
  "Invest": 8742,
  "gence": 8743,
  "expertise": 8744,
  "exhibi": 8745,
  "growing": 8746,
  "amous ": 8747,
  " truly": 8748,
  " air ": 8749,
  "Windows ": 8750,
  ". At": 8751,
  "t and the ": 8752,
  " surrounding": 8753,
  "useful ": 8754,
  "performed": 8755,
  "!\nS": 8756,
  "or of the ": 8757,
  "Last": 8758,
  ". O": 8759,
  "gger ": 8760,
  "scap": 8761,
  "stun": 8762,
  "me a": 8763,
  " that I ": 8764,
  "FL": 8765,
  "navig": 8766,
  "medium": 8767,
  "literal": 8768,
  "bert": 8769,
  "lived": 8770,
  " phi": 8771,
  "question ": 8772,
  "edition": 8773,
  ". Not ": 8774,
  "sey": 8775,
  "chec": 8776,
  "lawyer": 8777,
  "king, ": 8778,
  " was an ": 8779,
  "addition to ": 8780,
  "expected ": 8781,
  "entist": 8782,
  "s. He ": 8783,
  " a lot": 8784,
  "interesting ": 8785,
  " truck": 8786,
  "lover": 8787,
  "hero": 8788,
  "inger ": 8789,
  "ded in ": 8790,
  "insight": 8791,
  "Dou": 8792,
  "marke": 8793,
  "vehicle ": 8794,
  "themselves ": 8795,
  " changes ": 8796,
  "resourc": 8797,
  ". I have": 8798,
  "how the": 8799,
  "At the ": 8800,
  "Dar": 8801,
  " transform": 8802,
  "under the": 8803,
  " bright": 8804,
  "-time ": 8805,
  "rather than": 8806,
  "remain ": 8807,
  "vendor": 8808,
  " produ": 8809,
  "lity, ": 8810,
  " is now": 8811,
  "gain, ": 8812,
  "pm ": 8813,
  "Leg": 8814,
  "box": 8815,
  "Fore": 8816,
  "el, ": 8817,
  "Cru": 8818,
  "register": 8819,
  "eder": 8820,
  "admi": 8821,
  " a \u201c": 8822,
  "ner, ": 8823,
  "to create": 8824,
  "gas ": 8825,
  " truth": 8826,
  " prospect": 8827,
  " basket": 8828,
  "out there": 8829,
  " save": 8830,
  "enough to": 8831,
  ". G": 8832,
  "Flori": 8833,
  "ematic": 8834,
  "go to": 8835,
  "damage ": 8836,
  "at S": 8837,
  " companies": 8838,
  "ful and ": 8839,
  " allowed ": 8840,
  "-free": 8841,
  " all of the": 8842,
  "life, ": 8843,
  "developed": 8844,
  " Show": 8845,
  "(R": 8846,
  " woo": 8847,
  "land and ": 8848,
  "s such as ": 8849,
  " that I": 8850,
  "here, ": 8851,
  "kers": 8852,
  "end of the": 8853,
  "disaster": 8854,
  "ures, ": 8855,
  "inted ": 8856,
  "mitted": 8857,
  " cultural": 8858,
  " is for": 8859,
  "includes": 8860,
  " create a": 8861,
  "thus ": 8862,
  "es were ": 8863,
  "Guy": 8864,
  " construct": 8865,
  "perhaps ": 8866,
  "FI": 8867,
  "Open": 8868,
  " speed ": 8869,
  " for all": 8870,
  "arrived": 8871,
  " classic": 8872,
  " participate": 8873,
  "happy to ": 8874,
  ".\nAn ": 8875,
  " over a ": 8876,
  " consequ": 8877,
  "expensive": 8878,
  "as well as the ": 8879,
  "es.\nThe": 8880,
  "expectation": 8881,
  "bilitie": 8882,
  "to all": 8883,
  "Hun": 8884,
  "Gui": 8885,
  ".\nDe": 8886,
  "highest": 8887,
  "an-": 8888,
  "them. ": 8889,
  " plenty of ": 8890,
  "repeat": 8891,
  "63": 8892,
  "VE ": 8893,
  ", while": 8894,
  "mechanism": 8895,
  " wife": 8896,
  "fy the ": 8897,
  " collec": 8898,
  "atmosphere": 8899,
  "800": 8900,
  "device ": 8901,
  " was also ": 8902,
  "period ": 8903,
  "ners": 8904,
  " conference ": 8905,
  "attend": 8906,
  " as I ": 8907,
  "Dai": 8908,
  " with her": 8909,
  "es from ": 8910,
  "yog": 8911,
  " politic": 8912,
  " careful": 8913,
  "repor": 8914,
  "tomorrow": 8915,
  " worked": 8916,
  "Walk": 8917,
  "War ": 8918,
  ". I am": 8919,
  "rhy": 8920,
  ".\nAfter": 8921,
  "DM": 8922,
  " subsequ": 8923,
  "is available": 8924,
  " floo": 8925,
  " of which ": 8926,
  " afternoon": 8927,
  "Radio ": 8928,
  "joined ": 8929,
  " SEO": 8930,
  "Buy": 8931,
  " cookie": 8932,
  "throw": 8933,
  ". Since ": 8934,
  "3:": 8935,
  "14, ": 8936,
  "medicine": 8937,
  "recording": 8938,
  " ways": 8939,
  "monthly ": 8940,
  "s feat": 8941,
  "Dy": 8942,
  "Ref": 8943,
  ". Once ": 8944,
  "Next ": 8945,
  "manual": 8946,
  "episo": 8947,
  " try to": 8948,
  "days. ": 8949,
  "William": 8950,
  "Don\u2019t": 8951,
  "understand the ": 8952,
  "appeal": 8953,
  "renov": 8954,
  "March": 8955,
  "Asia": 8956,
  " battery": 8957,
  "Mark ": 8958,
  ".\nAt": 8959,
  "I got ": 8960,
  "Wol": 8961,
  "Corpo": 8962,
  " walking ": 8963,
  "discovered": 8964,
  "ighting": 8965,
  "mond": 8966,
  "ord ": 8967,
  " forever": 8968,
  "infection": 8969,
  " brown": 8970,
  " and what ": 8971,
  "2010 ": 8972,
  "or S": 8973,
  "News": 8974,
  "memor": 8975,
  " battery ": 8976,
  ".\nIt is ": 8977,
  "involves ": 8978,
  "use this ": 8979,
  "he's ": 8980,
  "housing": 8981,
  "Foundation": 8982,
  "host ": 8983,
  "stakeholder": 8984,
  "hoc": 8985,
  " privi": 8986,
  "ushi": 8987,
  " if you are": 8988,
  " costs ": 8989,
  "MS ": 8990,
  "s who are ": 8991,
  "he wa": 8992,
  "vas": 8993,
  "Za": 8994,
  "During ": 8995,
  "Mike ": 8996,
  "Don\u2019t ": 8997,
  "Board ": 8998,
  "mood": 8999,
  " operating ": 9000,
  "remedi": 9001,
  "lets ": 9002,
  "s.\nA ": 9003,
  "tui": 9004,
  "housing ": 9005,
  "East": 9006,
  "400 ": 9007,
  " button ": 9008,
  "resort": 9009,
  "tili": 9010,
  ". Her": 9011,
  " and are": 9012,
  "minister": 9013,
  "bell": 9014,
  "Lord ": 9015,
  ". This a": 9016,
  "vitamin ": 9017,
  "Visit ": 9018,
  " compared": 9019,
  " poster": 9020,
  "es and the": 9021,
  " business and ": 9022,
  "Technology ": 9023,
  "lyn ": 9024,
  "rider": 9025,
  "TION ": 9026,
  "come to ": 9027,
  "dispos": 9028,
  "proof": 9029,
  "died ": 9030,
  "Jus": 9031,
  ", B": 9032,
  "younger": 9033,
  "bridge ": 9034,
  "League ": 9035,
  "Travel": 9036,
  "\u043c": 9037,
  "Press ": 9038,
  "murder": 9039,
  "electro": 9040,
  " conser": 9041,
  "making it ": 9042,
  "vic ": 9043,
  "ideo": 9044,
  "Ess": 9045,
  "Holy ": 9046,
  "28, ": 9047,
  "ronto": 9048,
  "roma": 9049,
  "rator ": 9050,
  "!!": 9051,
  "dw": 9052,
  "ustom ": 9053,
  "minim": 9054,
  "47": 9055,
  "ly to": 9056,
  " population": 9057,
  " wind": 9058,
  "anything": 9059,
  "Rea": 9060,
  "| ": 9061,
  "moving": 9062,
  "ham ": 9063,
  "the only ": 9064,
  "older": 9065,
  "Aut": 9066,
  "ting to ": 9067,
  " for more ": 9068,
  ". Re": 9069,
  "hoe": 9070,
  "Cer": 9071,
  "s.\nA": 9072,
  "vour": 9073,
  "technical": 9074,
  " story ": 9075,
  " finally ": 9076,
  " shall": 9077,
  " to me": 9078,
  "Ver": 9079,
  " flower": 9080,
  "distinc": 9081,
  "s of a ": 9082,
  "(w": 9083,
  "Public ": 9084,
  "management ": 9085,
  "Tho": 9086,
  " spent ": 9087,
  " shel": 9088,
  " partnership": 9089,
  "heavy ": 9090,
  "ront ": 9091,
  " finding": 9092,
  " type of ": 9093,
  "Additional": 9094,
  "(and": 9095,
  "road ": 9096,
  " bene": 9097,
  "across the": 9098,
  "deal ": 9099,
  "accoun": 9100,
  ".\nYou": 9101,
  "to build": 9102,
  "CL": 9103,
  "CT": 9104,
  " cut ": 9105,
  " objective": 9106,
  "Emp": 9107,
  "Cu": 9108,
  "goti": 9109,
  "owl": 9110,
  "illi": 9111,
  "the g": 9112,
  "cks ": 9113,
  " facilit": 9114,
  " fit ": 9115,
  "hoto": 9116,
  "improvement": 9117,
  "s pre": 9118,
  "yond": 9119,
  " budget": 9120,
  "ted on ": 9121,
  "at the same ": 9122,
  "ds are ": 9123,
  "astruct": 9124,
  "ecure": 9125,
  "digital": 9126,
  "ashion": 9127,
  "limited": 9128,
  "ledg": 9129,
  "ation. ": 9130,
  "missio": 9131,
  "cute": 9132,
  "director": 9133,
  "ure to": 9134,
  "establ": 9135,
  "negoti": 9136,
  "es or": 9137,
  "is so ": 9138,
  "J. ": 9139,
  " to meet ": 9140,
  "memory": 9141,
  "resh ": 9142,
  "Photo": 9143,
  "dance ": 9144,
  "lipp": 9145,
  "discussion": 9146,
  "on top": 9147,
  " tow": 9148,
  "Tal": 9149,
  "E. ": 9150,
  "Mel": 9151,
  "Red ": 9152,
  "estern ": 9153,
  "stone": 9154,
  "Get": 9155,
  "rug ": 9156,
  "Mach": 9157,
  "~": 9158,
  " Service": 9159,
  "Paul ": 9160,
  "etic ": 9161,
  "dimen": 9162,
  "s still": 9163,
  "Main": 9164,
  "entit": 9165,
  "ility ": 9166,
  " was f": 9167,
  "Ana": 9168,
  ". After ": 9169,
  "minal ": 9170,
  " proce": 9171,
  "Tar": 9172,
  " bal": 9173,
  "child ": 9174,
  "ide, ": 9175,
  " fabric": 9176,
  "article ": 9177,
  "ing for": 9178,
  "euro": 9179,
  "length": 9180,
  "debt": 9181,
  "59": 9182,
  " that is": 9183,
  " computer ": 9184,
  "pproved": 9185,
  "rations ": 9186,
  "led the ": 9187,
  " phase": 9188,
  "ador": 9189,
  "Ul": 9190,
  " swim": 9191,
  " beyond": 9192,
  "you might ": 9193,
  "alize": 9194,
  "ance of ": 9195,
  "Lord": 9196,
  " of its ": 9197,
  "north": 9198,
  "Data ": 9199,
  " and it ": 9200,
  " offici": 9201,
  "le of the ": 9202,
  "ed at the ": 9203,
  " skin ": 9204,
  ", what ": 9205,
  "chro": 9206,
  " won\u2019t": 9207,
  "in place": 9208,
  "edit": 9209,
  " sn": 9210,
  "expected": 9211,
  " break ": 9212,
  ", can": 9213,
  "demonst": 9214,
  " and I ": 9215,
  "eaking": 9216,
  " tor": 9217,
  "toring": 9218,
  " player ": 9219,
  "he had ": 9220,
  "generally ": 9221,
  " to our": 9222,
  "\u2019s the": 9223,
  "France": 9224,
  "or in ": 9225,
  "Like ": 9226,
  "comes ": 9227,
  " prepared": 9228,
  "mentioned": 9229,
  " course, ": 9230,
  "sman": 9231,
  "listed": 9232,
  "get the": 9233,
  "s has ": 9234,
  "weet ": 9235,
  " serve ": 9236,
  "This s": 9237,
  "Executi": 9238,
  "s. They": 9239,
  " tank": 9240,
  "kept": 9241,
  " transaction": 9242,
  "28 ": 9243,
  "internal": 9244,
  "devic": 9245,
  "ancest": 9246,
  "Cri": 9247,
  "October": 9248,
  "es on the ": 9249,
  "delight": 9250,
  "tool ": 9251,
  "lie ": 9252,
  "morning ": 9253,
  "y to the ": 9254,
  "mining": 9255,
  "2007": 9256,
  " capital": 9257,
  "glass": 9258,
  "? S": 9259,
  "it all": 9260,
  "residential": 9261,
  "TV ": 9262,
  " sharing": 9263,
  "s as": 9264,
  " cash ": 9265,
  "make it ": 9266,
  " warran": 9267,
  " ai": 9268,
  "s speci": 9269,
  "s plan": 9270,
  "Best": 9271,
  "Because ": 9272,
  "/s": 9273,
  "ed out": 9274,
  ", by": 9275,
  " supply ": 9276,
  "Leader": 9277,
  "make the ": 9278,
  " contains ": 9279,
  "1990": 9280,
  "ditio": 9281,
  "Contact ": 9282,
  " classic ": 9283,
  "visiting ": 9284,
  "ML": 9285,
  "renc": 9286,
  " of it": 9287,
  "multi-": 9288,
  "holding": 9289,
  "killed ": 9290,
  "s with the": 9291,
  " suggestion": 9292,
  " fine ": 9293,
  " producer": 9294,
  ". Sa": 9295,
  "exclusive": 9296,
  " planning ": 9297,
  " collaboration": 9298,
  "hour ": 9299,
  " century": 9300,
  "\\": 9301,
  "November": 9302,
  "Care": 9303,
  "- S": 9304,
  "4,": 9305,
  " complic": 9306,
  "-pro": 9307,
  " waste": 9308,
  "s. You ": 9309,
  " subt": 9310,
  "I really ": 9311,
  "es. This ": 9312,
  "s, with ": 9313,
  " twice": 9314,
  " and to ": 9315,
  " after the": 9316,
  " tight": 9317,
  " with our ": 9318,
  "regarding": 9319,
  ", So": 9320,
  "temporary": 9321,
  "zard": 9322,
  "rational": 9323,
  " wid": 9324,
  "ze the ": 9325,
  ".\nIn the ": 9326,
  " spark": 9327,
  " worse": 9328,
  "hundreds of ": 9329,
  " crea": 9330,
  " focus on ": 9331,
  "recon": 9332,
  " tend": 9333,
  ".\nYou can ": 9334,
  "installed": 9335,
  "gett": 9336,
  " appreciate ": 9337,
  " for the first ": 9338,
  " compl": 9339,
  "or other": 9340,
  "Club": 9341,
  " cheese": 9342,
  " opened": 9343,
  "vulner": 9344,
  "dynamic": 9345,
  "-fi": 9346,
  "recognized": 9347,
  " pursu": 9348,
  "ing your ": 9349,
  ".\nHe ": 9350,
  "graduate": 9351,
  "ttle": 9352,
  "or not": 9353,
  "toward ": 9354,
  "Mes": 9355,
  "labor": 9356,
  "Florida ": 9357,
  " champion": 9358,
  "Chri": 9359,
  ".\nOn ": 9360,
  "more, ": 9361,
  "had the ": 9362,
  "Australian ": 9363,
  " for his ": 9364,
  "nume": 9365,
  " ago": 9366,
  "drea": 9367,
  "chicken": 9368,
  "10, ": 9369,
  "understo": 9370,
  "decad": 9371,
  " of P": 9372,
  " finger": 9373,
  "laptop": 9374,
  "tivity": 9375,
  "bor ": 9376,
  "ecting": 9377,
  "\u2019ll be ": 9378,
  "ms to": 9379,
  "ze the": 9380,
  "Hor": 9381,
  " for some ": 9382,
  " with their": 9383,
  " saying ": 9384,
  "en and ": 9385,
  "Happy ": 9386,
  "decrea": 9387,
  ", but the": 9388,
  "-friend": 9389,
  "you a ": 9390,
  " pound": 9391,
  " taught ": 9392,
  "ment to": 9393,
  "you must ": 9394,
  "42": 9395,
  "dog ": 9396,
  "organization ": 9397,
  "urban": 9398,
  "increasing ": 9399,
  " if you are ": 9400,
  "magic": 9401,
  "requires ": 9402,
  "Ly": 9403,
  "Maj": 9404,
  "s 1": 9405,
  "Light ": 9406,
  "s, I ": 9407,
  " before the": 9408,
  "ures. ": 9409,
  "responsible for ": 9410,
  " corporation": 9411,
  "Office ": 9412,
  " wanted": 9413,
  "27 ": 9414,
  "time. ": 9415,
  " pit": 9416,
  "stage ": 9417,
  " chat": 9418,
  "Time ": 9419,
  " till ": 9420,
  ". One ": 9421,
  "mount ": 9422,
  "alone ": 9423,
  "external": 9424,
  "interaction": 9425,
  "Bis": 9426,
  "% of the": 9427,
  " cen": 9428,
  "Ox": 9429,
  "Hospital": 9430,
  " after a ": 9431,
  "ated to ": 9432,
  "in touch": 9433,
  "Hon": 9434,
  "dies": 9435,
  "ago, ": 9436,
  " facul": 9437,
  "s and other": 9438,
  "lifestyle": 9439,
  "end, ": 9440,
  "make the": 9441,
  ".\nThere": 9442,
  "moti": 9443,
  " presentation": 9444,
  " speech": 9445,
  ".\nFi": 9446,
  "grad": 9447,
  "hydro": 9448,
  "zer ": 9449,
  "s in your": 9450,
  "rowd": 9451,
  " proposal": 9452,
  "s pri": 9453,
  " bone": 9454,
  " faster": 9455,
  " System ": 9456,
  " weeks ": 9457,
  "thera": 9458,
  "high school": 9459,
  "Break": 9460,
  " sure that ": 9461,
  "Centre": 9462,
  "res of ": 9463,
  " concert": 9464,
  " preci": 9465,
  "nalism": 9466,
  "duti": 9467,
  " transpa": 9468,
  "ready ": 9469,
  ", said": 9470,
  ". His ": 9471,
  "t. We ": 9472,
  "Busines": 9473,
  " to his ": 9474,
  "liver": 9475,
  "Ford ": 9476,
  ", M": 9477,
  " this, ": 9478,
  " count ": 9479,
  "acher ": 9480,
  "rhyth": 9481,
  ", there is ": 9482,
  "Low": 9483,
  "s available ": 9484,
  "loading": 9485,
  "Magaz": 9486,
  "rete": 9487,
  "s support": 9488,
  "GD": 9489,
  "Note: ": 9490,
  "Download": 9491,
  "s and their": 9492,
  "ffee ": 9493,
  ". Bo": 9494,
  " when he ": 9495,
  "employment": 9496,
  "muscle": 9497,
  "engagement": 9498,
  " we\u2019ve ": 9499,
  " pricing": 9500,
  " serving ": 9501,
  " is all ": 9502,
  " featur": 9503,
  "nian ": 9504,
  " from an ": 9505,
  "knock": 9506,
  "justice": 9507,
  "s, while ": 9508,
  "generate": 9509,
  "entrepreneur": 9510,
  "regularly": 9511,
  ". Each ": 9512,
  " pray": 9513,
  "mirac": 9514,
  " circuit": 9515,
  " police ": 9516,
  "according to": 9517,
  "nose": 9518,
  " Super ": 9519,
  "that i": 9520,
  "decided to": 9521,
  ". We will ": 9522,
  "Ara": 9523,
  "s. These ": 9524,
  "bridge": 9525,
  " consistent": 9526,
  "Wiki": 9527,
  "11.": 9528,
  " centr": 9529,
  " in order to": 9530,
  "grant ": 9531,
  "Anti": 9532,
  " brief ": 9533,
  " Safe": 9534,
  "has also": 9535,
  "repair ": 9536,
  "hunt": 9537,
  " pract": 9538,
  "wa ": 9539,
  ". Lo": 9540,
  "chief ": 9541,
  " operat": 9542,
  "Deco": 9543,
  "Mary ": 9544,
  "Jesu": 9545,
  "ringe": 9546,
  "Block": 9547,
  "Motor": 9548,
  "ready to": 9549,
  "enorm": 9550,
  "or p": 9551,
  "him to ": 9552,
  "WordPres": 9553,
  "guid": 9554,
  "Wri": 9555,
  " featured": 9556,
  "heaven": 9557,
  " phone call": 9558,
  "22, ": 9559,
  "depth ": 9560,
  "email addres": 9561,
  "Hotel ": 9562,
  "happens ": 9563,
  "2013, ": 9564,
  "Justice ": 9565,
  " twel": 9566,
  "Anth": 9567,
  "hire ": 9568,
  "s. Our": 9569,
  " will be a": 9570,
  " full-": 9571,
  " Squ": 9572,
  " wireless ": 9573,
  " pattern ": 9574,
  " in her": 9575,
  " plugin": 9576,
  "\u0432": 9577,
  "to be an ": 9578,
  "Rights ": 9579,
  " furniture ": 9580,
  "27, ": 9581,
  "bodi": 9582,
  "decline": 9583,
  "Dur": 9584,
  "Beau": 9585,
  " cit": 9586,
  ". More": 9587,
  ".\nAd": 9588,
  "Asia ": 9589,
  "heart of ": 9590,
  " wealth": 9591,
  "chil": 9592,
  "cellu": 9593,
  "Toronto": 9594,
  " fanta": 9595,
  "viewed by ": 9596,
  " credit": 9597,
  "asset": 9598,
  "ately ": 9599,
  "oursel": 9600,
  "s\u201d": 9601,
  "attack": 9602,
  "ation of the ": 9603,
  "terri": 9604,
  " Sy": 9605,
  " payment": 9606,
  "ml": 9607,
  "distrib": 9608,
  " club": 9609,
  "mobile ": 9610,
  ", all": 9611,
  " continue ": 9612,
  "daughter": 9613,
  " protection": 9614,
  ", please": 9615,
  "goo": 9616,
  "rem": 9617,
  " fra": 9618,
  "horse": 9619,
  " a small": 9620,
  "NI": 9621,
  "ves.\n": 9622,
  "maintenance": 9623,
  "\". ": 9624,
  " Sta": 9625,
  " protect": 9626,
  "rier": 9627,
  "advice": 9628,
  ".\nF": 9629,
  " safety ": 9630,
  " propos": 9631,
  "i and ": 9632,
  "mail ": 9633,
  "roy": 9634,
  " package": 9635,
  "IG": 9636,
  "aliz": 9637,
  " shap": 9638,
  "India ": 9639,
  " field ": 9640,
  "infr": 9641,
  "are also": 9642,
  "development ": 9643,
  "Eco": 9644,
  "),": 9645,
  "review ": 9646,
  "89": 9647,
  "Christma": 9648,
  "people who ": 9649,
  " pot": 9650,
  "border": 9651,
  "wise ": 9652,
  "-2": 9653,
  " prevent ": 9654,
  "throughout ": 9655,
  " contrib": 9656,
  "ves to ": 9657,
  "led with ": 9658,
  "infrastruct": 9659,
  "zy ": 9660,
  "ride ": 9661,
  " tag": 9662,
  "Disc": 9663,
  "R. ": 9664,
  " to my ": 9665,
  "nmental ": 9666,
  "Community ": 9667,
  "IT ": 9668,
  "nurs": 9669,
  "cale": 9670,
  "s that are": 9671,
  "use it": 9672,
  "hell": 9673,
  "Last ": 9674,
  " breath": 9675,
  "ation (": 9676,
  ". As": 9677,
  "mart ": 9678,
  " susp": 9679,
  ". It was ": 9680,
  "s sur": 9681,
  "French ": 9682,
  "lite ": 9683,
  "its s": 9684,
  "sch": 9685,
  "ease ": 9686,
  " for their": 9687,
  "hyd": 9688,
  "\t": 9689,
  "servation": 9690,
  "s, pro": 9691,
  "Pur": 9692,
  "alleg": 9693,
  "wk": 9694,
  " belief": 9695,
  "mote ": 9696,
  "Under": 9697,
  "gone": 9698,
  " of them": 9699,
  "ence, ": 9700,
  "on my": 9701,
  "to come": 9702,
  "thes": 9703,
  " position ": 9704,
  "Champi": 9705,
  "however, ": 9706,
  "lever": 9707,
  " cry": 9708,
  "ess ": 9709,
  "s in a": 9710,
  "department": 9711,
  "relevant ": 9712,
  "matter ": 9713,
  "). The ": 9714,
  "king the": 9715,
  "might be ": 9716,
  "fli": 9717,
  "accessori": 9718,
  " secret": 9719,
  "ood, ": 9720,
  "Market": 9721,
  " their own": 9722,
  "mined": 9723,
  "Democrat": 9724,
  " fill ": 9725,
  " types of": 9726,
  "ation to": 9727,
  "ed that": 9728,
  "years.\n": 9729,
  "Chinese ": 9730,
  "Looking": 9731,
  "thri": 9732,
  " typically ": 9733,
  " promote ": 9734,
  "quote": 9735,
  "epper": 9736,
  "seller": 9737,
  " cos": 9738,
  "rolled ": 9739,
  "included ": 9740,
  " please": 9741,
  "Clea": 9742,
  "absolutely ": 9743,
  " when the": 9744,
  "PI": 9745,
  "here.\n": 9746,
  " Sur": 9747,
  " fact, ": 9748,
  "asked": 9749,
  " and c": 9750,
  ":00": 9751,
  "s, including ": 9752,
  "extremely": 9753,
  "Mexi": 9754,
  " became": 9755,
  "right now": 9756,
  "rehensive ": 9757,
  " putting ": 9758,
  "killed": 9759,
  "April": 9760,
  " properly": 9761,
  " procedur": 9762,
  "ffic ": 9763,
  " in order to ": 9764,
  "Del": 9765,
  " as they ": 9766,
  " summer ": 9767,
  "assist ": 9768,
  "goal ": 9769,
  "Gen": 9770,
  "doubt": 9771,
  " biggest ": 9772,
  "heat ": 9773,
  " train ": 9774,
  "fortun": 9775,
  "games ": 9776,
  " with my ": 9777,
  "rear": 9778,
  "you have a": 9779,
  "had to": 9780,
  "Use": 9781,
  " we will": 9782,
  "ed with the": 9783,
  "you\u2019ll": 9784,
  "Glas": 9785,
  "Oli": 9786,
  "Inclu": 9787,
  " of A": 9788,
  "French": 9789,
  "you'll ": 9790,
  "itation": 9791,
  "them.\n": 9792,
  "especial": 9793,
  " fill": 9794,
  " official ": 9795,
  "except": 9796,
  " come to ": 9797,
  "diagno": 9798,
  "and, ": 9799,
  "FA": 9800,
  "86": 9801,
  " appear ": 9802,
  " the po": 9803,
  "OK": 9804,
  "Digital ": 9805,
  " of that ": 9806,
  "you know ": 9807,
  "viol": 9808,
  " poor ": 9809,
  " when they ": 9810,
  "used for ": 9811,
  "independent ": 9812,
  " and in ": 9813,
  "Power ": 9814,
  "one, ": 9815,
  "distribut": 9816,
  "tastic": 9817,
  "you a": 9818,
  "teen ": 9819,
  "PM": 9820,
  "out, ": 9821,
  "mption": 9822,
  "valuable ": 9823,
  "here.": 9824,
  "handle ": 9825,
  " ones": 9826,
  " there is a": 9827,
  "energ": 9828,
  "s P": 9829,
  "greater": 9830,
  "s found": 9831,
  " cannot": 9832,
  "happening": 9833,
  "Real ": 9834,
  " compos": 9835,
  "too much": 9836,
  "raise ": 9837,
  " purchase ": 9838,
  "thread": 9839,
  ".\nMy ": 9840,
  "ed, and ": 9841,
  "decided": 9842,
  " and they ": 9843,
  "(M": 9844,
  " Services ": 9845,
  "accep": 9846,
  "up for ": 9847,
  "elev": 9848,
  "ket. ": 9849,
  " please ": 9850,
  "novel": 9851,
  "gues": 9852,
  "disappoint": 9853,
  "rency": 9854,
  "s in your ": 9855,
  " problems": 9856,
  "hip": 9857,
  "check out ": 9858,
  "lots of": 9859,
  "kitchen ": 9860,
  ".\nWhen": 9861,
  "learned ": 9862,
  "Park ": 9863,
  " contrac": 9864,
  " takes": 9865,
  "Executive ": 9866,
  "released ": 9867,
  "how you ": 9868,
  "Fr": 9869,
  "notice ": 9870,
  "all your ": 9871,
  "reliable": 9872,
  "permit": 9873,
  " world, ": 9874,
  "-up ": 9875,
  "Deli": 9876,
  "issues ": 9877,
  "devices ": 9878,
  " in mind": 9879,
  "ulti": 9880,
  " working with ": 9881,
  ". I was ": 9882,
  "despite": 9883,
  "needs to be ": 9884,
  "depends ": 9885,
  " treat ": 9886,
  "organisation": 9887,
  " for any ": 9888,
  "minate ": 9889,
  "using a": 9890,
  "dos": 9891,
  "Mr. ": 9892,
  "replace ": 9893,
  " calori": 9894,
  " way, ": 9895,
  "post": 9896,
  " finish ": 9897,
  "ures.\n": 9898,
  " comprehensive ": 9899,
  "Boo": 9900,
  "Expl": 9901,
  "tunity to": 9902,
  " agenci": 9903,
  "meeting ": 9904,
  "qualified ": 9905,
  " in P": 9906,
  "he is": 9907,
  " foo": 9908,
  " what they ": 9909,
  "nament": 9910,
  "that would ": 9911,
  "$5": 9912,
  "opportunity to": 9913,
  "interior": 9914,
  "ulous ": 9915,
  "deg": 9916,
  "degree ": 9917,
  "not just": 9918,
  "it can": 9919,
  " superi": 9920,
  "Federal ": 9921,
  "investment ": 9922,
  " tap": 9923,
  "outstanding": 9924,
  "Gl": 9925,
  "optimi": 9926,
  "installation": 9927,
  "revol": 9928,
  "ness.\n": 9929,
  " changing": 9930,
  "Richar": 9931,
  ".\nO": 9932,
  " choi": 9933,
  " boost": 9934,
  "ent and ": 9935,
  "s abo": 9936,
  "introduced": 9937,
  " trained": 9938,
  " at the time": 9939,
  "development of ": 9940,
  "Bon": 9941,
  "wered ": 9942,
  "ryp": 9943,
  "acting ": 9944,
  "hands": 9945,
  " wall ": 9946,
  "ellect": 9947,
  "10.": 9948,
  "tive, ": 9949,
  "ropo": 9950,
  "driven": 9951,
  "River": 9952,
  " an un": 9953,
  " as long": 9954,
  "OC": 9955,
  "year-old ": 9956,
  "uctive": 9957,
  " in any": 9958,
  "Annual ": 9959,
  " pregnan": 9960,
  " others ": 9961,
  "pecific": 9962,
  " fab": 9963,
  " in her ": 9964,
  "exception": 9965,
  "dealer": 9966,
  "Tuesday": 9967,
  "makes": 9968,
  "**": 9969,
  "; the ": 9970,
  "unles": 9971,
  " pull": 9972,
  " possibly ": 9973,
  "rism ": 9974,
  "ties in ": 9975,
  "graph ": 9976,
  " completed": 9977,
  "react": 9978,
  "lash ": 9979,
  "Tou": 9980,
  " at all ": 9981,
  " spoke": 9982,
  "chance to ": 9983,
  "use of the": 9984,
  "expense": 9985,
  "England": 9986,
  "President": 9987,
  " with other": 9988,
  " typically": 9989,
  ".D": 9990,
  "$3": 9991,
  "I got": 9992,
  "Premi": 9993,
  "enjo": 9994,
  "attractive": 9995,
  "HD": 9996,
  " troub": 9997,
  "do you": 9998,
  ". Ad": 9999,
  "about it": 10000,
  " consul": 10001,
  "anywhere ": 10002,
  " and there": 10003,
  " competitive ": 10004,
  "itut": 10005,
  "enhance": 10006,
  "leads ": 10007,
  "Fellow": 10008,
  " provides a": 10009,
  " initiative": 10010,
  " profile": 10011,
  "lank": 10012,
  " focusing ": 10013,
  "military": 10014,
  "yes, ": 10015,
  " within a ": 10016,
  " background ": 10017,
  "unknown": 10018,
  "Brook": 10019,
  " breakfast": 10020,
  "donation": 10021,
  "s are available": 10022,
  "Melbour": 10023,
  " along with ": 10024,
  "Ind": 10025,
  "goe": 10026,
  "vessel": 10027,
  " points ": 10028,
  "actively ": 10029,
  " cutting": 10030,
  "that could ": 10031,
  "ure of the ": 10032,
  " pilot": 10033,
  "listic ": 10034,
  "strategic": 10035,
  "certification": 10036,
  " wif": 10037,
  " and can ": 10038,
  " promote": 10039,
  "visible": 10040,
  " broa": 10041,
  " warning": 10042,
  "gorith": 10043,
  " previously": 10044,
  " poet": 10045,
  "employment ": 10046,
  " for her ": 10047,
  " piece ": 10048,
  "recyc": 10049,
  "GB ": 10050,
  "12.": 10051,
  "Chicago": 10052,
  "Georgia": 10053,
  "or an ": 10054,
  "design, ": 10055,
  "vention ": 10056,
  "Loui": 10057,
  " commission": 10058,
  ", this is ": 10059,
  " affordable ": 10060,
  " collection ": 10061,
  "information, ": 10062,
  "Museum": 10063,
  " if they": 10064,
  "here to ": 10065,
  "District": 10066,
  "liner": 10067,
  ": A ": 10068,
  " prompt": 10069,
  "no one": 10070,
  "sential ": 10071,
  ". Also": 10072,
  "lastic ": 10073,
  " pocket": 10074,
  "ulpt": 10075,
  "how they": 10076,
  "Hill ": 10077,
  "Road ": 10078,
  "ummy": 10079,
  "Audi": 10080,
  "eager": 10081,
  " part of": 10082,
  " woman ": 10083,
  "seminar": 10084,
  "opyright ": 10085,
  "PP": 10086,
  "fare": 10087,
  "home and ": 10088,
  "encourag": 10089,
  " continues to ": 10090,
  "university": 10091,
  " cock": 10092,
  "s in my ": 10093,
  " spee": 10094,
  "described": 10095,
  "s. She": 10096,
  " company\u2019s ": 10097,
  "how they ": 10098,
  " trau": 10099,
  " as \u201c": 10100,
  ". Her ": 10101,
  "rental ": 10102,
  "Oil": 10103,
  "Recor": 10104,
  "mg ": 10105,
  "teacher ": 10106,
  "desired ": 10107,
  "rose ": 10108,
  "intui": 10109,
  " coa": 10110,
  "gad": 10111,
  "ing it": 10112,
  "BT": 10113,
  " wide range of ": 10114,
  "reputation": 10115,
  "s of p": 10116,
  " willing to": 10117,
  " pig": 10118,
  " convenience": 10119,
  "Hong ": 10120,
  "ladi": 10121,
  " scholarship": 10122,
  " processor": 10123,
  " wish to ": 10124,
  "YouTube ": 10125,
  "ental": 10126,
  "Advanced ": 10127,
  "kg": 10128,
  "NEW ": 10129,
  "greatly ": 10130,
  "Robert": 10131,
  ". Click ": 10132,
  "Over the ": 10133,
  "Lux": 10134,
  " font": 10135,
  "tioned": 10136,
  "forms ": 10137,
  " such as the ": 10138,
  "Prince ": 10139,
  "makes a ": 10140,
  " at 7": 10141,
  "male ": 10142,
  "23, ": 10143,
  "Y, ": 10144,
  "Lad": 10145,
  " concrete": 10146,
  " county": 10147,
  "Edit": 10148,
  " place in ": 10149,
  "drag": 10150,
  "exam ": 10151,
  " balance ": 10152,
  "chee": 10153,
  "ENT ": 10154,
  " contained ": 10155,
  "\u2122 ": 10156,
  "Theo": 10157,
  "udi ": 10158,
  "Brad": 10159,
  "tivity ": 10160,
  "dining room": 10161,
  "ITY ": 10162,
  "quarter ": 10163,
  "Queen ": 10164,
  " Spe": 10165,
  "life.\n": 10166,
  "receive a": 10167,
  " supports ": 10168,
  "Hawai": 10169,
  "DB": 10170,
  " screens": 10171,
  "medy ": 10172,
  "questions and ": 10173,
  "essay ": 10174,
  " was posted ": 10175,
  " beginner": 10176,
  "QU": 10177,
  " iOS ": 10178,
  "Alt": 10179,
  "__": 10180,
  "resu": 10181,
  "matt": 10182,
  "word": 10183,
  "Eu": 10184,
  "Far": 10185,
  "tele": 10186,
  "lee": 10187,
  "estival": 10188,
  " cold": 10189,
  "Air ": 10190,
  "aging": 10191,
  " saving": 10192,
  "Wat": 10193,
  "U.S.": 10194,
  "ue to ": 10195,
  "= ": 10196,
  "ET": 10197,
  "repla": 10198,
  "astro": 10199,
  "Lake ": 10200,
  " cake": 10201,
  "wood": 10202,
  "urance ": 10203,
  "you\u2019ve ": 10204,
  "stret": 10205,
  "chance ": 10206,
  " fre": 10207,
  "anxi": 10208,
  "starting": 10209,
  " we will ": 10210,
  "ang ": 10211,
  "looks ": 10212,
  "of-": 10213,
  "structure": 10214,
  " if the": 10215,
  "Power": 10216,
  "Day ": 10217,
  "develop ": 10218,
  " sum": 10219,
  "Pat": 10220,
  " ses": 10221,
  "Cl": 10222,
  "al-": 10223,
  "rock": 10224,
  "renew": 10225,
  "alm": 10226,
  "41": 10227,
  " chocolate": 10228,
  "less than ": 10229,
  "well": 10230,
  "ations of ": 10231,
  "87": 10232,
  "! S": 10233,
  "that this ": 10234,
  "enterp": 10235,
  "to pay": 10236,
  "any, ": 10237,
  " truly ": 10238,
  "institution": 10239,
  "er and ": 10240,
  "you could ": 10241,
  " countri": 10242,
  " capa": 10243,
  "Fil": 10244,
  "Very ": 10245,
  "IN ": 10246,
  " where the ": 10247,
  "ve-": 10248,
  "mm ": 10249,
  "ences ": 10250,
  "ret ": 10251,
  "I love": 10252,
  "EX": 10253,
  "Did ": 10254,
  " sign ": 10255,
  " surpris": 10256,
  "direct ": 10257,
  " sweet": 10258,
  " to ensure ": 10259,
  ", when": 10260,
  " covered": 10261,
  "to f": 10262,
  "L. ": 10263,
  " to start": 10264,
  " Sal": 10265,
  "even if ": 10266,
  "iling ": 10267,
  " customi": 10268,
  "decision ": 10269,
  "Look": 10270,
  "ation in ": 10271,
  "GE": 10272,
  "maller ": 10273,
  "edicated ": 10274,
  "Also ": 10275,
  "On the ": 10276,
  "ure and": 10277,
  "t. This ": 10278,
  " and I": 10279,
  "pond": 10280,
  "ning the": 10281,
  "that can": 10282,
  "met ": 10283,
  "husband": 10284,
  "to b": 10285,
  " brought": 10286,
  " climate ": 10287,
  "  ": 10288,
  " wild": 10289,
  " felt": 10290,
  " sense of ": 10291,
  "(c": 10292,
  "Itali": 10293,
  "is what ": 10294,
  "hoot": 10295,
  "options": 10296,
  "nie": 10297,
  "hat. ": 10298,
  "laun": 10299,
  " prep": 10300,
  " policy ": 10301,
  "it's": 10302,
  "dedicated ": 10303,
  "ed by a ": 10304,
  "Ange": 10305,
  " affili": 10306,
  " pos": 10307,
  " problem ": 10308,
  " is still ": 10309,
  "abb": 10310,
  "your life": 10311,
  " when it": 10312,
  "Child": 10313,
  "instruct": 10314,
  "legi": 10315,
  "location ": 10316,
  ".\nBut": 10317,
  "HR": 10318,
  "marketing ": 10319,
  "reb": 10320,
  "Instead": 10321,
  "/or ": 10322,
  "that's ": 10323,
  "announced": 10324,
  "equipment ": 10325,
  "Ener": 10326,
  "BE": 10327,
  "you may": 10328,
  " wedding ": 10329,
  "hid": 10330,
  " coordi": 10331,
  "Will ": 10332,
  ", because": 10333,
  "missi": 10334,
  "; and": 10335,
  " win ": 10336,
  "agricult": 10337,
  "dry ": 10338,
  "Miss": 10339,
  " shor": 10340,
  "to support ": 10341,
  "Fami": 10342,
  " begin ": 10343,
  "hysi": 10344,
  ". If you": 10345,
  "division": 10346,
  "no longer ": 10347,
  ". I have ": 10348,
  "s. A ": 10349,
  "my life": 10350,
  "exercise ": 10351,
  "ed by a": 10352,
  "cast ": 10353,
  "kill ": 10354,
  " that. ": 10355,
  "rather": 10356,
  " suppos": 10357,
  " plate": 10358,
  "knowledg": 10359,
  "wing the ": 10360,
  " appearance": 10361,
  " playing": 10362,
  " offi": 10363,
  "About ": 10364,
  "seek": 10365,
  "known as ": 10366,
  "reality": 10367,
  " trial": 10368,
  " bir": 10369,
  "like the": 10370,
  " sent": 10371,
  "s. This": 10372,
  " Saturday": 10373,
  "eller": 10374,
  "ity of the": 10375,
  " symptom": 10376,
  "s, to ": 10377,
  " tho": 10378,
  " prec": 10379,
  " and we": 10380,
  " by S": 10381,
  "Through": 10382,
  " paid ": 10383,
  " she was ": 10384,
  "more and ": 10385,
  " sold": 10386,
  "penal": 10387,
  "in that ": 10388,
  "Os": 10389,
  "Cast": 10390,
  "View ": 10391,
  "Bor": 10392,
  "76": 10393,
  "regardles": 10394,
  " and t": 10395,
  ".\nM": 10396,
  "ised ": 10397,
  "s.\nIn ": 10398,
  " as it": 10399,
  "reduced": 10400,
  "themselve": 10401,
  " sure to ": 10402,
  "Step": 10403,
  ", said ": 10404,
  "relatively ": 10405,
  " products and": 10406,
  "rance ": 10407,
  "74": 10408,
  "- and ": 10409,
  "Thank ": 10410,
  " changed": 10411,
  "achieve ": 10412,
  "196": 10413,
  "attemp": 10414,
  "Jos": 10415,
  "according to the ": 10416,
  "ultimate": 10417,
  "rein": 10418,
  "s out ": 10419,
  " comes to": 10420,
  "TC": 10421,
  "are all ": 10422,
  " ang": 10423,
  "tailer": 10424,
  " at any ": 10425,
  " for any": 10426,
  " coverage": 10427,
  " commen": 10428,
  "Vit": 10429,
  "mol": 10430,
  "explore ": 10431,
  "van ": 10432,
  " bodi": 10433,
  " a person": 10434,
  " finding ": 10435,
  ". Every": 10436,
  ". Thank": 10437,
  " suit ": 10438,
  " there is a ": 10439,
  "upcoming ": 10440,
  "most of the ": 10441,
  ".\nAnd": 10442,
  "(D": 10443,
  " bear": 10444,
  "exciting ": 10445,
  " of his": 10446,
  "Team": 10447,
  "domain": 10448,
  "s without ": 10449,
  "Does ": 10450,
  "ashion ": 10451,
  " shopping": 10452,
  ". De": 10453,
  "retailer": 10454,
  " all, ": 10455,
  "abet": 10456,
  "biliti": 10457,
  "mented ": 10458,
  "you might": 10459,
  "und, ": 10460,
  "reasonable ": 10461,
  "Pacific ": 10462,
  " to them": 10463,
  "I didn\u2019t ": 10464,
  "kinds of ": 10465,
  "to avoid": 10466,
  " who is ": 10467,
  "vey ": 10468,
  "\u2013 and ": 10469,
  " choice ": 10470,
  "drew ": 10471,
  "Dun": 10472,
  ".\nTh": 10473,
  "IE": 10474,
  "Il": 10475,
  " some of the": 10476,
  "emphas": 10477,
  "European": 10478,
  "s, including": 10479,
  "know that": 10480,
  "verb": 10481,
  " classroom": 10482,
  "Bla": 10483,
  "last week": 10484,
  "terms of ": 10485,
  " practical ": 10486,
  " sometime": 10487,
  "island": 10488,
  "looked ": 10489,
  "returned": 10490,
  "jar": 10491,
  "ideas": 10492,
  "handle": 10493,
  "you.\n": 10494,
  " couple ": 10495,
  "knows ": 10496,
  ".\nK": 10497,
  "rate the ": 10498,
  "ding, ": 10499,
  "s. So": 10500,
  "threate": 10501,
  "nine": 10502,
  "s.\n\"": 10503,
  "instrument": 10504,
  "happen ": 10505,
  "Keep ": 10506,
  "judge": 10507,
  "its p": 10508,
  " iden": 10509,
  "not just ": 10510,
  "delic": 10511,
  "you have any ": 10512,
  "deed": 10513,
  "Level ": 10514,
  "16, ": 10515,
  "thir": 10516,
  "inct": 10517,
  " parents ": 10518,
  "26 ": 10519,
  "performing ": 10520,
  " square": 10521,
  "many other": 10522,
  "make sure": 10523,
  "recognis": 10524,
  "opportunitie": 10525,
  " former": 10526,
  ".\nNo": 10527,
  " patients ": 10528,
  "Prod": 10529,
  "monitoring": 10530,
  ". K": 10531,
  ": the": 10532,
  " speak ": 10533,
  "hire": 10534,
  "accurate ": 10535,
  " business, ": 10536,
  "you get": 10537,
  "universi": 10538,
  "11, ": 10539,
  "s, this ": 10540,
  ".\nY": 10541,
  " automatic": 10542,
  "journey ": 10543,
  "Cup": 10544,
  "unb": 10545,
  "tories ": 10546,
  "stuff ": 10547,
  "referen": 10548,
  " in B": 10549,
  " impress": 10550,
  " whose ": 10551,
  "2/": 10552,
  "details ": 10553,
  "logy and ": 10554,
  "1st": 10555,
  " changed ": 10556,
  "rif": 10557,
  "loaded": 10558,
  "medication": 10559,
  "thanks to ": 10560,
  " fiber": 10561,
  " breast": 10562,
  "metic": 10563,
  "exactly ": 10564,
  " finished ": 10565,
  " surprise": 10566,
  " books": 10567,
  "helpful ": 10568,
  " them to": 10569,
  "Jen": 10570,
  "Mem": 10571,
  "dramatic": 10572,
  "port. ": 10573,
  "Catholic": 10574,
  "developed ": 10575,
  "(E": 10576,
  " planet": 10577,
  "\"\n\"": 10578,
  "this book": 10579,
  "straw": 10580,
  "s, there": 10581,
  "theory": 10582,
  "Web ": 10583,
  "is why ": 10584,
  "celebrate": 10585,
  "asking": 10586,
  "s possi": 10587,
  "Engine": 10588,
  "earned ": 10589,
  "ent, ": 10590,
  "Valley ": 10591,
  " process of ": 10592,
  "anywhere": 10593,
  " said.\n": 10594,
  "movement ": 10595,
  " indicat": 10596,
  "Earth": 10597,
  "Fan": 10598,
  " professor": 10599,
  "layout": 10600,
  "Colum": 10601,
  "reporting": 10602,
  "mmig": 10603,
  " affect ": 10604,
  ", other": 10605,
  "expected to ": 10606,
  " brows": 10607,
  " week, ": 10608,
  "Admin": 10609,
  "FL ": 10610,
  " of which": 10611,
  "? The ": 10612,
  " behind the": 10613,
  "statement ": 10614,
  "incredible ": 10615,
  " academic": 10616,
  " so many": 10617,
  "ideal ": 10618,
  "Py": 10619,
  " construction ": 10620,
  " cases ": 10621,
  "s -": 10622,
  "information about ": 10623,
  "mainly ": 10624,
  "istic ": 10625,
  "need a ": 10626,
  "out for ": 10627,
  "doesn't": 10628,
  "deni": 10629,
  " possibly": 10630,
  " and what": 10631,
  "designed to": 10632,
  "sip": 10633,
  " posted in ": 10634,
  "intellect": 10635,
  "Card": 10636,
  " compris": 10637,
  ", you can ": 10638,
  " something that ": 10639,
  "means that ": 10640,
  ".\nHowever": 10641,
  "joined": 10642,
  " scientist": 10643,
  " been a": 10644,
  "ed at": 10645,
  "alive": 10646,
  "Thursday ": 10647,
  ", it is": 10648,
  "600": 10649,
  "healing": 10650,
  "entry was": 10651,
  " awesome": 10652,
  "hospital ": 10653,
  " competitor": 10654,
  "nai": 10655,
  "hich": 10656,
  "P. ": 10657,
  "DVD": 10658,
  "NOT ": 10659,
  "it would be ": 10660,
  "matically ": 10661,
  "despite ": 10662,
  "Living ": 10663,
  " played ": 10664,
  " calling": 10665,
  "lovely ": 10666,
  "expensive ": 10667,
  "integrated ": 10668,
  "ed out ": 10669,
  "nally, ": 10670,
  " tear": 10671,
  "I want ": 10672,
  "Vill": 10673,
  " capital ": 10674,
  "drink ": 10675,
  "s pack": 10676,
  "teran": 10677,
  "Friday, ": 10678,
  "arrest": 10679,
  "ps of ": 10680,
  "uccessful": 10681,
  "manufacturing": 10682,
  " trus": 10683,
  " focused on ": 10684,
  " with other ": 10685,
  "Georgi": 10686,
  "depend ": 10687,
  " of M": 10688,
  " all-": 10689,
  " to 1": 10690,
  ".\nDo ": 10691,
  "understanding ": 10692,
  " clearly": 10693,
  "game, ": 10694,
  " observ": 10695,
  "eeds ": 10696,
  "runch": 10697,
  "luxury": 10698,
  "its own": 10699,
  " flexible": 10700,
  "Jud": 10701,
  "algorith": 10702,
  "Russia": 10703,
  "Jesus": 10704,
  " shop ": 10705,
  "Bathroom ": 10706,
  " female": 10707,
  " analyst": 10708,
  "rules ": 10709,
  "1%": 10710,
  " was so ": 10711,
  " again, ": 10712,
  "in the first ": 10713,
  " this time": 10714,
  "manda": 10715,
  "improved ": 10716,
  "time in ": 10717,
  "Capital ": 10718,
  "make it": 10719,
  "Royal ": 10720,
  "advocate": 10721,
  "margin": 10722,
  " so that": 10723,
  "Tuesday ": 10724,
  " if it": 10725,
  "innovation": 10726,
  "Me ": 10727,
  "nature of ": 10728,
  "entry was posted in ": 10729,
  "t. This": 10730,
  " observed ": 10731,
  "s in our": 10732,
  "Washington, ": 10733,
  " and ta": 10734,
  "listening": 10735,
  ", both ": 10736,
  "asses": 10737,
  " shipping ": 10738,
  " feet ": 10739,
  "34 ": 10740,
  ".\nNo ": 10741,
  "vacation": 10742,
  "historical": 10743,
  "arrang": 10744,
  "-off": 10745,
  "every year": 10746,
  "animal ": 10747,
  "reasons": 10748,
  " subjec": 10749,
  " worship": 10750,
  "many people ": 10751,
  "m, the ": 10752,
  "essential ": 10753,
  "s. That": 10754,
  " we're ": 10755,
  "County, ": 10756,
  "Phys": 10757,
  "mino": 10758,
  "legend": 10759,
  "\u00f3": 10760,
  "here and ": 10761,
  "rain ": 10762,
  "humb": 10763,
  "loyal": 10764,
  ". For example": 10765,
  "nalist": 10766,
  "red and ": 10767,
  "Machine ": 10768,
  "devast": 10769,
  "holder ": 10770,
  " back in ": 10771,
  " some of": 10772,
  " scree": 10773,
  " focused ": 10774,
  "administrator": 10775,
  " survival": 10776,
  " calls ": 10777,
  "2018, ": 10778,
  "tioned ": 10779,
  " for those ": 10780,
  "open to ": 10781,
  "expand": 10782,
  "incredible": 10783,
  "MM": 10784,
  "racing": 10785,
  "dys": 10786,
  " treated ": 10787,
  "Eliza": 10788,
  "interact": 10789,
  "guideline": 10790,
  "other than ": 10791,
  "(a ": 10792,
  "\u043f": 10793,
  " catch ": 10794,
  " convert": 10795,
  "had an ": 10796,
  "lining": 10797,
  "Typ": 10798,
  " fasc": 10799,
  "towards": 10800,
  " cardio": 10801,
  "in the S": 10802,
  " sculpt": 10803,
  "End": 10804,
  " and their ": 10805,
  " talen": 10806,
  "pp. ": 10807,
  "Italy": 10808,
  "elegan": 10809,
  " wheel ": 10810,
  "Police ": 10811,
  "doctor ": 10812,
  "Vice ": 10813,
  " compatible": 10814,
  "strategic ": 10815,
  "s and t": 10816,
  "associate": 10817,
  "polit": 10818,
  "routine ": 10819,
  "Woo": 10820,
  " all over": 10821,
  " cable": 10822,
  "10:": 10823,
  "discri": 10824,
  " society ": 10825,
  "episode": 10826,
  "detect": 10827,
  "rela": 10828,
  "es. I ": 10829,
  "menu ": 10830,
  "URL": 10831,
  "Note ": 10832,
  "eption ": 10833,
  "keeper": 10834,
  " coffee ": 10835,
  "Lond": 10836,
  "manual ": 10837,
  "vity, ": 10838,
  "Colorado ": 10839,
  "s without": 10840,
  " in the middle": 10841,
  " one of our": 10842,
  "adminis": 10843,
  "metho": 10844,
  "Host": 10845,
  ".\nU": 10846,
  "Foc": 10847,
  "explor": 10848,
  "mixed": 10849,
  "generic": 10850,
  " cryp": 10851,
  "ed.": 10852,
  "ports ": 10853,
  "agon ": 10854,
  " physic": 10855,
  "Box": 10856,
  " prece": 10857,
  "raised": 10858,
  "racing ": 10859,
  "gun ": 10860,
  " weekly": 10861,
  "organizer": 10862,
  " speaking ": 10863,
  "performer": 10864,
  "Theatre": 10865,
  " features a": 10866,
  "Oil ": 10867,
  "gentle": 10868,
  "vascular ": 10869,
  " analysis of ": 10870,
  "durable": 10871,
  "enthusiast": 10872,
  " wants to": 10873,
  "cyber": 10874,
  "\u02dc": 10875,
  "OM": 10876,
  "+ ": 10877,
  "//": 10878,
  "://": 10879,
  "pire ": 10880,
  "teel": 10881,
  "\u2022 ": 10882,
  "irt": 10883,
  "Men": 10884,
  " to you": 10885,
  " pow": 10886,
  " felt ": 10887,
  "regis": 10888,
  "IR": 10889,
  "ing. ": 10890,
  " custom ": 10891,
  "ves and ": 10892,
  "Moun": 10893,
  "AA": 10894,
  "healthy ": 10895,
  "Arizo": 10896,
  " pretty": 10897,
  " wash": 10898,
  " total ": 10899,
  "revea": 10900,
  "lift": 10901,
  "TO ": 10902,
  "\u00fc": 10903,
  " trying to ": 10904,
  "ribute": 10905,
  "lost ": 10906,
  "required ": 10907,
  "Once": 10908,
  "-of-": 10909,
  "BM": 10910,
  "yourself ": 10911,
  "Kit": 10912,
  " proper ": 10913,
  "registration": 10914,
  "outhern ": 10915,
  "ds the ": 10916,
  " origi": 10917,
  "I just ": 10918,
  " code ": 10919,
  "Member": 10920,
  "lines ": 10921,
  "MD": 10922,
  "led by ": 10923,
  "on our": 10924,
  "PD": 10925,
  "Auto": 10926,
  "hours ": 10927,
  "dress ": 10928,
  "Pay": 10929,
  ". H": 10930,
  "defa": 10931,
  "warded": 10932,
  " chap": 10933,
  "employer": 10934,
  "greg": 10935,
  ". An ": 10936,
  "\u0441": 10937,
  "ving the": 10938,
  "alter": 10939,
  "Ext": 10940,
  ". At ": 10941,
  " contribution": 10942,
  " cata": 10943,
  " such a ": 10944,
  "istry": 10945,
  " suf": 10946,
  " when I": 10947,
  " psycho": 10948,
  "(19": 10949,
  "letter ": 10950,
  " send": 10951,
  "ror ": 10952,
  "ves and": 10953,
  " proud": 10954,
  "cele": 10955,
  "updat": 10956,
  "AI": 10957,
  "Pari": 10958,
  "face ": 10959,
  "thetic ": 10960,
  " busy": 10961,
  ". On": 10962,
  " fashion": 10963,
  " soul": 10964,
  "outdoor ": 10965,
  "BB": 10966,
  "see the": 10967,
  "motiv": 10968,
  " social media": 10969,
  "Republic": 10970,
  "Jew": 10971,
  "might be": 10972,
  "respond": 10973,
  ". How ": 10974,
  " as much": 10975,
  "\u00e4": 10976,
  "\", ": 10977,
  " functional": 10978,
  "wes": 10979,
  " sau": 10980,
  " writing ": 10981,
  "3r": 10982,
  "ethic": 10983,
  "rations": 10984,
  "time.\n": 10985,
  "Caroli": 10986,
  "gorge": 10987,
  "Inte": 10988,
  "2008": 10989,
  " of those": 10990,
  "license": 10991,
  "s \u2013": 10992,
  "Ur": 10993,
  "Jor": 10994,
  " smaller ": 10995,
  "no longer": 10996,
  " promot": 10997,
  ", along": 10998,
  " shall ": 10999,
  "Paul": 11000,
  "\u2026.": 11001,
  "Network ": 11002,
  "thentic": 11003,
  "I thought ": 11004,
  " federal ": 11005,
  "has s": 11006,
  ". Now": 11007,
  "s say": 11008,
  "amp ": 11009,
  "that there": 11010,
  " survey": 11011,
  "stress": 11012,
  " fresh ": 11013,
  ".\nH": 11014,
  "match ": 11015,
  "Er": 11016,
  "es. In ": 11017,
  " the cost": 11018,
  " film ": 11019,
  "Be ": 11020,
  " photo ": 11021,
  " what is ": 11022,
  "your home ": 11023,
  "decla": 11024,
  "dated": 11025,
  "inves": 11026,
  " based": 11027,
  "nine ": 11028,
  "end the ": 11029,
  "s as a": 11030,
  " obtain": 11031,
  "minor": 11032,
  "emergency": 11033,
  "II ": 11034,
  " feedback": 11035,
  "series ": 11036,
  "in and": 11037,
  "relevant": 11038,
  " farm": 11039,
  "Tow": 11040,
  "anci": 11041,
  "I feel ": 11042,
  "us at ": 11043,
  "-and": 11044,
  "until the ": 11045,
  "agon": 11046,
  "ushing ": 11047,
  "setting ": 11048,
  " with our": 11049,
  " to in": 11050,
  "deri": 11051,
  "Qual": 11052,
  "league": 11053,
  "list of": 11054,
  ".\nAll ": 11055,
  "unp": 11056,
  ".org": 11057,
  ", comp": 11058,
  "Big ": 11059,
  "enough to ": 11060,
  "dens": 11061,
  "quiet": 11062,
  "Week": 11063,
  "desire": 11064,
  " when we ": 11065,
  "-for": 11066,
  " brief": 11067,
  "normally ": 11068,
  "actor": 11069,
  "release ": 11070,
  "ration and ": 11071,
  "chance to": 11072,
  " trail": 11073,
  " She": 11074,
  " opening ": 11075,
  "kick": 11076,
  ".\nAfter ": 11077,
  "EM": 11078,
  "ringing ": 11079,
  "s page": 11080,
  "victim": 11081,
  "election": 11082,
  "s for your ": 11083,
  ", and a": 11084,
  "Yes, ": 11085,
  "drug ": 11086,
  "Ow": 11087,
  " it has ": 11088,
  " in its ": 11089,
  "illed ": 11090,
  " teach ": 11091,
  " chosen": 11092,
  "side of the ": 11093,
  "List": 11094,
  "it can be ": 11095,
  " slightly ": 11096,
  "cean": 11097,
  ", and a ": 11098,
  "it would ": 11099,
  "news ": 11100,
  "December": 11101,
  "events ": 11102,
  " those who": 11103,
  "Cos": 11104,
  ", will": 11105,
  "fying ": 11106,
  "incident": 11107,
  " welcome ": 11108,
  " in any ": 11109,
  " teaching": 11110,
  " passenger": 11111,
  ", some ": 11112,
  " form of ": 11113,
  "GH": 11114,
  " shoot": 11115,
  "up a ": 11116,
  "addition, ": 11117,
  "ngle": 11118,
  "lating ": 11119,
  " blog ": 11120,
  ". Your ": 11121,
  "Android ": 11122,
  "Virgi": 11123,
  "ville ": 11124,
  "), and": 11125,
  ".\nThank": 11126,
  "s, etc": 11127,
  "This is the ": 11128,
  "China ": 11129,
  "attle ": 11130,
  ". We are ": 11131,
  " prepare": 11132,
  " is very": 11133,
  "AM ": 11134,
  ", there are": 11135,
  " construc": 11136,
  "argument": 11137,
  ". Y": 11138,
  " watching ": 11139,
  "adhe": 11140,
  "maller": 11141,
  "igno": 11142,
  ", such ": 11143,
  ".\nPlease ": 11144,
  "79": 11145,
  "know what": 11146,
  "\u2013 a": 11147,
  "arrival": 11148,
  "MT": 11149,
  " approved": 11150,
  "quality of ": 11151,
  "Acc": 11152,
  " autom": 11153,
  ". Fi": 11154,
  " since the ": 11155,
  "ability and ": 11156,
  " suffer": 11157,
  "statu": 11158,
  " of us ": 11159,
  " wra": 11160,
  "you\u2019ve": 11161,
  " sor": 11162,
  "Dona": 11163,
  "field": 11164,
  " summ": 11165,
  "(the": 11166,
  "las ": 11167,
  "53": 11168,
  "es and the ": 11169,
  "68": 11170,
  ".\nNow": 11171,
  "movie ": 11172,
  "people, ": 11173,
  " of R": 11174,
  ". Then": 11175,
  " table ": 11176,
  "London ": 11177,
  "at an ": 11178,
  "ling and ": 11179,
  "Tech ": 11180,
  "Food": 11181,
  " fam": 11182,
  " overs": 11183,
  " proceeding": 11184,
  "govern": 11185,
  " web site": 11186,
  " bank ": 11187,
  ". You will ": 11188,
  "Artic": 11189,
  "re is no ": 11190,
  "less s": 11191,
  "medium ": 11192,
  "tioner": 11193,
  ".\nThese ": 11194,
  "Girl": 11195,
  "segment": 11196,
  "Project ": 11197,
  "United State": 11198,
  "GO": 11199,
  "its own ": 11200,
  "decided to ": 11201,
  ". Se": 11202,
  " would have ": 11203,
  " that your ": 11204,
  "t. We": 11205,
  "s system": 11206,
  " fair ": 11207,
  "herit": 11208,
  ":00 ": 11209,
  "listed ": 11210,
  "disciplin": 11211,
  ", of ": 11212,
  "HT": 11213,
  " bla": 11214,
  "s Sa": 11215,
  ". Then ": 11216,
  "difficult ": 11217,
  " preparation": 11218,
  "Fit": 11219,
  "just a ": 11220,
  "Make ": 11221,
  "100%": 11222,
  " trop": 11223,
  "adapt": 11224,
  " soc": 11225,
  "Perfor": 11226,
  "ed from the ": 11227,
  "environmental ": 11228,
  "vintage ": 11229,
  " coach ": 11230,
  "importance": 11231,
  "les are ": 11232,
  "Conf": 11233,
  "Food ": 11234,
  "ite the ": 11235,
  "Join ": 11236,
  "Lis": 11237,
  "ed of": 11238,
  " smaller": 11239,
  "District ": 11240,
  "enfor": 11241,
  "Academy": 11242,
  " to you ": 11243,
  "nating ": 11244,
  " areas ": 11245,
  "ardi": 11246,
  "mana": 11247,
  "300 ": 11248,
  "hesit": 11249,
  "s power": 11250,
  " flag": 11251,
  " climate": 11252,
  "Link": 11253,
  " previously ": 11254,
  "asking ": 11255,
  " pup": 11256,
  "serious": 11257,
  " contemporary ": 11258,
  " amp": 11259,
  "discuss ": 11260,
  " facility": 11261,
  "!\nThe": 11262,
  "grated": 11263,
  "s, for ": 11264,
  " of time": 11265,
  " busy ": 11266,
  "Have": 11267,
  " prior ": 11268,
  "developing": 11269,
  " source ": 11270,
  "UV": 11271,
  " sit ": 11272,
  "environmental": 11273,
  "on how ": 11274,
  "healthcare": 11275,
  " batt": 11276,
  "reduction": 11277,
  "me a ": 11278,
  "is a very ": 11279,
  " commonly ": 11280,
  " impressive ": 11281,
  "herb": 11282,
  "toxic": 11283,
  " approval": 11284,
  " take the ": 11285,
  "lob": 11286,
  " path ": 11287,
  "ns of ": 11288,
  "is a great": 11289,
  " superior ": 11290,
  ", cont": 11291,
  "massive ": 11292,
  "body ": 11293,
  " becoming ": 11294,
  "extract": 11295,
  " tissue": 11296,
  "expect ": 11297,
  "Prac": 11298,
  "42 ": 11299,
  "nite ": 11300,
  "29 ": 11301,
  " was to ": 11302,
  "s she ": 11303,
  "ation in": 11304,
  " take a": 11305,
  "anyway": 11306,
  "expansion": 11307,
  "acking": 11308,
  " compared to ": 11309,
  "43": 11310,
  " impressive": 11311,
  "or not ": 11312,
  "achievement": 11313,
  " case, ": 11314,
  " booking": 11315,
  "minated": 11316,
  " as to ": 11317,
  "downt": 11318,
  "hearing": 11319,
  " of two ": 11320,
  "receiving ": 11321,
  ", and I ": 11322,
  "grown": 11323,
  "rium": 11324,
  "62": 11325,
  "fortunately": 11326,
  "accessible": 11327,
  "though, ": 11328,
  " of her": 11329,
  " tast": 11330,
  " browser": 11331,
  "terro": 11332,
  "executive": 11333,
  "map ": 11334,
  " wind ": 11335,
  "pers ": 11336,
  ".\nDo": 11337,
  " tired": 11338,
  "in s": 11339,
  "information about": 11340,
[...]
