{
  " ": 6,
  "e": 7,
  "t": 8,
  "a": 9,
  "o": 10,
  "i": 11,
  "n": 12,
  "s": 13,
  "r": 14,
  "h": 15,
  "l": 16,
  "d": 17,
  "c": 18,
  "u": 19,
  "m": 20,
  "p": 21,
  "f": 22,
  "g": 23,
  "y": 24,
  "e ": 25,
  "w": 26,
  "b": 27,
  ".": 28,
  "s ": 29,
  "v": 30,
  ",": 31,
  "he": 32,
  "th": 33,
  "t ": 34,
  "d ": 35,
  " a": 36,
  "k": 37,
  "er": 38,
  "re": 39,
  "n ": 40,
  " t": 41,
  "the": 42,
  "on": 43,
  "in": 44,
  " the": 45,
  "r ": 46,
  " s": 47,
  "\n": 48,
  "at": 49,
  "nd": 50,
  "y ": 51,
  "or": 52,
  "ng": 53,
  " o": 54,
  "en": 55,
  ", ": 56,
  "to": 57,
  "es": 58,
  "o ": 59,
  "te": 60,
  "an": 61,
  "the ": 62,
  "ing": 63,
  "st": 64,
  "ed": 65,
  "T": 66,
  "ti": 67,
  "I": 68,
  "nt": 69,
  "is": 70,
  "al": 71,
  "and": 72,
  "nd ": 73,
  " w": 74,
  "ou": 75,
  "g ": 76,
  "S": 77,
  "le": 78,
  "A": 79,
  "it": 80,
  "ng ": 81,
  "ha": 82,
  "ve": 83,
  "l ": 84,
  " and": 85,
  "se": 86,
  "and ": 87,
  "ing ": 88,
  "of": 89,
  "ar": 90,
  "ro": 91,
  "f ": 92,
  "C": 93,
  "ea": 94,
  "as": 95,
  "a ": 96,
  ".\n": 97,
  ". ": 98,
  " c": 99,
  " to ": 100,
  "ne": 101,
  " b": 102,
  " p": 103,
  "co": 104,
  " i": 105,
  " m": 106,
  " f": 107,
  "0": 108,
  "ic": 109,
  "ra": 110,
  "-": 111,
  "om": 112,
  "ll": 113,
  "de": 114,
  "me": 115,
  "h ": 116,
  "ur": 117,
  "li": 118,
  "ce": 119,
  "io": 120,
  " d": 121,
  "x": 122,
  " h": 123,
  "1": 124,
  "ri": 125,
  "is ": 126,
  "re ": 127,
  "M": 128,
  "ca": 129,
  " e": 130,
  "be": 131,
  " l": 132,
  "ent": 133,
  "P": 134,
  "or ": 135,
  "in ": 136,
  "si": 137,
  "ta": 138,
  " of ": 139,
  "for": 140,
  "ma": 141,
  "B": 142,
  "et": 143,
  "W": 144,
  "la": 145,
  "el": 146,
  "ly": 147,
  "us": 148,
  "tion": 149,
  "ac": 150,
  "2": 151,
  "D": 152,
  "ns": 153,
  "pe": 154,
  "ho": 155,
  " r": 156,
  "lo": 157,
  "E": 158,
  "ut": 159,
  " S": 160,
  "ct": 161,
  "ch": 162,
  "\u2019": 163,
  "ge": 164,
  "yo": 165,
  "R": 166,
  "ow": 167,
  " I": 168,
  "ss": 169,
  " in ": 170,
  "ee": 171,
  "H": 172,
  "ec": 173,
  "so": 174,
  " A": 175,
  "F": 176,
  " for": 177,
  "rs": 178,
  "L": 179,
  "rt": 180,
  "ad": 181,
  "pr": 182,
  "O": 183,
  "N": 184,
  "nc": 185,
  "m ": 186,
  "ie": 187,
  "ay": 188,
  "il": 189,
  "di": 190,
  " is ": 191,
  "ly ": 192,
  "no": 193,
  "wi": 194,
  "ll ": 195,
  "we": 196,
  "ts": 197,
  " g": 198,
  "pa": 199,
  "na": 200,
  "ve ": 201,
  "ol": 202,
  "j": 203,
  "mo": 204,
  " C": 205,
  "th ": 206,
  "st ": 207,
  "hi": 208,
  "G": 209,
  "un": 210,
  "you": 211,
  "wa": 212,
  "ke": 213,
  " you": 214,
  "ot": 215,
  "'": 216,
  "ul": 217,
  "ry": 218,
  "oo": 219,
  "tr": 220,
  "le ": 221,
  "q": 222,
  "for ": 223,
  "am": 224,
  "ig": 225,
  "id": 226,
  "fi": 227,
  "ia": 228,
  "Th": 229,
  "z": 230,
  "pro": 231,
  "u ": 232,
  ")": 233,
  " n": 234,
  "ir": 235,
  "com": 236,
  "em": 237,
  "ni": 238,
  "s, ": 239,
  "(": 240,
  "ab": 241,
  "tu": 242,
  "im": 243,
  "ty": 244,
  "ai": 245,
  "The": 246,
  "fe": 247,
  "k ": 248,
  "do": 249,
  "vi": 250,
  "ur ": 251,
  "sh": 252,
  "hat ": 253,
  "pl": 254,
  "mi": 255,
  "wh": 256,
  "ld": 257,
  "ck": 258,
  "that": 259,
  "mp": 260,
  "op": 261,
  "our ": 262,
  "gh": 263,
  "her": 264,
  " pro": 265,
  "3": 266,
  "ver": 267,
  " M": 268,
  "w ": 269,
  "5": 270,
  "su": 271,
  "ex": 272,
  "ci": 273,
  "with": 274,
  "ith ": 275,
  "you ": 276,
  " B": 277,
  "rea": 278,
  "po": 279,
  "con": 280,
  " (": 281,
  "os": 282,
  "res": 283,
  "ion ": 284,
  "his ": 285,
  "are ": 286,
  " y": 287,
  "per": 288,
  "od": 289,
  "ill": 290,
  " P": 291,
  " com": 292,
  " T": 293,
  "men": 294,
  "fr": 295,
  " that ": 296,
  "ag": 297,
  "U": 298,
  "I ": 299,
  "9": 300,
  "4": 301,
  " con": 302,
  ":": 303,
  " E": 304,
  "p ": 305,
  "ment": 306,
  "!": 307,
  "\"": 308,
  "da": 309,
  "out": 310,
  "bu": 311,
  "rd": 312,
  "tt": 313,
  "ap": 314,
  " are": 315,
  "up": 316,
  "uc": 317,
  "ting": 318,
  "sa": 319,
  "fo": 320,
  "?": 321,
  "J": 322,
  " W": 323,
  "s and": 324,
  "sp": 325,
  "ry ": 326,
  "ey": 327,
  "8": 328,
  "be ": 329,
  " D": 330,
  "Y": 331,
  " H": 332,
  "ba": 333,
  " The": 334,
  " G": 335,
  "der": 336,
  "ls": 337,
  "6": 338,
  "if": 339,
  "your": 340,
  " be ": 341,
  " with ": 342,
  "bo": 343,
  "\n\n": 344,
  "ther": 345,
  " O": 346,
  "pp": 347,
  "qu": 348,
  "oc": 349,
  "fa": 350,
  "V": 351,
  "rk": 352,
  "ep": 353,
  " u": 354,
  "rn": 355,
  " R": 356,
  "K": 357,
  "ga": 358,
  "go": 359,
  "7": 360,
  "ave ": 361,
  "igh": 362,
  "ew": 363,
  " your ": 364,
  "ht": 365,
  "ny": 366,
  "The ": 367,
  "s,": 368,
  "use": 369,
  "ak": 370,
  "ill ": 371,
  "f the ": 372,
  "by": 373,
  "va": 374,
  "wo": 375,
  "cl": 376,
  ". I": 377,
  "of the": 378,
  "s and ": 379,
  "lu": 380,
  "ue": 381,
  " F": 382,
  "du": 383,
  "ort": 384,
  " of the ": 385,
  "from": 386,
  "age": 387,
  "gr": 388,
  " N": 389,
  "ere ": 390,
  ".\n\n": 391,
  " L": 392,
  "gi": 393,
  " or ": 394,
  " v": 395,
  " have ": 396,
  "ug": 397,
  ", and": 398,
  "wor": 399,
  ". The": 400,
  "ua": 401,
  "ds": 402,
  "ei": 403,
  "/": 404,
  "was": 405,
  "iv": 406,
  " was": 407,
  "ding": 408,
  " J": 409,
  "ip": 410,
  "ight": 411,
  " can": 412,
  "cu": 413,
  "all ": 414,
  "um": 415,
  "ff": 416,
  "ye": 417,
  "this": 418,
  "can ": 419,
  "20": 420,
  "ev": 421,
  "eg": 422,
  "c ": 423,
  "have": 424,
  "ted ": 425,
  "ust": 426,
  "lt": 427,
  "\u2019s": 428,
  "ru": 429,
  "tic": 430,
  " this ": 431,
  "han": 432,
  "bl": 433,
  "will": 434,
  " wor": 435,
  "ake": 436,
  "not": 437,
  "rom ": 438,
  "ui": 439,
  " on ": 440,
  "bi": 441,
  "ter ": 442,
  "ard": 443,
  "ive ": 444,
  "man": 445,
  "s of": 446,
  "ore ": 447,
  " from ": 448,
  "ring": 449,
  "ov": 450,
  "ble ": 451,
  "pi": 452,
  "in the": 453,
  "\u2019s ": 454,
  "t the ": 455,
  "og": 456,
  "ft": 457,
  "av": 458,
  "ions": 459,
  ". A": 460,
  " not": 461,
  "cr": 462,
  "ys": 463,
  " k": 464,
  "day": 465,
  "ob": 466,
  "au": 467,
  "ok": 468,
  ", the": 469,
  "sc": 470,
  " it ": 471,
  "ub": 472,
  " per": 473,
  "cha": 474,
  " 1": 475,
  "ning": 476,
  " in the ": 477,
  "In": 478,
  "rc": 479,
  "ven": 480,
  "Co": 481,
  "fu": 482,
  "e,": 483,
  "us ": 484,
  "rm": 485,
  "ime": 486,
  " K": 487,
  "s to": 488,
  "lly ": 489,
  "nu": 490,
  "hing": 491,
  "king": 492,
  "\u201c": 493,
  "nes": 494,
  "ous": 495,
  "rg": 496,
  "ran": 497,
  "wn": 498,
  "able": 499,
  "pu": 500,
  "\u201d": 501,
  "ally": 502,
  "d to": 503,
  "e of": 504,
  "ork": 505,
  "nk": 506,
  "rr": 507,
  " will ": 508,
  "ner": 509,
  "ud": 510,
  "now": 511,
  "port": 512,
  "but": 513,
  " an ": 514,
  "uld ": 515,
  "ed to ": 516,
  "was ": 517,
  " out": 518,
  "n the ": 519,
  ", a": 520,
  " j": 521,
  "my": 522,
  "pt": 523,
  "not ": 524,
  "ation ": 525,
  "over": 526,
  "che": 527,
  "est ": 528,
  "Ma": 529,
  " all": 530,
  "hou": 531,
  "fer": 532,
  "very": 533,
  " U": 534,
  "den": 535,
  ";": 536,
  "nn": 537,
  "time": 538,
  "dr": 539,
  "s.": 540,
  "tive": 541,
  "ffe": 542,
  "mer": 543,
  "ber": 544,
  "some": 545,
  " res": 546,
  " \u201c": 547,
  "hr": 548,
  "nder": 549,
  "way": 550,
  " by ": 551,
  "king ": 552,
  "ef": 553,
  "gn": 554,
  "We": 555,
  "oi": 556,
  "work": 557,
  "sing": 558,
  "nal ": 559,
  "rv": 560,
  " our": 561,
  "es, ": 562,
  "ver ": 563,
  "ure ": 564,
  "0 ": 565,
  " rea": 566,
  "ks": 567,
  "onal": 568,
  "gu": 569,
  "br": 570,
  " but": 571,
  "ib": 572,
  "nce ": 573,
  "othe": 574,
  "eo": 575,
  "to the": 576,
  "00": 577,
  "ms": 578,
  "sion": 579,
  " we ": 580,
  "s in": 581,
  " \"": 582,
  ", s": 583,
  " use": 584,
  "ent ": 585,
  "mat": 586,
  "ould": 587,
  "\u2013": 588,
  "hin": 589,
  "\nThe": 590,
  "they": 591,
  "'s": 592,
  "\nA": 593,
  "more": 594,
  ") ": 595,
  "ture": 596,
  "e to": 597,
  "ik": 598,
  "eir ": 599,
  "ever": 600,
  "oa": 601,
  " one": 602,
  "part": 603,
  ". The ": 604,
  " as ": 605,
  "\nI": 606,
  " 2": 607,
  " their": 608,
  "Re": 609,
  "their ": 610,
  "ate ": 611,
  " cha": 612,
  "ound": 613,
  "cont": 614,
  ". S": 615,
  "It": 616,
  "get": 617,
  " at ": 618,
  "out ": 619,
  "up ": 620,
  "rd ": 621,
  "comp": 622,
  "sy": 623,
  "ery ": 624,
  "ence": 625,
  "bout": 626,
  "rit": 627,
  "hes": 628,
  ".\nThe": 629,
  " has": 630,
  " more ": 631,
  "ust ": 632,
  "s a ": 633,
  "t to": 634,
  "t of": 635,
  "pen": 636,
  "ich ": 637,
  "nter": 638,
  ", and ": 639,
  "'s ": 640,
  "lin": 641,
  "ick": 642,
  "hich": 643,
  "cc": 644,
  "dd": 645,
  "t. ": 646,
  "een ": 647,
  "one ": 648,
  " about": 649,
  "s the ": 650,
  "ling": 651,
  ".\nA": 652,
  "af": 653,
  "thing": 654,
  "dy": 655,
  " any": 656,
  "year": 657,
  "Ca": 658,
  "ost ": 659,
  "eb": 660,
  "el ": 661,
  "e.": 662,
  " which": 663,
  "like": 664,
  "mu": 665,
  "min": 666,
  "which ": 667,
  "but ": 668,
  "e and ": 669,
  "e the ": 670,
  "mon": 671,
  ": ": 672,
  "e in": 673,
  " man": 674,
  "gs": 675,
  "s are ": 676,
  ".\nI": 677,
  "ial ": 678,
  "emen": 679,
  "ord": 680,
  "St": 681,
  "them": 682,
  "cess": 683,
  " other": 684,
  "ps": 685,
  "other ": 686,
  " dis": 687,
  "mber": 688,
  "uch": 689,
  "sk": 690,
  "dent": 691,
  "also": 692,
  "here": 693,
  "This": 694,
  "cal ": 695,
  "ze": 696,
  "even": 697,
  "ffer": 698,
  "ple ": 699,
  "vo": 700,
  "He": 701,
  "hy": 702,
  "t is": 703,
  " V": 704,
  "ful": 705,
  "This ": 706,
  "thin": 707,
  " 3": 708,
  "very ": 709,
  " my ": 710,
  "cy": 711,
  "uch ": 712,
  "t,": 713,
  " new": 714,
  "lso ": 715,
  "y,": 716,
  "reat": 717,
  "fl": 718,
  " app": 719,
  "!\n": 720,
  "ity ": 721,
  "xt": 722,
  "any ": 723,
  "19": 724,
  "evel": 725,
  "on the": 726,
  " his": 727,
  ". T": 728,
  "ving": 729,
  "cho": 730,
  "lf": 731,
  "ough": 732,
  "ph": 733,
  "ely ": 734,
  "know": 735,
  "lp": 736,
  "ount": 737,
  "s that": 738,
  "hea": 739,
  " get": 740,
  "&": 741,
  "sign": 742,
  "mm": 743,
  "n,": 744,
  " on the ": 745,
  "ake ": 746,
  "oy": 747,
  "pres": 748,
  " also ": 749,
  "ing the ": 750,
  "at the": 751,
  "ugh ": 752,
  "ain ": 753,
  "tional": 754,
  "A ": 755,
  "rent": 756,
  "aw": 757,
  "red ": 758,
  "make": 759,
  "hen ": 760,
  "es and": 761,
  "when": 762,
  "has ": 763,
  "hu": 764,
  "d in": 765,
  " sho": 766,
  "qui": 767,
  " up ": 768,
  "nv": 769,
  "Se": 770,
  " who": 771,
  "De": 772,
  "serv": 773,
  "ance": 774,
  "ast ": 775,
  "mb": 776,
  "ines": 777,
  "cial": 778,
  "cor": 779,
  "lity": 780,
  "xp": 781,
  "We ": 782,
  "Wh": 783,
  "crea": 784,
  " they ": 785,
  "prov": 786,
  "dat": 787,
  "ki": 788,
  "?\n": 789,
  "ional ": 790,
  ". W": 791,
  "Pa": 792,
  "n of": 793,
  "So": 794,
  "cation": 795,
  "rl": 796,
  "You": 797,
  "ress": 798,
  "har": 799,
  "und ": 800,
  " tha": 801,
  "ws": 802,
  "car": 803,
  "ness": 804,
  "que": 805,
  "ard ": 806,
  "Yo": 807,
  " pre": 808,
  "than": 809,
  "well": 810,
  "10": 811,
  "been": 812,
  "vice": 813,
  "how ": 814,
  "ron": 815,
  "der ": 816,
  "cent": 817,
  "just": 818,
  ", the ": 819,
  " under": 820,
  ", but": 821,
  " her": 822,
  "what": 823,
  "cons": 824,
  "$": 825,
  "ling ": 826,
  "d by": 827,
  "inte": 828,
  "i ": 829,
  "ton": 830,
  "bs": 831,
  "Ho": 832,
  ", I": 833,
  "iz": 834,
  "n\u2019": 835,
  "ster": 836,
  " would": 837,
  "ous ": 838,
  "back": 839,
  "mar": 840,
  "ations": 841,
  "ome ": 842,
  "help": 843,
  "most": 844,
  "Mo": 845,
  "r,": 846,
  "tter": 847,
  "\nS": 848,
  "sm": 849,
  " how": 850,
  "spec": 851,
  "is a": 852,
  "who ": 853,
  " see": 854,
  "Be": 855,
  " day": 856,
  "o be": 857,
  " every": 858,
  "d,": 859,
  "vers": 860,
  "for the ": 861,
  "age ": 862,
  " 4": 863,
  "nic": 864,
  "oe": 865,
  "\u2019t": 866,
  "new ": 867,
  "line": 868,
  "n\u2019t": 869,
  "tly ": 870,
  "nclu": 871,
  ". B": 872,
  "irst": 873,
  "now ": 874,
  "were": 875,
  "ell ": 876,
  "ral ": 877,
  ".\nThe ": 878,
  "sl": 879,
  " were ": 880,
  " rec": 881,
  "ek": 882,
  "ack ": 883,
  "Bu": 884,
  " exp": 885,
  "rate": 886,
  "about ": 887,
  "ration": 888,
  "cul": 889,
  "n and ": 890,
  " -": 891,
  "ind ": 892,
  "side": 893,
  "ile ": 894,
  "and the ": 895,
  "iver": 896,
  "would ": 897,
  "high": 898,
  "nto ": 899,
  "ong ": 900,
  "ated": 901,
  "Pr": 902,
  "je": 903,
  "ary ": 904,
  "t and ": 905,
  "tc": 906,
  " to the ": 907,
  "If": 908,
  "jo": 909,
  "d the ": 910,
  "tain": 911,
  "ment ": 912,
  " for the": 913,
  " had": 914,
  "%": 915,
  " just ": 916,
  " car": 917,
  "ious": 918,
  "use ": 919,
  "gy": 920,
  " 5": 921,
  " its": 922,
  "ient": 923,
  " Y": 924,
  "ood ": 925,
  "rp": 926,
  " to be": 927,
  "To": 928,
  " been ": 929,
  "qua": 930,
  "t\u2019s ": 931,
  "n\u2019t ": 932,
  " do ": 933,
  "Q": 934,
  "n to": 935,
  "e a ": 936,
  "take": 937,
  "e-": 938,
  "ater": 939,
  "ion of": 940,
  "01": 941,
  " hea": 942,
  " so ": 943,
  "y of": 944,
  ".\nS": 945,
  "to be ": 946,
  "No": 947,
  ". H": 948,
  "fter": 949,
  " is a ": 950,
  "Ch": 951,
  " way": 952,
  " This ": 953,
  "its ": 954,
  "oduc": 955,
  "n in": 956,
  " inclu": 957,
  " inter": 958,
  "x ": 959,
  "end ": 960,
  " tim": 961,
  " when ": 962,
  "ook ": 963,
  "land": 964,
  "read": 965,
  "ection": 966,
  "clud": 967,
  "ove ": 968,
  "hoo": 969,
  "ople": 970,
  "sed ": 971,
  "\nW": 972,
  "ing to": 973,
  "rest": 974,
  " into ": 975,
  "chan": 976,
  "t a ": 977,
  "Ba": 978,
  "top": 979,
  "ying": 980,
  "ach ": 981,
  "t.": 982,
  "t in": 983,
  "ose ": 984,
  "long": 985,
  "Do": 986,
  "For": 987,
  " sub": 988,
  "ause": 989,
  " ind": 990,
  "thes": 991,
  "ned ": 992,
  "her ": 993,
  "s with": 994,
  "peri": 995,
  "rans": 996,
  " first": 997,
  "gain": 998,
  "sure": 999,
  "ower": 1000,
  "lace": 1001,
  "f you ": 1002,
  "nf": 1003,
  " \u2013": 1004,
  "\u201d ": 1005,
  "ice ": 1006,
  "X": 1007,
  "vent": 1008,
  "ith the ": 1009,
  " may": 1010,
  "An": 1011,
  "\nT": 1012,
  " mon": 1013,
  " there": 1014,
  " You": 1015,
  "own ": 1016,
  " ins": 1017,
  "Com": 1018,
  "- ": 1019,
  "ts, ": 1020,
  "ction ": 1021,
  "mit": 1022,
  "y to": 1023,
  "come": 1024,
  "You ": 1025,
  "gg": 1026,
  "wan": 1027,
  "fore": 1028,
  "ical": 1029,
  "On": 1030,
  "gen": 1031,
  "s, and": 1032,
  "net": 1033,
  "hom": 1034,
  "mple": 1035,
  "rs, ": 1036,
  "lect": 1037,
  "ded ": 1038,
  "people": 1039,
  "hil": 1040,
  "5 ": 1041,
  "ervice": 1042,
  "form": 1043,
  "Li": 1044,
  " stu": 1045,
  "includ": 1046,
  "Wi": 1047,
  "tal ": 1048,
  "ven ": 1049,
  "As": 1050,
  "rst ": 1051,
  "gl": 1052,
  "site": 1053,
  " he ": 1054,
  "self": 1055,
  "Al": 1056,
  "\u2014": 1057,
  ". M": 1058,
  "in a": 1059,
  "s for ": 1060,
  "oper": 1061,
  " with the ": 1062,
  " what ": 1063,
  "arch": 1064,
  ". This ": 1065,
  "vide": 1066,
  "hrough": 1067,
  "ming": 1068,
  "coun": 1069,
  "Me": 1070,
  "ons ": 1071,
  " We ": 1072,
  "tate": 1073,
  "Go": 1074,
  "; ": 1075,
  " very ": 1076,
  "many": 1077,
  "sent": 1078,
  "b ": 1079,
  "e is": 1080,
  "only": 1081,
  " imp": 1082,
  "mation": 1083,
  "ed by ": 1084,
  "ear ": 1085,
  "each": 1086,
  "as a": 1087,
  " some ": 1088,
  " rep": 1089,
  "eople ": 1090,
  "2 ": 1091,
  "d with": 1092,
  "get ": 1093,
  "produc": 1094,
  "ant ": 1095,
  "view": 1096,
  "ike ": 1097,
  "ears": 1098,
  " wan": 1099,
  "Ne": 1100,
  "hap": 1101,
  "only ": 1102,
  "stem": 1103,
  " two": 1104,
  "ime ": 1105,
  "good": 1106,
  "xa": 1107,
  "ener": 1108,
  "duct": 1109,
  "org": 1110,
  "llow": 1111,
  "need": 1112,
  " now": 1113,
  "s. The": 1114,
  "to a": 1115,
  "iden": 1116,
  "s from": 1117,
  " bet": 1118,
  "offe": 1119,
  "cas": 1120,
  "ship": 1121,
  "Con": 1122,
  " through": 1123,
  "xi": 1124,
  " most ": 1125,
  ".\nW": 1126,
  "ctor": 1127,
  " par": 1128,
  "Z": 1129,
  "ame ": 1130,
  "ject": 1131,
  "book": 1132,
  "han ": 1133,
  " devel": 1134,
  "Lo": 1135,
  "ies ": 1136,
  "tent": 1137,
  "jec": 1138,
  "th a": 1139,
  " again": 1140,
  "Mi": 1141,
  "put": 1142,
  "day ": 1143,
  " Com": 1144,
  "Un": 1145,
  " mar": 1146,
  "tic ": 1147,
  "then": 1148,
  " sta": 1149,
  "ide ": 1150,
  ".\nT": 1151,
  "Ro": 1152,
  ", p": 1153,
  "! ": 1154,
  " lea": 1155,
  "ree ": 1156,
  " rel": 1157,
  "cond": 1158,
  "d and ": 1159,
  "led ": 1160,
  "low ": 1161,
  "gram": 1162,
  "first ": 1163,
  "wing": 1164,
  "tart": 1165,
  "ite ": 1166,
  "Ha": 1167,
  " acc": 1168,
  "ney": 1169,
  "tern": 1170,
  " no ": 1171,
  "Di": 1172,
  "18": 1173,
  "rough ": 1174,
  "ping": 1175,
  " trans": 1176,
  "Sh": 1177,
  "will be ": 1178,
  "\" ": 1179,
  ". This": 1180,
  "tech": 1181,
  "less": 1182,
  "Pro": 1183,
  "\u2013 ": 1184,
  "tation": 1185,
  "n'": 1186,
  "e of the": 1187,
  ". C": 1188,
  "ther ": 1189,
  "201": 1190,
  "usines": 1191,
  "of a": 1192,
  "ease": 1193,
  "stru": 1194,
  "had ": 1195,
  " right": 1196,
  " these": 1197,
  "15": 1198,
  "s. I": 1199,
  "n a ": 1200,
  "? ": 1201,
  "n.": 1202,
  "war": 1203,
  " at the ": 1204,
  " than ": 1205,
  "fol": 1206,
  "hot": 1207,
  "ible": 1208,
  " people ": 1209,
  "these ": 1210,
  ". We ": 1211,
  "ward": 1212,
  "ill be": 1213,
  "ed the": 1214,
  " develop": 1215,
  "shou": 1216,
  "oint": 1217,
  " hom": 1218,
  ", S": 1219,
  "lk": 1220,
  "stand": 1221,
  " did": 1222,
  "hile": 1223,
  "y and ": 1224,
  "Te": 1225,
  " world": 1226,
  ", but ": 1227,
  " could": 1228,
  "tor ": 1229,
  "stic": 1230,
  "ing a ": 1231,
  "said": 1232,
  "1 ": 1233,
  "Bo": 1234,
  "h, ": 1235,
  " in a ": 1236,
  "'t": 1237,
  "oing": 1238,
  "lor": 1239,
  "look": 1240,
  "eing": 1241,
  "with a": 1242,
  ". P": 1243,
  "Le": 1244,
  "best": 1245,
  " will be": 1246,
  "ase ": 1247,
  "Jo": 1248,
  "grea": 1249,
  "n't": 1250,
  "where ": 1251,
  "home": 1252,
  "play": 1253,
  " int": 1254,
  "d a ": 1255,
  "12": 1256,
  "formation": 1257,
  " over ": 1258,
  ". We": 1259,
  "hand": 1260,
  "equi": 1261,
  "Fi": 1262,
  "s.\n\n": 1263,
  "lation": 1264,
  "list": 1265,
  "Sa": 1266,
  "ory ": 1267,
  "hol": 1268,
  "ith a ": 1269,
  "cto": 1270,
  " off": 1271,
  "wo ": 1272,
  "y the ": 1273,
  "usto": 1274,
  " des": 1275,
  "ters": 1276,
  " service": 1277,
  "s on": 1278,
  " offer": 1279,
  "ful ": 1280,
  "r of": 1281,
  "00 ": 1282,
  "xc": 1283,
  "ull": 1284,
  "S ": 1285,
  "ogra": 1286,
  "ily ": 1287,
  "should": 1288,
  "through ": 1289,
  "La": 1290,
  ". It": 1291,
  "rb": 1292,
  "system": 1293,
  "righ": 1294,
  "choo": 1295,
  "ecause": 1296,
  " For": 1297,
  "ns, ": 1298,
  " years": 1299,
  "ific": 1300,
  " set": 1301,
  "dg": 1302,
  "Da": 1303,
  "za": 1304,
  "urr": 1305,
  "r.": 1306,
  "..": 1307,
  "siness": 1308,
  " work ": 1309,
  "y.": 1310,
  "ging": 1311,
  "es of ": 1312,
  "es to ": 1313,
  ".\nO": 1314,
  "d.": 1315,
  " pri": 1316,
  "n-": 1317,
  " tra": 1318,
  " with a ": 1319,
  "r and ": 1320,
  "um ": 1321,
  "iffe": 1322,
  " us ": 1323,
  "g,": 1324,
  "try ": 1325,
  "yp": 1326,
  "ts and": 1327,
  "may ": 1328,
  "Tr": 1329,
  "ist ": 1330,
  "into": 1331,
  ", b": 1332,
  " after": 1333,
  " start": 1334,
  "week": 1335,
  "lass": 1336,
  "tant": 1337,
  " thing": 1338,
  " busines": 1339,
  "e that": 1340,
  "r to": 1341,
  "per ": 1342,
  " where": 1343,
  "ber ": 1344,
  "n't ": 1345,
  "ff ": 1346,
  " if ": 1347,
  " many ": 1348,
  " make ": 1349,
  "thing ": 1350,
  " fol": 1351,
  "two ": 1352,
  "hose": 1353,
  "design": 1354,
  " 201": 1355,
  " Con": 1356,
  "tl": 1357,
  "ught": 1358,
  " lik": 1359,
  "tory": 1360,
  " che": 1361,
  "rf": 1362,
  " Pro": 1363,
  "ess ": 1364,
  "much": 1365,
  "ish ": 1366,
  "lv": 1367,
  "rder": 1368,
  ". I ": 1369,
  "ed in ": 1370,
  "ffic": 1371,
  "free": 1372,
  "stan": 1373,
  " nee": 1374,
  " them ": 1375,
  "ect ": 1376,
  "down": 1377,
  "win": 1378,
  "area": 1379,
  "test": 1380,
  "\u2018": 1381,
  "care": 1382,
  "ures": 1383,
  "e. I": 1384,
  " like ": 1385,
  "Fa": 1386,
  " dat": 1387,
  "tions ": 1388,
  "tw": 1389,
  " mat": 1390,
  "round ": 1391,
  " dec": 1392,
  "could ": 1393,
  "life": 1394,
  "lar ": 1395,
  "plac": 1396,
  "experi": 1397,
  "well ": 1398,
  "3 ": 1399,
  " col": 1400,
  "e with": 1401,
  "yer": 1402,
  "pany": 1403,
  " qua": 1404,
  "aking ": 1405,
  " reg": 1406,
  "s of the": 1407,
  " add": 1408,
  "supp": 1409,
  "information": 1410,
  "l,": 1411,
  "ings": 1412,
  " cre": 1413,
  "Pl": 1414,
  "tely": 1415,
  " for a": 1416,
  "ming ": 1417,
  "tle ": 1418,
  " Jo": 1419,
  "4 ": 1420,
  "way ": 1421,
  "eh": 1422,
  "lue": 1423,
  "ed a": 1424,
  "fit": 1425,
  " custo": 1426,
  " is the ": 1427,
  "ace ": 1428,
  "comm": 1429,
  "ttle": 1430,
  "chool": 1431,
  "ligh": 1432,
  " great": 1433,
  "on, ": 1434,
  "Po": 1435,
  "plan": 1436,
  "nity": 1437,
  "made": 1438,
  "wing ": 1439,
  "vern": 1440,
  " and the": 1441,
  "hile ": 1442,
  "show": 1443,
  "ouse": 1444,
  "rch ": 1445,
  "ved ": 1446,
  "rly ": 1447,
  "stor": 1448,
  "ual ": 1449,
  "such": 1450,
  "ade ": 1451,
  "yste": 1452,
  " exa": 1453,
  "hous": 1454,
  "rket": 1455,
  "ider": 1456,
  ". You": 1457,
  "arti": 1458,
  "How": 1459,
  " exc": 1460,
  " well ": 1461,
  "son ": 1462,
  " best ": 1463,
  "Ge": 1464,
  " ext": 1465,
  " you can": 1466,
  " product": 1467,
  "ason": 1468,
  "d on": 1469,
  "ort ": 1470,
  "cs": 1471,
  "ties": 1472,
  "for a ": 1473,
  ", m": 1474,
  "s. A": 1475,
  "rs and": 1476,
  "hout": 1477,
  "find": 1478,
  "ways": 1479,
  " place": 1480,
  ", M": 1481,
  "elp ": 1482,
  " web": 1483,
  "dition": 1484,
  " pla": 1485,
  "eter": 1486,
  "Fo": 1487,
  "room": 1488,
  "e.\n\n": 1489,
  " cas": 1490,
  " time ": 1491,
  "star": 1492,
  "sive": 1493,
  " from the ": 1494,
  "11": 1495,
  " too": 1496,
  "14": 1497,
  " know ": 1498,
  "fore ": 1499,
  "on and": 1500,
  "ries": 1501,
  "Vi": 1502,
  "business": 1503,
  "main": 1504,
  "\u2026": 1505,
  "alth": 1506,
  " requi": 1507,
  " much ": 1508,
  " such ": 1509,
  "000": 1510,
  "-s": 1511,
  "ing and ": 1512,
  "ion,": 1513,
  "nage": 1514,
  " inv": 1515,
  " uni": 1516,
  "buil": 1517,
  "oth ": 1518,
  "disc": 1519,
  "Ar": 1520,
  " own": 1521,
  " cho": 1522,
  "s well": 1523,
  ", C": 1524,
  "Ad": 1525,
  "bor": 1526,
  "after ": 1527,
  "Na": 1528,
  " rem": 1529,
  "cord": 1530,
  " help ": 1531,
  ". In": 1532,
  " cor": 1533,
  " Fa": 1534,
  " ent": 1535,
  "ers ": 1536,
  "team": 1537,
  "rage": 1538,
  "iend": 1539,
  "s you ": 1540,
  "s in the": 1541,
  "love": 1542,
  "from the": 1543,
  "nam": 1544,
  "turn": 1545,
  " can be ": 1546,
  "ka": 1547,
  ", d": 1548,
  "Wa": 1549,
  "bility": 1550,
  "sult": 1551,
  " as a ": 1552,
  "upport": 1553,
  "xe": 1554,
  "lear": 1555,
  "around": 1556,
  "t that": 1557,
  "eed ": 1558,
  "ve a": 1559,
  "art ": 1560,
  " ass": 1561,
  "Fr": 1562,
  ", A": 1563,
  "resent": 1564,
  "30": 1565,
  "medi": 1566,
  "rial": 1567,
  "cause ": 1568,
  "16": 1569,
  " top": 1570,
  " program": 1571,
  "dv": 1572,
  "olog": 1573,
  "icul": 1574,
  "nt to ": 1575,
  "search": 1576,
  "post": 1577,
  "ed with ": 1578,
  "data": 1579,
  "hn": 1580,
  ".\nB": 1581,
  "Pe": 1582,
  "oday": 1583,
  "before": 1584,
  "member": 1585,
  " find ": 1586,
  " good ": 1587,
  "50": 1588,
  "iron": 1589,
  "nation": 1590,
  " att": 1591,
  "pect": 1592,
  "by the": 1593,
  ".\nC": 1594,
  " those": 1595,
  " him": 1596,
  "ty of ": 1597,
  " str": 1598,
  "real": 1599,
  "athe": 1600,
  " being": 1601,
  "hild": 1602,
  "ked ": 1603,
  "ders": 1604,
  "coll": 1605,
  "experience": 1606,
  "does": 1607,
  "wer ": 1608,
  "quest": 1609,
  "char": 1610,
  ". N": 1611,
  "qual": 1612,
  "), ": 1613,
  "8 ": 1614,
  ", or ": 1615,
  " fin": 1616,
  "ifferent": 1617,
  "e. The": 1618,
  "s, the": 1619,
  " end": 1620,
  "hink": 1621,
  "till": 1622,
  "market": 1623,
  "differ": 1624,
  "eigh": 1625,
  ", you ": 1626,
  " provide": 1627,
  " of a ": 1628,
  "ted to": 1629,
  "friend": 1630,
  "ppor": 1631,
  "logy": 1632,
  "ion and ": 1633,
  "ze ": 1634,
  "nl": 1635,
  "ement ": 1636,
  "dra": 1637,
  "ational ": 1638,
  "s, s": 1639,
  "ween": 1640,
  "Cl": 1641,
  ").\n": 1642,
  "late": 1643,
  "17": 1644,
  "aila": 1645,
  "roup": 1646,
  "ppro": 1647,
  " cli": 1648,
  " Po": 1649,
  " sur": 1650,
  " company": 1651,
  "pers": 1652,
  "live": 1653,
  "change": 1654,
  " while": 1655,
  "tial": 1656,
  "last": 1657,
  "ian ": 1658,
  "s or": 1659,
  " because": 1660,
  " even ": 1661,
  "great ": 1662,
  " different": 1663,
  " count": 1664,
  "chil": 1665,
  ".\nM": 1666,
  "13": 1667,
  " pay": 1668,
  " Ge": 1669,
  " Na": 1670,
  "head": 1671,
  "ble to": 1672,
  "cing": 1673,
  "Ra": 1674,
  "They": 1675,
  " Ar": 1676,
  "6 ": 1677,
  " fam": 1678,
  "old ": 1679,
  "poss": 1680,
  ". L": 1681,
  "Su": 1682,
  "eep ": 1683,
  "e, and": 1684,
  " Pl": 1685,
  "aint": 1686,
  "ually ": 1687,
  "ware": 1688,
  "arly": 1689,
  "ative ": 1690,
  " win": 1691,
  " fil": 1692,
  " Vi": 1693,
  "ince": 1694,
  "ied ": 1695,
  "iza": 1696,
  "t with": 1697,
  " sit": 1698,
  "ten ": 1699,
  " back ": 1700,
  "s, a": 1701,
  " sha": 1702,
  "t was ": 1703,
  "is the": 1704,
  "def": 1705,
  "writ": 1706,
  " support": 1707,
  " fun": 1708,
  "rson": 1709,
  " min": 1710,
  "ooking": 1711,
  "IN": 1712,
  "rand": 1713,
  "soft": 1714,
  " that the ": 1715,
  " think": 1716,
  "ces ": 1717,
  "availa": 1718,
  "ents": 1719,
  " pos": 1720,
  " syste": 1721,
  "mation ": 1722,
  "spon": 1723,
  "ices": 1724,
  "For ": 1725,
  "tran": 1726,
  "rect": 1727,
  "l and ": 1728,
  " inc": 1729,
  " fac": 1730,
  "ts of ": 1731,
  "curr": 1732,
  "urse": 1733,
  "Br": 1734,
  "vest": 1735,
  "ed and": 1736,
  "esig": 1737,
  " really ": 1738,
  "number": 1739,
  "lish": 1740,
  "ick ": 1741,
  "pass": 1742,
  " tru": 1743,
  "that the": 1744,
  ". You ": 1745,
  "hard": 1746,
  "ctive ": 1747,
  "dro": 1748,
  ".\nE": 1749,
  " bel": 1750,
  "miss": 1751,
  "uction": 1752,
  "t of the": 1753,
  "man ": 1754,
  "ective": 1755,
  " each ": 1756,
  "\"\n": 1757,
  "D ": 1758,
  "C ": 1759,
  " lin": 1760,
  "ya": 1761,
  "Ex": 1762,
  "fort": 1763,
  "And ": 1764,
  "ator": 1765,
  "earn": 1766,
  " child": 1767,
  " Ad": 1768,
  ". He": 1769,
  "ours": 1770,
  "give": 1771,
  " ope": 1772,
  " between": 1773,
  "reen": 1774,
  " Pe": 1775,
  "before ": 1776,
  " by the ": 1777,
  "act ": 1778,
  "ating ": 1779,
  "e for ": 1780,
  "reas": 1781,
  " month": 1782,
  "nut": 1783,
  " you are": 1784,
  "ates": 1785,
  "scri": 1786,
  "want": 1787,
  "provid": 1788,
  "kin": 1789,
  "mily": 1790,
  "ross": 1791,
  " bas": 1792,
  " ran": 1793,
  "tes ": 1794,
  "ine ": 1795,
  "pot": 1796,
  "ju": 1797,
  "both": 1798,
  "Gr": 1799,
  ".\nP": 1800,
  "US": 1801,
  "there ": 1802,
  " say": 1803,
  "tage": 1804,
  "!\n\n": 1805,
  "r in": 1806,
  "rity": 1807,
  "re are": 1808,
  "t your": 1809,
  " process": 1810,
  " cou": 1811,
  "When": 1812,
  "cted": 1813,
  " def": 1814,
  "_": 1815,
  "7 ": 1816,
  "ns and": 1817,
  "ner ": 1818,
  "on a": 1819,
  ", which ": 1820,
  "yl": 1821,
  "ump": 1822,
  "ital": 1823,
  " it is": 1824,
  "open": 1825,
  " fur": 1826,
  " event": 1827,
  "govern": 1828,
  "while ": 1829,
  " env": 1830,
  "mage": 1831,
  "25": 1832,
  "see ": 1833,
  "rtic": 1834,
  " lif": 1835,
  "ilable": 1836,
  "action": 1837,
  "s been": 1838,
  "les ": 1839,
  "AN": 1840,
  "vailable": 1841,
  "those ": 1842,
  "lling ": 1843,
  " she": 1844,
  "plet": 1845,
  "auti": 1846,
  "rman": 1847,
  "ize ": 1848,
  "load": 1849,
  "plic": 1850,
  "import": 1851,
  "cept": 1852,
  " provi": 1853,
  "ing in": 1854,
  " Ja": 1855,
  "ere are ": 1856,
  " foc": 1857,
  "ond ": 1858,
  "uild": 1859,
  " sto": 1860,
  ".\nD": 1861,
  " ret": 1862,
  "formation ": 1863,
  "mall": 1864,
  "rant": 1865,
  "rice": 1866,
  "rain": 1867,
  " water": 1868,
  "same": 1869,
  "0.": 1870,
  "y in": 1871,
  " Ra": 1872,
  " hig": 1873,
  "valu": 1874,
  "because ": 1875,
  " lot": 1876,
  "being ": 1877,
  "hank": 1878,
  "nother": 1879,
  " going": 1880,
  " should ": 1881,
  "pert": 1882,
  "date": 1883,
  "uccess": 1884,
  "can be": 1885,
  "n is": 1886,
  " last ": 1887,
  "fact": 1888,
  "blic": 1889,
  "tinu": 1890,
  "e. A": 1891,
  " project": 1892,
  "d of": 1893,
  "hree": 1894,
  "es are": 1895,
  " today": 1896,
  ", a ": 1897,
  " few": 1898,
  "ion to": 1899,
  "house": 1900,
  "What": 1901,
  " adv": 1902,
  "ype": 1903,
  "9 ": 1904,
  "really": 1905,
  "dust": 1906,
  "e best": 1907,
  "tice": 1908,
  "pecial": 1909,
  " chang": 1910,
  " Cl": 1911,
  "call": 1912,
  " treat": 1913,
  "E ": 1914,
  "she ": 1915,
  "tion, ": 1916,
  "s have": 1917,
  "hoto": 1918,
  "e on": 1919,
  "Fe": 1920,
  "educ": 1921,
  "mer ": 1922,
  "has been": 1923,
  " still": 1924,
  "T ": 1925,
  "d that": 1926,
  "line ": 1927,
  "ently ": 1928,
  "duce": 1929,
  " spe": 1930,
  "and a ": 1931,
  ".com": 1932,
  "olut": 1933,
  " state": 1934,
  "aining": 1935,
  "lack": 1936,
  "& ": 1937,
  "game": 1938,
  "ign ": 1939,
  "every ": 1940,
  "different ": 1941,
  "keep": 1942,
  "e, the": 1943,
  "ract": 1944,
  " hel": 1945,
  "result": 1946,
  "stat": 1947,
  "ache": 1948,
  "tion and": 1949,
  "cate": 1950,
  "blem": 1951,
  " How": 1952,
  "oces": 1953,
  "issu": 1954,
  "ing,": 1955,
  "cost": 1956,
  " available": 1957,
  ", B": 1958,
  "ctions": 1959,
  " net": 1960,
  "still ": 1961,
  "eel ": 1962,
  "fess": 1963,
  "trol": 1964,
  " school": 1965,
  " wit": 1966,
  "t on": 1967,
  "ger ": 1968,
  "ssue": 1969,
  "off ": 1970,
  "s can ": 1971,
  "rist": 1972,
  " you have ": 1973,
  "joy": 1974,
  "ader": 1975,
  "top ": 1976,
  "1.": 1977,
  "ield": 1978,
  "case": 1979,
  " then ": 1980,
  "inal": 1981,
  "full": 1982,
  " appro": 1983,
  "). ": 1984,
  "arge": 1985,
  " me ": 1986,
  "ural": 1987,
  "t be": 1988,
  "the in": 1989,
  ".\nH": 1990,
  ". If": 1991,
  "atch": 1992,
  "ithout": 1993,
  " fea": 1994,
  "dren": 1995,
  "g.": 1996,
  "ail ": 1997,
  " if you ": 1998,
  "prof": 1999,
  "ation of": 2000,
  "...": 2001,
  "air ": 2002,
  " class": 2003,
  "tch ": 2004,
  "\u2019 ": 2005,
  " complet": 2006,
  "health": 2007,
  "ased": 2008,
  "have a": 2009,
  "ctiv": 2010,
  "ext ": 2011,
  "servic": 2012,
  " the world": 2013,
  " power": 2014,
  "respon": 2015,
  " take ": 2016,
  "family": 2017,
  "lent": 2018,
  " around ": 2019,
  "ise ": 2020,
  "lution": 2021,
  "you can ": 2022,
  "epen": 2023,
  "nner": 2024,
  "face": 2025,
  "right ": 2026,
  "interest": 2027,
  "ican": 2028,
  "*": 2029,
  " problem": 2030,
  " som": 2031,
  "information ": 2032,
  "proces": 2033,
  "beauti": 2034,
  " desig": 2035,
  "person": 2036,
  "ments": 2037,
  "ham": 2038,
  "ners": 2039,
  "oard": 2040,
  "dl": 2041,
  " success": 2042,
  "must": 2043,
  "earch ": 2044,
  " level": 2045,
  " cal": 2046,
  "grow": 2047,
  "think ": 2048,
  "better": 2049,
  "urrent": 2050,
  " continu": 2051,
  "urch": 2052,
  "ER": 2053,
  "\u2019re": 2054,
  " parti": 2055,
  "cult": 2056,
  "ed for": 2057,
  "with the": 2058,
  "lease ": 2059,
  " law": 2060,
  "ocal": 2061,
  "proper": 2062,
  "ayer": 2063,
  "national": 2064,
  "ition ": 2065,
  "the best": 2066,
  " as well": 2067,
  "cces": 2068,
  "invest": 2069,
  " En": 2070,
  "progra": 2071,
  "lion": 2072,
  " cer": 2073,
  "vel ": 2074,
  "t for ": 2075,
  " same ": 2076,
  "gree": 2077,
  "conf": 2078,
  "effe": 2079,
  "gest": 2080,
  "cally ": 2081,
  "it is ": 2082,
  "ole ": 2083,
  " Ju": 2084,
  "s were": 2085,
  " three": 2086,
  " light": 2087,
  "e or": 2088,
  "ittle ": 2089,
  "always": 2090,
  "200": 2091,
  "\nThis ": 2092,
  "s.\nThe": 2093,
  "hs": 2094,
  ", J": 2095,
  ", P": 2096,
  "mean": 2097,
  "aper": 2098,
  "[": 2099,
  "ourc": 2100,
  "want to ": 2101,
  " fee": 2102,
  "igh ": 2103,
  " point": 2104,
  "% ": 2105,
  "secu": 2106,
  "m,": 2107,
  " nam": 2108,
  " rev": 2109,
  "body": 2110,
  "tudent": 2111,
  "akes": 2112,
  "lic ": 2113,
  "h,": 2114,
  " including": 2115,
  "few ": 2116,
  " eas": 2117,
  "as the": 2118,
  "prot": 2119,
  "ember ": 2120,
  "iew ": 2121,
  "]": 2122,
  " group": 2123,
  " cap": 2124,
  "base": 2125,
  "mode": 2126,
  "ploy": 2127,
  "ed, ": 2128,
  " New": 2129,
  "ulti": 2130,
  "regi": 2131,
  "24": 2132,
  "tric": 2133,
  "nger": 2134,
  " Ex": 2135,
  "aid ": 2136,
  " met": 2137,
  " and a": 2138,
  "s is": 2139,
  " it\u2019s ": 2140,
  "out the ": 2141,
  "elf ": 2142,
  " both ": 2143,
  "hip ": 2144,
  "a,": 2145,
  "hat is": 2146,
  "within": 2147,
  " without": 2148,
  ".S": 2149,
  " Fe": 2150,
  "s like": 2151,
  "page": 2152,
  "little": 2153,
  "and in": 2154,
  "2.": 2155,
  "city": 2156,
  " del": 2157,
  "ts to ": 2158,
  " sig": 2159,
  "need to ": 2160,
  "e re": 2161,
  "estion": 2162,
  ", or": 2163,
  " the a": 2164,
  ". It ": 2165,
  "vil": 2166,
  "s. S": 2167,
  " love ": 2168,
  "velo": 2169,
  "lder": 2170,
  " the most ": 2171,
  "road": 2172,
  "I have": 2173,
  "Tu": 2174,
  "ls, ": 2175,
  "ncer": 2176,
  "ossi": 2177,
  "o,": 2178,
  " small": 2179,
  "outh": 2180,
  "ley": 2181,
  "e was ": 2182,
  ". They": 2183,
  "ight ": 2184,
  "orit": 2185,
  "poin": 2186,
  ".\n\u201c": 2187,
  " using": 2188,
  "\u2019re ": 2189,
  " job": 2190,
  "l.": 2191,
  "gene": 2192,
  " 12": 2193,
  "ches": 2194,
  " Ga": 2195,
  "tting ": 2196,
  " little ": 2197,
  " look ": 2198,
  "table ": 2199,
  ".\nF": 2200,
  "pace": 2201,
  "public": 2202,
  "es that ": 2203,
  " include": 2204,
  " made ": 2205,
  "ienc": 2206,
  " typ": 2207,
  ", D": 2208,
  "things": 2209,
  "But ": 2210,
  " issue": 2211,
  "ions, ": 2212,
  " opt": 2213,
  "+": 2214,
  "s.\nA": 2215,
  "ja": 2216,
  "next": 2217,
  "at a": 2218,
  "online": 2219,
  "lication": 2220,
  " .": 2221,
  "ization": 2222,
  "ted in": 2223,
  " dow": 2224,
  "zing": 2225,
  "truc": 2226,
  "tche": 2227,
  "redi": 2228,
  "ed on ": 2229,
  "ds, ": 2230,
  "atur": 2231,
  "re a": 2232,
  "That": 2233,
  "rong": 2234,
  "type": 2235,
  "used": 2236,
  "stud": 2237,
  ". Th": 2238,
  " far": 2239,
  " the first": 2240,
  " let": 2241,
  "nding ": 2242,
  "name": 2243,
  " inf": 2244,
  "res ": 2245,
  "efer": 2246,
  "tail": 2247,
  "nivers": 2248,
  "urce": 2249,
  "New ": 2250,
  " build": 2251,
  "My": 2252,
  "rite": 2253,
  ",000": 2254,
  "food": 2255,
  "lose": 2256,
  ", I ": 2257,
  "of your ": 2258,
  "grap": 2259,
  "word": 2260,
  "With": 2261,
  "usic": 2262,
  " ser": 2263,
  "illion": 2264,
  "course": 2265,
  " another": 2266,
  ", N": 2267,
  "ity of": 2268,
  "idea": 2269,
  " thi": 2270,
  " website": 2271,
  " art": 2272,
  "nge ": 2273,
  "second": 2274,
  "to get": 2275,
  " must ": 2276,
  " go ": 2277,
  "children": 2278,
  " dra": 2279,
  "fect": 2280,
  " on a ": 2281,
  "report": 2282,
  "cell": 2283,
  "y are ": 2284,
  "gether": 2285,
  "mail": 2286,
  "s an": 2287,
  "something": 2288,
  "atic": 2289,
  "#": 2290,
  "fice": 2291,
  " ver": 2292,
  "rica": 2293,
  "munity": 2294,
  "all the ": 2295,
  ".\nIn": 2296,
  "hite": 2297,
  "as well ": 2298,
  "ideo": 2299,
  " ter": 2300,
  "tors": 2301,
  "e, a": 2302,
  "ining ": 2303,
  "sist": 2304,
  " gro": 2305,
  "titu": 2306,
  " try": 2307,
  "-t": 2308,
  ".\nThis": 2309,
  " US": 2310,
  "days": 2311,
  ".\n\"": 2312,
  "isit": 2313,
  "term": 2314,
  "sic ": 2315,
  "m.": 2316,
  "ped ": 2317,
  "esti": 2318,
  " allow": 2319,
  "elow": 2320,
  "es the": 2321,
  "manu": 2322,
  "naly": 2323,
  "bri": 2324,
  "hone": 2325,
  "oom ": 2326,
  "ense": 2327,
  "edia": 2328,
  "ially ": 2329,
  "ON": 2330,
  " want to": 2331,
  " found": 2332,
  " need ": 2333,
  " Sp": 2334,
  ", T": 2335,
  " am ": 2336,
  " current": 2337,
  ".\nThis ": 2338,
  " long ": 2339,
  "worl": 2340,
  "consider": 2341,
  "shop": 2342,
  " price": 2343,
  "found ": 2344,
  "yn": 2345,
  "lock": 2346,
  "pons": 2347,
  ", E": 2348,
  "roug": 2349,
  " put": 2350,
  "des ": 2351,
  "feel": 2352,
  "rang": 2353,
  "ular": 2354,
  "reak": 2355,
  "oble": 2356,
  "it\u2019s": 2357,
  "webs": 2358,
  " han": 2359,
  "lead": 2360,
  "econ": 2361,
  "docu": 2362,
  "making": 2363,
  " sw": 2364,
  "cle ": 2365,
  "presen": 2366,
  "AR": 2367,
  "ero": 2368,
  "sity": 2369,
  "imes": 2370,
  "yone": 2371,
  "sition": 2372,
  "never ": 2373,
  " might": 2374,
  "brea": 2375,
  " the same ": 2376,
  "rive": 2377,
  "be a": 2378,
  "bers": 2379,
  " need to": 2380,
  "stri": 2381,
  " special": 2382,
  "four": 2383,
  " big": 2384,
  " looking": 2385,
  " photo": 2386,
  "hour": 2387,
  "money": 2388,
  "ives": 2389,
  "P ": 2390,
  " mea": 2391,
  "move": 2392,
  " flo": 2393,
  "sess": 2394,
  "ior ": 2395,
  "oes ": 2396,
  "came": 2397,
  "access": 2398,
  "develo": 2399,
  " 15": 2400,
  "lled": 2401,
  "e are ": 2402,
  "d by the": 2403,
  "together": 2404,
  "s at": 2405,
  "al and": 2406,
  "tact": 2407,
  "vious": 2408,
  "source": 2409,
  "ooking ": 2410,
  "ited": 2411,
  "rade": 2412,
  "ission": 2413,
  "AT": 2414,
  " cover": 2415,
  " the best ": 2416,
  "ream": 2417,
  "sional": 2418,
  "' ": 2419,
  "quip": 2420,
  "dres": 2421,
  "ortant": 2422,
  "kill": 2423,
  "itie": 2424,
  " house": 2425,
  " war": 2426,
  " has been ": 2427,
  "ses ": 2428,
  "mark": 2429,
  "divi": 2430,
  "tral": 2431,
  "oor ": 2432,
  "gle ": 2433,
  "card": 2434,
  "comple": 2435,
  " profess": 2436,
  "I am": 2437,
  "under ": 2438,
  "\u2019ve ": 2439,
  ", G": 2440,
  ".\nN": 2441,
  ", we": 2442,
  "a.": 2443,
  "le, ": 2444,
  "cert": 2445,
  "mers": 2446,
  "ages": 2447,
  ", in": 2448,
  "don\u2019t": 2449,
  " learn": 2450,
  "prop": 2451,
  "ale ": 2452,
  " tri": 2453,
  "-b": 2454,
  "tical ": 2455,
  " customer": 2456,
  "lement": 2457,
  " present": 2458,
  "ieve": 2459,
  "alle": 2460,
  "ves ": 2461,
  "easy": 2462,
  ".\nL": 2463,
  "ock ": 2464,
  "rious ": 2465,
  "hough ": 2466,
  " eng": 2467,
  "pose": 2468,
  "ribu": 2469,
  " give ": 2470,
  "moun": 2471,
  "eeds": 2472,
  " control": 2473,
  " student": 2474,
  "int ": 2475,
  "enjoy": 2476,
  ". A ": 2477,
  "uper": 2478,
  "visi": 2479,
  "ized": 2480,
  "uro": 2481,
  "wid": 2482,
  "itor": 2483,
  "anti": 2484,
  " ste": 2485,
  " never": 2486,
  "iving ": 2487,
  "ion.": 2488,
  "\nWe ": 2489,
  "ted by": 2490,
  " marke": 2491,
  "early ": 2492,
  "IS": 2493,
  "pack": 2494,
  "ains": 2495,
  "contin": 2496,
  "s. T": 2497,
  " elect": 2498,
  " away": 2499,
  "ean ": 2500,
  " mor": 2501,
  "erve": 2502,
  "s.\nI": 2503,
  " important": 2504,
  "prob": 2505,
  "es a": 2506,
  "proble": 2507,
  "lean": 2508,
  " high ": 2509,
  " possi": 2510,
  ". In ": 2511,
  " run": 2512,
  "nces": 2513,
  "color": 2514,
  "compan": 2515,
  " large": 2516,
  "itic": 2517,
  "plat": 2518,
  "40": 2519,
  "mind": 2520,
  "OR": 2521,
  "stance": 2522,
  "ward ": 2523,
  "iate": 2524,
  "R ": 2525,
  " cours": 2526,
  "fic ": 2527,
  "ivid": 2528,
  " air": 2529,
  "don\u2019t ": 2530,
  "forma": 2531,
  "ather ": 2532,
  "ife ": 2533,
  "ed in the ": 2534,
  "lowing": 2535,
  ", L": 2536,
  "oice": 2537,
  "ney ": 2538,
  " as the ": 2539,
  "rcha": 2540,
  "question": 2541,
  "ns of ": 2542,
  "deal": 2543,
  "dom": 2544,
  "prom": 2545,
  "mess": 2546,
  "istr": 2547,
  "sident": 2548,
  " local": 2549,
  "board": 2550,
  "door": 2551,
  " deter": 2552,
  "RE": 2553,
  " sim": 2554,
  "shed": 2555,
  "care ": 2556,
  " below": 2557,
  " certain": 2558,
  "eal ": 2559,
  "oad ": 2560,
  "fully": 2561,
  " keep ": 2562,
  ".\nR": 2563,
  "Va": 2564,
  "able to ": 2565,
  "conn": 2566,
  " God": 2567,
  "nology": 2568,
  " Ta": 2569,
  "proc": 2570,
  "ton ": 2571,
  "making ": 2572,
  "set ": 2573,
  "short": 2574,
  "stra": 2575,
  "one of": 2576,
  "file": 2577,
  " working": 2578,
  "poli": 2579,
  "iona": 2580,
  "ways ": 2581,
  " have been": 2582,
  "med ": 2583,
  " next ": 2584,
  "quir": 2585,
  "ST": 2586,
  "employ": 2587,
  "lay ": 2588,
  "rge ": 2589,
  "meet": 2590,
  "edge": 2591,
  "of our": 2592,
  " able to": 2593,
  "zed ": 2594,
  "tend": 2595,
  "2018": 2596,
  " old": 2597,
  "eck ": 2598,
  "m to": 2599,
  "rance": 2600,
  " pop": 2601,
  "pain": 2602,
  "ly, ": 2603,
  "ibut": 2604,
  "umbe": 2605,
  " sea": 2606,
  "odel": 2607,
  "deci": 2608,
  ".\nG": 2609,
  "tween ": 2610,
  "k and ": 2611,
  "for your": 2612,
  "ler ": 2613,
  "possible": 2614,
  " key": 2615,
  " home ": 2616,
  " Ci": 2617,
  " got": 2618,
  "clos": 2619,
  "er, ": 2620,
  "nch ": 2621,
  "link": 2622,
  "mic ": 2623,
  "ooks": 2624,
  "ify": 2625,
  "Qu": 2626,
  "gine": 2627,
  "lant": 2628,
  "review": 2629,
  "s it": 2630,
  "soci": 2631,
  "phot": 2632,
  "Ve": 2633,
  "ring the": 2634,
  "ntil": 2635,
  "ften": 2636,
  "ground": 2637,
  "ES": 2638,
  "ential": 2639,
  "value": 2640,
  "ends": 2641,
  "create": 2642,
  ") and": 2643,
  ".\nWe": 2644,
  "another ": 2645,
  " etc": 2646,
  "seve": 2647,
  " business ": 2648,
  "east": 2649,
  " Ea": 2650,
  "resident": 2651,
  "solution": 2652,
  "safe": 2653,
  " here ": 2654,
  " yea": 2655,
  "three ": 2656,
  " fre": 2657,
  " Wo": 2658,
  " order": 2659,
  "applic": 2660,
  "option": 2661,
  " of your": 2662,
  "too ": 2663,
  "leas": 2664,
  "ths": 2665,
  "ts are": 2666,
  ", R": 2667,
  "tually": 2668,
  " act": 2669,
  " var": 2670,
  " used ": 2671,
  " year ": 2672,
  "ined": 2673,
  "ball": 2674,
  " loc": 2675,
  "llen": 2676,
  " check": 2677,
  "ditional": 2678,
  " emp": 2679,
  "small ": 2680,
  "wonder": 2681,
  "direct": 2682,
  "temp": 2683,
  "between ": 2684,
  " doe": 2685,
  " working ": 2686,
  " video": 2687,
  "recom": 2688,
  " Si": 2689,
  " 200": 2690,
  "full ": 2691,
  "is not": 2692,
  "lete": 2693,
  " a lot": 2694,
  "init": 2695,
  "60": 2696,
  "es in ": 2697,
  " equip": 2698,
  " offic": 2699,
  "AL": 2700,
  " Dr": 2701,
  "coming": 2702,
  "irec": 2703,
  "ght ": 2704,
  "orga": 2705,
  "ware ": 2706,
  " vis": 2707,
  "\u00e9": 2708,
  "mini": 2709,
  " gener": 2710,
  "hed ": 2711,
  "exper": 2712,
  "s who ": 2713,
  " data ": 2714,
  " family ": 2715,
  "to your ": 2716,
  " mod": 2717,
  "ility ": 2718,
  "cour": 2719,
  " low": 2720,
  "echn": 2721,
  "ired": 2722,
  "o.": 2723,
  "ston": 2724,
  "requ": 2725,
  "eans": 2726,
  " Ac": 2727,
  "bur": 2728,
  " hou": 2729,
  "y be": 2730,
  " Cr": 2731,
  " making ": 2732,
  " feel ": 2733,
  "ller": 2734,
  "essional": 2735,
  "chool ": 2736,
  "teri": 2737,
  "ature ": 2738,
  "abil": 2739,
  "ublic ": 2740,
  " Inter": 2741,
  " have a ": 2742,
  "tary": 2743,
  "eam ": 2744,
  "edit": 2745,
  "enti": 2746,
  "ndow": 2747,
  "tual": 2748,
  ".\nI ": 2749,
  ", K": 2750,
  "o in": 2751,
  " quality": 2752,
  "itional ": 2753,
  "sonal ": 2754,
  " visit": 2755,
  "l of": 2756,
  "sis ": 2757,
  " ref": 2758,
  " a new": 2759,
  " fai": 2760,
  "of this ": 2761,
  "orth": 2762,
  "AS": 2763,
  "hold": 2764,
  "kind": 2765,
  "ed by the ": 2766,
  "sens": 2767,
  "nish": 2768,
  " numbe": 2769,
  " why": 2770,
  "hole": 2771,
  "step": 2772,
  " a few": 2773,
  "21": 2774,
  "ience ": 2775,
  "000 ": 2776,
  "tabl": 2777,
  "ion in": 2778,
  "peci": 2779,
  "reason": 2780,
  "M ": 2781,
  "dual": 2782,
  "alth ": 2783,
  "iation": 2784,
  " against": 2785,
  "EN": 2786,
  ", it": 2787,
  "tall": 2788,
  "perf": 2789,
  "zo": 2790,
  "a few ": 2791,
  ", H": 2792,
  " understand": 2793,
  "3.": 2794,
  "always ": 2795,
  "eet ": 2796,
  " night": 2797,
  " tea": 2798,
  " community": 2799,
  " manag": 2800,
  " pol": 2801,
  " Or": 2802,
  " sin": 2803,
  " qui": 2804,
  "user": 2805,
  "IT": 2806,
  "ty and": 2807,
  " free ": 2808,
  "uring ": 2809,
  "als ": 2810,
  " sure ": 2811,
  "lowing ": 2812,
  "to see": 2813,
  "ux": 2814,
  "nced": 2815,
  "How ": 2816,
  "building": 2817,
  "colo": 2818,
  "rack": 2819,
  "past": 2820,
  " Tu": 2821,
  "easi": 2822,
  "come ": 2823,
  " until": 2824,
  "),": 2825,
  ", so ": 2826,
  "did ": 2827,
  " ear": 2828,
  "mate": 2829,
  " require": 2830,
  "nic ": 2831,
  "nded": 2832,
  "tural ": 2833,
  "nigh": 2834,
  " was a": 2835,
  "hought": 2836,
  "ls and": 2837,
  " mis": 2838,
  "camp": 2839,
  "sche": 2840,
  "O ": 2841,
  " pot": 2842,
  "y is": 2843,
  "ors ": 2844,
  " perfect": 2845,
  "80": 2846,
  "lter": 2847,
  "ected ": 2848,
  " Va": 2849,
  "stre": 2850,
  " ask": 2851,
  "th, ": 2852,
  "thor": 2853,
  "wide": 2854,
  " non": 2855,
  " is not ": 2856,
  "ier ": 2857,
  "ket ": 2858,
  "wnload": 2859,
  " 30": 2860,
  "provide ": 2861,
  "tore": 2862,
  "e.\nThe": 2863,
  "eek ": 2864,
  " hot": 2865,
  " country": 2866,
  "tyle": 2867,
  " environ": 2868,
  "research": 2869,
  "wood": 2870,
  " since": 2871,
  "\u2019ll ": 2872,
  "coming ": 2873,
  "since ": 2874,
  "sn\u2019t": 2875,
  "ions and": 2876,
  "ion is": 2877,
  "hris": 2878,
  "uman": 2879,
  "water ": 2880,
  "til ": 2881,
  "L ": 2882,
  "le and": 2883,
  "\u2019ve": 2884,
  "lick": 2885,
  " beg": 2886,
  "local ": 2887,
  "es for": 2888,
  "SA": 2889,
  "about the ": 2890,
  "appe": 2891,
  "regu": 2892,
  " dev": 2893,
  " bro": 2894,
  "alm": 2895,
  "ing your": 2896,
  "-f": 2897,
  " often": 2898,
  "ere is": 2899,
  "dard": 2900,
  "e. S": 2901,
  "season": 2902,
  "box": 2903,
  "AC": 2904,
  "minu": 2905,
  "size": 2906,
  "e.\nA": 2907,
  "nally ": 2908,
  "m and ": 2909,
  "terial": 2910,
  " pur": 2911,
  " analy": 2912,
  "hether": 2913,
  " wee": 2914,
  " hol": 2915,
  "pportu": 2916,
  "in your ": 2917,
  "reci": 2918,
  "organ": 2919,
  "e.\nI": 2920,
  "ing that": 2921,
  "having": 2922,
  "ds of ": 2923,
  "nanc": 2924,
  "done": 2925,
  "band": 2926,
  "nate": 2927,
  "zing ": 2928,
  " 11": 2929,
  "s will": 2930,
  "rint": 2931,
  "buy": 2932,
  "fully ": 2933,
  "100": 2934,
  "left": 2935,
  " enter": 2936,
  " sai": 2937,
  " multi": 2938,
  "ds and": 2939,
  "recent": 2940,
  " you to ": 2941,
  "into the": 2942,
  "position": 2943,
  ". And ": 2944,
  " ident": 2945,
  " Gu": 2946,
  " image": 2947,
  "s. W": 2948,
  " thought": 2949,
  " space": 2950,
  "online ": 2951,
  "Christ": 2952,
  " sup": 2953,
  " better ": 2954,
  "pend": 2955,
  ", W": 2956,
  "manage": 2957,
  " break": 2958,
  "99": 2959,
  "popu": 2960,
  "-1": 2961,
  "record": 2962,
  "mes ": 2963,
  " to a ": 2964,
  "dustry": 2965,
  "-l": 2966,
  "town": 2967,
  " account": 2968,
  "mill": 2969,
  "using ": 2970,
  "ront": 2971,
  "Coun": 2972,
  "ands": 2973,
  "oach": 2974,
  "ready ": 2975,
  "ably": 2976,
  "an a": 2977,
  "me to ": 2978,
  " projec": 2979,
  "everal": 2980,
  " for your ": 2981,
  "ides": 2982,
  "continue": 2983,
  "ched": 2984,
  " tal": 2985,
  "s as": 2986,
  " contact": 2987,
  "suppor": 2988,
  "stal": 2989,
  "ncy ": 2990,
  "-o": 2991,
  "nce of": 2992,
  " close": 2993,
  " music": 2994,
  "follow": 2995,
  "commun": 2996,
  " activ": 2997,
  "pani": 2998,
  "trad": 2999,
  "iversity": 3000,
  "ably ": 3001,
  "ass ": 3002,
  "--": 3003,
  "ed that ": 3004,
  "seem": 3005,
  "insu": 3006,
  "pen ": 3007,
  "ically": 3008,
  "accoun": 3009,
  "leng": 3010,
  " an in": 3011,
  " Au": 3012,
  "epar": 3013,
  ". (": 3014,
  "vision": 3015,
  "tect": 3016,
  "tool": 3017,
  "gent": 3018,
  ">": 3019,
  "it was": 3020,
  "nning ": 3021,
  "across": 3022,
  " gui": 3023,
  "ieve ": 3024,
  "requir": 3025,
  "nown": 3026,
  "ans ": 3027,
  "-p": 3028,
  " one of the ": 3029,
  " pas": 3030,
  "\u2019ll": 3031,
  " fit": 3032,
  "dents": 3033,
  " contr": 3034,
  "conc": 3035,
  "econd ": 3036,
  "is, ": 3037,
  "hear": 3038,
  " mov": 3039,
  "rs are": 3040,
  "rise": 3041,
  "happen": 3042,
  " in your": 3043,
  "available ": 3044,
  "say ": 3045,
  " tur": 3046,
  "rry ": 3047,
  "until ": 3048,
  " dea": 3049,
  "effect": 3050,
  "edic": 3051,
  "prin": 3052,
  "as well as": 3053,
  "0%": 3054,
  "ity to": 3055,
  " Ve": 3056,
  "22": 3057,
  "company ": 3058,
  "@": 3059,
  " might ": 3060,
  " ann": 3061,
  " acces": 3062,
  " cus": 3063,
  "-a": 3064,
  "etic": 3065,
  "I was ": 3066,
  "place ": 3067,
  "in this ": 3068,
  "based ": 3069,
  "pens": 3070,
  " be a ": 3071,
  "is to ": 3072,
  " application": 3073,
  " cri": 3074,
  "cros": 3075,
  "a new ": 3076,
  " Ka": 3077,
  "put ": 3078,
  "fied": 3079,
  "service ": 3080,
  "ists": 3081,
  "N ": 3082,
  "pair": 3083,
  "s th": 3084,
  "pati": 3085,
  " individ": 3086,
  "personal": 3087,
  "ession": 3088,
  "tell": 3089,
  "s to the": 3090,
  "hese ": 3091,
  ". As": 3092,
  "aving ": 3093,
  " det": 3094,
  " the s": 3095,
  "ed from ": 3096,
  "-to": 3097,
  "olic": 3098,
  "ing on": 3099,
  "hl": 3100,
  "ing of": 3101,
  "crip": 3102,
  "merican": 3103,
  " come ": 3104,
  "agen": 3105,
  "er and": 3106,
  "professional": 3107,
  " that is": 3108,
  "hare": 3109,
  " you will ": 3110,
  "asse": 3111,
  "Your": 3112,
  "up to ": 3113,
  " the S": 3114,
  "e th": 3115,
  "during": 3116,
  "rning ": 3117,
  "ready": 3118,
  "fini": 3119,
  "05": 3120,
  "s by": 3121,
  "Some": 3122,
  "-c": 3123,
  "foot": 3124,
  " for you": 3125,
  "stit": 3126,
  ", F": 3127,
  "please": 3128,
  "ting the": 3129,
  "offer ": 3130,
  "fast": 3131,
  "ishe": 3132,
  " speci": 3133,
  " along": 3134,
  "ffective": 3135,
  ". So": 3136,
  "ppy": 3137,
  "cture ": 3138,
  " feature": 3139,
  ", so": 3140,
  "IC": 3141,
  "4.": 3142,
  " does ": 3143,
  " model": 3144,
  "\u2019m ": 3145,
  "perienc": 3146,
  " fav": 3147,
  " Ri": 3148,
  "oved": 3149,
  "'re": 3150,
  "enough": 3151,
  "TH": 3152,
  "vari": 3153,
  "-d": 3154,
  "cono": 3155,
  "strate": 3156,
  " opportu": 3157,
  "near": 3158,
  "rating": 3159,
  "l to": 3160,
  "s on the": 3161,
  "onic": 3162,
  "ED": 3163,
  "ty, ": 3164,
  "arty": 3165,
  "hope": 3166,
  "s, but": 3167,
  "tudents": 3168,
  "Ke": 3169,
  "dividual": 3170,
  "ation and ": 3171,
  "tist": 3172,
  " Of": 3173,
  " ens": 3174,
  "others": 3175,
  "e de": 3176,
  "nent": 3177,
  " Eng": 3178,
  "deli": 3179,
  "industry": 3180,
  " El": 3181,
  " Our": 3182,
  " My": 3183,
  "ails": 3184,
  "ly to ": 3185,
  "forc": 3186,
  "social": 3187,
  " 24": 3188,
  "larg": 3189,
  "a and ": 3190,
  "\u2019m": 3191,
  " in this": 3192,
  " gra": 3193,
  " wha": 3194,
  "e an": 3195,
  ", with": 3196,
  " 14": 3197,
  "ies and ": 3198,
  "may be": 3199,
  "zi": 3200,
  "h.": 3201,
  " Res": 3202,
  "office": 3203,
  "atures": 3204,
  "orts": 3205,
  "dation": 3206,
  "experienc": 3207,
  " example": 3208,
  "vity": 3209,
  "pper": 3210,
  "stop": 3211,
  "material": 3212,
  "-in": 3213,
  "rget": 3214,
  " story": 3215,
  "vation": 3216,
  "return": 3217,
  "ements": 3218,
  "was a ": 3219,
  " 25": 3220,
  "arning": 3221,
  " needs": 3222,
  " million": 3223,
  " Man": 3224,
  "ject ": 3225,
  " personal ": 3226,
  "already": 3227,
  "unde": 3228,
  "him ": 3229,
  " wal": 3230,
  " Ap": 3231,
  "mine": 3232,
  " wel": 3233,
  "quality ": 3234,
  " dep": 3235,
  "lege": 3236,
  " about the": 3237,
  " Je": 3238,
  " such as": 3239,
  " Sc": 3240,
  "half": 3241,
  "often ": 3242,
  " range": 3243,
  " content": 3244,
  "hine": 3245,
  ". But": 3246,
  "verage": 3247,
  "23": 3248,
  "hat\u2019s ": 3249,
  " more than": 3250,
  "cially": 3251,
  " gam": 3252,
  "blog": 3253,
  " of our ": 3254,
  " clean": 3255,
  "technology": 3256,
  " propert": 3257,
  " Du": 3258,
  " saf": 3259,
  " into the ": 3260,
  "a great ": 3261,
  "fication": 3262,
  " care ": 3263,
  "text": 3264,
  " works": 3265,
  "appr": 3266,
  "mend": 3267,
  "peti": 3268,
  " show ": 3269,
  "race": 3270,
  "tics": 3271,
  " ill": 3272,
  " bring": 3273,
  " number of": 3274,
  "let ": 3275,
  "limi": 3276,
  ". For ": 3277,
  "SS": 3278,
  "Us": 3279,
  "thod": 3280,
  "HE": 3281,
  "reet": 3282,
  " Cha": 3283,
  "rigi": 3284,
  " second ": 3285,
  "such as ": 3286,
  " looking ": 3287,
  " of this": 3288,
  "firm": 3289,
  ". But ": 3290,
  "tten": 3291,
  " Univers": 3292,
  "nagement": 3293,
  "ation,": 3294,
  "ww": 3295,
  " bit": 3296,
  " fri": 3297,
  "95": 3298,
  "2017": 3299,
  " several": 3300,
  "instru": 3301,
  "pric": 3302,
  " Our ": 3303,
  "Fu": 3304,
  "mong": 3305,
  "s. B": 3306,
  "nefit": 3307,
  ").": 3308,
  "5.": 3309,
  "embers": 3310,
  " Mon": 3311,
  "wr": 3312,
  "unch": 3313,
  "90": 3314,
  "cated ": 3315,
  "cove": 3316,
  "opport": 3317,
  "ly a": 3318,
  "icro": 3319,
  " said ": 3320,
  "lows": 3321,
  "atis": 3322,
  "04": 3323,
  " share": 3324,
  "along ": 3325,
  "cipa": 3326,
  ".\nIf": 3327,
  "item": 3328,
  "auto": 3329,
  "mand": 3330,
  "rary": 3331,
  "grad": 3332,
  "crease": 3333,
  "ford": 3334,
  "It is ": 3335,
  "uation": 3336,
  "ted with": 3337,
  "s, p": 3338,
  " is an": 3339,
  " team ": 3340,
  "standard": 3341,
  "ment of ": 3342,
  "er to ": 3343,
  "mal ": 3344,
  "tone": 3345,
  "ding to ": 3346,
  " State": 3347,
  "nes ": 3348,
  "story ": 3349,
  "Pres": 3350,
  "parent": 3351,
  "tax": 3352,
  "ption ": 3353,
  " sec": 3354,
  "eld ": 3355,
  "ccor": 3356,
  "tick": 3357,
  " respons": 3358,
  "either": 3359,
  " mad": 3360,
  "actice": 3361,
  "nction": 3362,
  "den ": 3363,
  " may be ": 3364,
  "rmance": 3365,
  "formance": 3366,
  "unic": 3367,
  "future": 3368,
  "tm": 3369,
  " study": 3370,
  "nerg": 3371,
  "ody ": 3372,
  "'re ": 3373,
  "once": 3374,
  " you\u2019re": 3375,
  " to do": 3376,
  "actic": 3377,
  ".\nA ": 3378,
  " exe": 3379,
  " least": 3380,
  " eno": 3381,
  "uary": 3382,
  "expect": 3383,
  " wid": 3384,
  "important ": 3385,
  " the t": 3386,
  " beh": 3387,
  "several ": 3388,
  "e. T": 3389,
  "ms, ": 3390,
  "us, ": 3391,
  "ames": 3392,
  " However": 3393,
  "ung ": 3394,
  "que ": 3395,
  "hether ": 3396,
  "publ": 3397,
  "alk ": 3398,
  "red to": 3399,
  "'ve ": 3400,
  " cos": 3401,
  "=": 3402,
  " resul": 3403,
  " up to": 3404,
  "al, ": 3405,
  " mid": 3406,
  "is an ": 3407,
  "impl": 3408,
  "shar": 3409,
  "., ": 3410,
  " field": 3411,
  "Med": 3412,
  "techni": 3413,
  "nion": 3414,
  "eneral": 3415,
  "t or": 3416,
  "\u043e": 3417,
  " cut": 3418,
  "htt": 3419,
  "bove": 3420,
  " Bi": 3421,
  " blo": 3422,
  "ged ": 3423,
  "yers": 3424,
  " purch": 3425,
  "If you": 3426,
  "client": 3427,
  " mak": 3428,
  "minute": 3429,
  "merica": 3430,
  "2016": 3431,
  "ake a ": 3432,
  "70": 3433,
  "35": 3434,
  " the right": 3435,
  "ing with": 3436,
  "benefit": 3437,
  "stay": 3438,
  "addres": 3439,
  "ocial ": 3440,
  " brand": 3441,
  "\u2014 ": 3442,
  "large ": 3443,
  "\u0435": 3444,
  "muni": 3445,
  "number of ": 3446,
  "active": 3447,
  "unds": 3448,
  "perc": 3449,
  "y of the": 3450,
  "08": 3451,
  "f th": 3452,
  "ark ": 3453,
  "tead": 3454,
  "York": 3455,
  ".\nJ": 3456,
  "light ": 3457,
  "cuss": 3458,
  " cause": 3459,
  "tire": 3460,
  "ver,": 3461,
  "period": 3462,
  " means": 3463,
  " is to": 3464,
  "avel": 3465,
  "-e": 3466,
  "ranc": 3467,
  " a great": 3468,
  "rnet": 3469,
  " pat": 3470,
  " doing": 3471,
  "Sha": 3472,
  "tivi": 3473,
  "02": 3474,
  "more than ": 3475,
  "s.\nS": 3476,
  "owner": 3477,
  " life ": 3478,
  "t th": 3479,
  " system ": 3480,
  "hysi": 3481,
  "otic": 3482,
  " ess": 3483,
  "rown": 3484,
  "there are ": 3485,
  "strong": 3486,
  " Sun": 3487,
  "wards": 3488,
  " paper": 3489,
  " has a": 3490,
  "complete": 3491,
  "trip": 3492,
  "ments ": 3493,
  "ively ": 3494,
  "it's ": 3495,
  "ric ": 3496,
  " down ": 3497,
  "sale": 3498,
  " sum": 3499,
  "mix": 3500,
  "vate": 3501,
  "ool ": 3502,
  " public ": 3503,
  " effective": 3504,
  "mult": 3505,
  " Chris": 3506,
  "ival": 3507,
  ", they": 3508,
  "It\u2019s": 3509,
  "uk": 3510,
  "yr": 3511,
  "1,": 3512,
  "fter ": 3513,
  "services": 3514,
  ".\nYou": 3515,
  "ummer": 3516,
  "called": 3517,
  "ateg": 3518,
  "walk": 3519,
  "She ": 3520,
  ". He ": 3521,
  " solut": 3522,
  "elling": 3523,
  "become": 3524,
  "spen": 3525,
  "ilit": 3526,
  "e, but": 3527,
  "big ": 3528,
  " cam": 3529,
  "don't": 3530,
  "ency": 3531,
  "cter": 3532,
  "s they": 3533,
  "ograph": 3534,
  "we have ": 3535,
  " the A": 3536,
  "fron": 3537,
  " 13": 3538,
  " dia": 3539,
  "ctually ": 3540,
  " ove": 3541,
  "on your ": 3542,
  "! I": 3543,
  "eaning": 3544,
  "how to": 3545,
  "going ": 3546,
  "ants": 3547,
  " ago": 3548,
  "standing": 3549,
  "atural": 3550,
  "niti": 3551,
  "taking": 3552,
  "Cont": 3553,
  "known ": 3554,
  "rticle": 3555,
  "s for the ": 3556,
  "beautiful": 3557,
  "ko": 3558,
  "rity ": 3559,
  "iece": 3560,
  " har": 3561,
  "posi": 3562,
  " compani": 3563,
  "spac": 3564,
  "AM": 3565,
  " common": 3566,
  " imm": 3567,
  "amount": 3568,
  " appea": 3569,
  " ite": 3570,
  " bar": 3571,
  "2015": 3572,
  "omet": 3573,
  "have been ": 3574,
  "nts ": 3575,
  " sal": 3576,
  "re you": 3577,
  "atient": 3578,
  "ducation": 3579,
  "relation": 3580,
  "nsw": 3581,
  "why ": 3582,
  " Dis": 3583,
  ". When": 3584,
  " all the": 3585,
  "we are": 3586,
  " yet": 3587,
  "truction": 3588,
  "ished ": 3589,
  ". To": 3590,
  "ment of": 3591,
  "ials": 3592,
  "risk": 3593,
  " book ": 3594,
  "mental ": 3595,
  " clo": 3596,
  "-r": 3597,
  "they are": 3598,
  "ead ": 3599,
  " heart": 3600,
  "ills": 3601,
  "has a ": 3602,
  " Ru": 3603,
  "mart": 3604,
  "mitt": 3605,
  "cant": 3606,
  "m of": 3607,
  "'m": 3608,
  "resh": 3609,
  "ctors": 3610,
  " the new": 3611,
  " over the ": 3612,
  " condition": 3613,
  "lain": 3614,
  "rter": 3615,
  "ddress": 3616,
  "method": 3617,
  "acks": 3618,
  " cul": 3619,
  "it's": 3620,
  "zz": 3621,
  "volv": 3622,
  "sation": 3623,
  "remi": 3624,
  "gard": 3625,
  "ww.": 3626,
  "do not": 3627,
  "eive": 3628,
  "tivity": 3629,
  ",000 ": 3630,
  " way to ": 3631,
  " kid": 3632,
  "nsive ": 3633,
  "through the ": 3634,
  "unning": 3635,
  "player": 3636,
  "women": 3637,
  "nstall": 3638,
  "state ": 3639,
  " bee": 3640,
  "accom": 3641,
  " real ": 3642,
  "of their": 3643,
  "holi": 3644,
  "laim": 3645,
  "a good": 3646,
  " super": 3647,
  " conside": 3648,
  "tock": 3649,
  "wall": 3650,
  "including ": 3651,
  "Serv": 3652,
  "isting": 3653,
  "and re": 3654,
  "ustom": 3655,
  "s we": 3656,
  "health ": 3657,
  "lize": 3658,
  "mon ": 3659,
  "oman": 3660,
  " aff": 3661,
  " staff": 3662,
  "goal": 3663,
  "financ": 3664,
  "'m ": 3665,
  "don't ": 3666,
  "compet": 3667,
  " don": 3668,
  "iple": 3669,
  " American": 3670,
  "cade": 3671,
  "practice": 3672,
  " Ed": 3673,
  " occ": 3674,
  "rous": 3675,
  "and other ": 3676,
  "leader": 3677,
  "There are ": 3678,
  " Pi": 3679,
  "download": 3680,
  "vement": 3681,
  " human": 3682,
  " Ko": 3683,
  "cyc": 3684,
  "something ": 3685,
  "ly and": 3686,
  "pera": 3687,
  " email": 3688,
  "TE": 3689,
  ". And": 3690,
  " it was ": 3691,
  "itions": 3692,
  " whole": 3693,
  "out of": 3694,
  "you are ": 3695,
  "should be ": 3696,
  "lated ": 3697,
  " out of ": 3698,
  " vol": 3699,
  "training": 3700,
  " above": 3701,
  ". Be": 3702,
  "location": 3703,
  "says": 3704,
  "rance ": 3705,
  "CA": 3706,
  "2019": 3707,
  " you\u2019re ": 3708,
  "mply": 3709,
  "fill": 3710,
  "(s": 3711,
  "EC": 3712,
  "ceiv": 3713,
  " consu": 3714,
  "ntic": 3715,
  " direc": 3716,
  "itch": 3717,
  "anization": 3718,
  " wri": 3719,
  " actually ": 3720,
  "aken": 3721,
  "rpor": 3722,
  "simp": 3723,
  "and I ": 3724,
  " challen": 3725,
  "orld": 3726,
  " of th": 3727,
  "nary": 3728,
  "B ": 3729,
  "New York": 3730,
  "uld be": 3731,
  ", this": 3732,
  " nor": 3733,
  " Pu": 3734,
  " Mar": 3735,
  " Car": 3736,
  "e. W": 3737,
  " everything": 3738,
  " mater": 3739,
  " tre": 3740,
  "V ": 3741,
  " school ": 3742,
  " less ": 3743,
  "rian": 3744,
  "xist": 3745,
  "'ll ": 3746,
  " group ": 3747,
  "ing.": 3748,
  " film": 3749,
  "sual": 3750,
  "ouch": 3751,
  " performa": 3752,
  "row ": 3753,
  "would be": 3754,
  "addition": 3755,
  " goa": 3756,
  "45": 3757,
  " Ke": 3758,
  "expe": 3759,
  "level ": 3760,
  "o to": 3761,
  "anta": 3762,
  " Med": 3763,
  " spi": 3764,
  " Fri": 3765,
  "eeting": 3766,
  "given": 3767,
  " makes": 3768,
  "energy": 3769,
  "itive ": 3770,
  " they are ": 3771,
  "went": 3772,
  " Uni": 3773,
  "unit": 3774,
  "jor": 3775,
  "kn": 3776,
  " America": 3777,
  " believe": 3778,
  " 16": 3779,
  "the re": 3780,
  " One": 3781,
  "specially ": 3782,
  " Euro": 3783,
  "rney": 3784,
  "nect": 3785,
  "ded to": 3786,
  " the C": 3787,
  "tree": 3788,
  "uring the ": 3789,
  "pick": 3790,
  " econo": 3791,
  "work ": 3792,
  "host": 3793,
  "net ": 3794,
  " U.S": 3795,
  "ified ": 3796,
  " students": 3797,
  "ren ": 3798,
  " later": 3799,
  "uilt": 3800,
  "car ": 3801,
  "-2": 3802,
  "s. This ": 3803,
  "and to": 3804,
  "renc": 3805,
  "detail": 3806,
  " enough ": 3807,
  "are the ": 3808,
  "ured": 3809,
  "abor": 3810,
  "screen": 3811,
  " research ": 3812,
  "rated ": 3813,
  "rame": 3814,
  "ID": 3815,
  "es, and ": 3816,
  "Park": 3817,
  ". That": 3818,
  "dge ": 3819,
  " ide": 3820,
  "z ": 3821,
  "s. H": 3822,
  "over the": 3823,
  " Nor": 3824,
  " Fu": 3825,
  "oduction": 3826,
  "eather": 3827,
  "actually": 3828,
  "device": 3829,
  "arie": 3830,
  "03": 3831,
  " skill": 3832,
  "iste": 3833,
  "cular ": 3834,
  "dle ": 3835,
  "ision ": 3836,
  " performance": 3837,
  " eff": 3838,
  "opportun": 3839,
  "rror": 3840,
  "outs": 3841,
  "yer ": 3842,
  " should be": 3843,
  "ledge": 3844,
  " members": 3845,
  "rmal": 3846,
  "ry, ": 3847,
  " 10 ": 3848,
  "chen": 3849,
  "six": 3850,
  "specific": 3851,
  "pact": 3852,
  "'ll": 3853,
  "taking ": 3854,
  "LE": 3855,
  " gar": 3856,
  "s to be ": 3857,
  "support ": 3858,
  "mper": 3859,
  "websit": 3860,
  "agre": 3861,
  " South": 3862,
  "got ": 3863,
  "disa": 3864,
  " Chi": 3865,
  "bile": 3866,
  "olve": 3867,
  "if you": 3868,
  "years ": 3869,
  "world ": 3870,
  "stab": 3871,
  " coo": 3872,
  "eer ": 3873,
  " origi": 3874,
  "riting": 3875,
  " following": 3876,
  "ology ": 3877,
  "neral ": 3878,
  " Is": 3879,
  " wai": 3880,
  "increase": 3881,
  "NE": 3882,
  "sary": 3883,
  " design ": 3884,
  " loo": 3885,
  "ncou": 3886,
  "ity and ": 3887,
  " Mu": 3888,
  "single": 3889,
  "ternet": 3890,
  "weight": 3891,
  "talk": 3892,
  " whe": 3893,
  "concer": 3894,
  "puter": 3895,
  "lot of": 3896,
  "loye": 3897,
  "use of": 3898,
  "rol ": 3899,
  "going to": 3900,
  " live ": 3901,
  "urn ": 3902,
  " deb": 3903,
  "idence": 3904,
  "zon": 3905,
  " hos": 3906,
  "men ": 3907,
  " amoun": 3908,
  " hard ": 3909,
  " Can": 3910,
  " recei": 3911,
  " los": 3912,
  "eone": 3913,
  " gen": 3914,
  "t an": 3915,
  " a good ": 3916,
  "ised": 3917,
  " perso": 3918,
  "ficial": 3919,
  "ns are": 3920,
  "Comp": 3921,
  "select": 3922,
  "ales": 3923,
  "vert": 3924,
  " maint": 3925,
  "partner": 3926,
  "one of the": 3927,
  "ins ": 3928,
  "nce and ": 3929,
  "nual": 3930,
  "phys": 3931,
  "urna": 3932,
  "75": 3933,
  "achine": 3934,
  "roll": 3935,
  "subs": 3936,
  " call ": 3937,
  " clear": 3938,
  "s. We ": 3939,
  "way to": 3940,
  ": A": 3941,
  "ed to be": 3942,
  "rick": 3943,
  "aker": 3944,
  "2014": 3945,
  "07": 3946,
  ", 1": 3947,
  " would be ": 3948,
  " percent": 3949,
  "nche": 3950,
  "engine": 3951,
  " do not ": 3952,
  "rran": 3953,
  "ry and": 3954,
  "ampl": 3955,
  " development": 3956,
  "suit": 3957,
  "k.": 3958,
  "entr": 3959,
  "AP": 3960,
  " reduc": 3961,
  "ions of ": 3962,
  "ults": 3963,
  " fla": 3964,
  "by a": 3965,
  " focus": 3966,
  "lice": 3967,
  " discuss": 3968,
  "cover ": 3969,
  " the other": 3970,
  "United": 3971,
  "Depart": 3972,
  "mental": 3973,
  "least ": 3974,
  "special ": 3975,
  "dent ": 3976,
  "trac": 3977,
  ".\nFor": 3978,
  "//": 3979,
  " sound": 3980,
  " red": 3981,
  "ishing": 3982,
  "es with ": 3983,
  "obal": 3984,
  "09": 3985,
  "nical": 3986,
  "imag": 3987,
  " Mc": 3988,
  "ollege": 3989,
  "charac": 3990,
  "PC": 3991,
  "OS": 3992,
  "bank": 3993,
  "Tech": 3994,
  "form ": 3995,
  "property": 3996,
  " receive": 3997,
  "\u0430": 3998,
  "gage": 3999,
  " through the": 4000,
  "nifi": 4001,
  ", to": 4002,
  "?\n\n": 4003,
  " unique": 4004,
  "aching": 4005,
  " sid": 4006,
  " represent": 4007,
  "oon ": 4008,
  "features": 4009,
  "31": 4010,
  "'ve": 4011,
  "practic": 4012,
  " whether": 4013,
  "sort": 4014,
  "he was": 4015,
  "and then": 4016,
  " early": 4017,
  "sons": 4018,
  "government": 4019,
  "ards": 4020,
  "MA": 4021,
  " energ": 4022,
  "various ": 4023,
  "of these": 4024,
  "clas": 4025,
  "skin": 4026,
  "hair": 4027,
  "seen": 4028,
  "a little": 4029,
  "simple": 4030,
  "Cali": 4031,
  " table": 4032,
  "arth": 4033,
  "bles": 4034,
  "ancial": 4035,
  "prec": 4036,
  "code": 4037,
  "es from ": 4038,
  " Ye": 4039,
  "capa": 4040,
  " months": 4041,
  "matter": 4042,
  " in 19": 4043,
  "SC": 4044,
  "ing from": 4045,
  "ask ": 4046,
  "took": 4047,
  "espe": 4048,
  " increas": 4049,
  " exist": 4050,
  ". On": 4051,
  "organi": 4052,
  " want ": 4053,
  "format": 4054,
  "t. The ": 4055,
  "circ": 4056,
  "prac": 4057,
  " the b": 4058,
  "merc": 4059,
  " white": 4060,
  " eve": 4061,
  " lov": 4062,
  "s, b": 4063,
  " extra": 4064,
  "dian": 4065,
  " media": 4066,
  "In the": 4067,
  "ledg": 4068,
  "roughout": 4069,
  " various": 4070,
  "nse ": 4071,
  " Ins": 4072,
  "nstead": 4073,
  "choice": 4074,
  "rely": 4075,
  "knowledge": 4076,
  "nnel": 4077,
  " neigh": 4078,
  "K ": 4079,
  "ding the": 4080,
  "note": 4081,
  " third": 4082,
  " oil": 4083,
  "m in": 4084,
  "ies,": 4085,
  " dam": 4086,
  " ever ": 4087,
  "ironment": 4088,
  "leve": 4089,
  "University": 4090,
  "ting a": 4091,
  "e be": 4092,
  "fici": 4093,
  "mili": 4094,
  " took ": 4095,
  "wers": 4096,
  "icture": 4097,
  "key ": 4098,
  " eye": 4099,
  "organization": 4100,
  "tomers": 4101,
  "s which ": 4102,
  "a to": 4103,
  " Sha": 4104,
  " agree": 4105,
  "06": 4106,
  "egar": 4107,
  ".\nYou ": 4108,
  " store": 4109,
  "ention": 4110,
  " chara": 4111,
  "ddle": 4112,
  "ngth": 4113,
  " character": 4114,
  "s your": 4115,
  "coup": 4116,
  "6.": 4117,
  " address": 4118,
  "iety": 4119,
  "ury ": 4120,
  " we are ": 4121,
  " repor": 4122,
  " a little ": 4123,
  "park": 4124,
  " I have ": 4125,
  " thank": 4126,
  "ird ": 4127,
  "faci": 4128,
  "already ": 4129,
  "itical": 4130,
  "partic": 4131,
  "yed ": 4132,
  "stand ": 4133,
  "check ": 4134,
  "t as": 4135,
  "rail": 4136,
  "ker ": 4137,
  "mazing": 4138,
  " at a ": 4139,
  "news": 4140,
  " 17": 4141,
  " commit": 4142,
  "living": 4143,
  "cience": 4144,
  "cogn": 4145,
  "diff": 4146,
  "are not ": 4147,
  " the way": 4148,
  " on your": 4149,
  "current ": 4150,
  "s when": 4151,
  " lon": 4152,
  "ts that ": 4153,
  "ies of": 4154,
  " via": 4155,
  "clea": 4156,
  " produce": 4157,
  "role": 4158,
  "products": 4159,
  ". They ": 4160,
  " satis": 4161,
  " front": 4162,
  "pping ": 4163,
  " among": 4164,
  "stin": 4165,
  "td": 4166,
  ". There": 4167,
  "ensure": 4168,
  " cur": 4169,
  "piec": 4170,
  "enter ": 4171,
  " list ": 4172,
  " liv": 4173,
  " press": 4174,
  "five": 4175,
  "RS": 4176,
  " getting": 4177,
  "meas": 4178,
  " pub": 4179,
  " North": 4180,
  " have to": 4181,
  "ned to": 4182,
  " Ki": 4183,
  "enter": 4184,
  " patient": 4185,
  "stro": 4186,
  " polic": 4187,
  "choose": 4188,
  ". Re": 4189,
  "uble": 4190,
  " World": 4191,
  "adva": 4192,
  " Per": 4193,
  "bili": 4194,
  "th and": 4195,
  "elling ": 4196,
  " deliver": 4197,
  "appear": 4198,
  "tton": 4199,
  "power ": 4200,
  "fine": 4201,
  "assi": 4202,
  "ed to the ": 4203,
  " comfort": 4204,
  " a s": 4205,
  "\u00a3": 4206,
  "and is": 4207,
  " kno": 4208,
  "irth": 4209,
  "request": 4210,
  "osit": 4211,
  "rchase": 4212,
  "ained ": 4213,
  "fund": 4214,
  "does not": 4215,
  "F ": 4216,
  " hours": 4217,
  ") and ": 4218,
  " style": 4219,
  "illing": 4220,
  "strict": 4221,
  " four ": 4222,
  " drive": 4223,
  "ison": 4224,
  "involv": 4225,
  " known": 4226,
  "opy": 4227,
  "regard": 4228,
  "West": 4229,
  "favo": 4230,
  "particip": 4231,
  "have to ": 4232,
  " away ": 4233,
  "s.\nW": 4234,
  "arden": 4235,
  "at least": 4236,
  " further": 4237,
  "eat ": 4238,
  " leg": 4239,
  "receiv": 4240,
  "vant": 4241,
  "soon": 4242,
  " credi": 4243,
  "32": 4244,
  "NA": 4245,
  " Europe": 4246,
  "rave": 4247,
  "es.\n": 4248,
  "offers": 4249,
  " 100": 4250,
  " sourc": 4251,
  "activi": 4252,
  "ed at ": 4253,
  " due": 4254,
  "rink": 4255,
  "effort": 4256,
  "para": 4257,
  "fix": 4258,
  "major": 4259,
  "alls": 4260,
  " foo": 4261,
  "PS": 4262,
  "7.": 4263,
  "expl": 4264,
  "fit ": 4265,
  "depart": 4266,
  "ager": 4267,
  "in our": 4268,
  "iles": 4269,
  "MS": 4270,
  " taking ": 4271,
  "s. M": 4272,
  " employe": 4273,
  " to your": 4274,
  " install": 4275,
  "non-": 4276,
  "embe": 4277,
  " Gi": 4278,
  " network": 4279,
  "TV": 4280,
  "is also ": 4281,
  "tyle ": 4282,
  "at all": 4283,
  " physi": 4284,
  "CE": 4285,
  "? I": 4286,
  "-i": 4287,
  "ets ": 4288,
  "idge": 4289,
  "core": 4290,
  "CH": 4291,
  "tty ": 4292,
  "27": 4293,
  ", 201": 4294,
  "s and the ": 4295,
  " hav": 4296,
  "emon": 4297,
  "://": 4298,
  "ope ": 4299,
  "9.": 4300,
  " Ass": 4301,
  " Us": 4302,
  "isto": 4303,
  "iginal": 4304,
  "fall": 4305,
  " City": 4306,
  " conver": 4307,
  "perience ": 4308,
  " (a": 4309,
  "appl": 4310,
  "xim": 4311,
  "everyone": 4312,
  "stitut": 4313,
  "feed": 4314,
  " num": 4315,
  "mous": 4316,
  " customers": 4317,
  "tack": 4318,
  "job ": 4319,
  "or a": 4320,
  "icular": 4321,
  " following ": 4322,
  "time to ": 4323,
  "ench": 4324,
  "software": 4325,
  " htt": 4326,
  "author": 4327,
  "simi": 4328,
  "rican ": 4329,
  "cern": 4330,
  "window": 4331,
  "money ": 4332,
  " is in": 4333,
  " metho": 4334,
  "sing the": 4335,
  "hanks": 4336,
  "bran": 4337,
  " the c": 4338,
  " tak": 4339,
  ", as": 4340,
  "ing is": 4341,
  " black": 4342,
  "n th": 4343,
  " plant": 4344,
  " watch": 4345,
  " piece": 4346,
  "gether ": 4347,
  "empt": 4348,
  " someone": 4349,
  "otal": 4350,
  " School": 4351,
  " version": 4352,
  "nice": 4353,
  "quick": 4354,
  "potent": 4355,
  ", and the ": 4356,
  "nswer": 4357,
  "iment": 4358,
  "lan ": 4359,
  "itchen": 4360,
  "alleng": 4361,
  "it to ": 4362,
  "rector": 4363,
  " phone": 4364,
  " pan": 4365,
  "charge": 4366,
  "nical ": 4367,
  "cred": 4368,
  "jor ": 4369,
  " fir": 4370,
  " cel": 4371,
  "not be": 4372,
  "tyl": 4373,
  "cket": 4374,
  "imal": 4375,
  "0% ": 4376,
  "ne, ": 4377,
  "eath": 4378,
  "function": 4379,
  " ensure ": 4380,
  " open ": 4381,
  " competi": 4382,
  " shi": 4383,
  "raft": 4384,
  ".\nAs": 4385,
  "share ": 4386,
  "necess": 4387,
  "s from the": 4388,
  " den": 4389,
  " I was": 4390,
  "eplace": 4391,
  " claim": 4392,
  "a lot of": 4393,
  "|": 4394,
  "ooth": 4395,
  "8.": 4396,
  "itio": 4397,
  "??": 4398,
  " to get ": 4399,
  "ed on the ": 4400,
  "s.\nT": 4401,
  "500": 4402,
  "IP": 4403,
  "Free": 4404,
  "bow": 4405,
  "erve ": 4406,
  "gation": 4407,
  "cret": 4408,
  "entu": 4409,
  " the B": 4410,
  "94": 4411,
  "e. B": 4412,
  "memo": 4413,
  "-m": 4414,
  " UK": 4415,
  " forward": 4416,
  "zer": 4417,
  "tour": 4418,
  "UR": 4419,
  "cele": 4420,
  " John": 4421,
  "elve": 4422,
  "happy": 4423,
  "AD": 4424,
  "oss ": 4425,
  "ate the ": 4426,
  "utho": 4427,
  "accept": 4428,
  "cast": 4429,
  "event ": 4430,
  " cost ": 4431,
  "drop": 4432,
  " environment": 4433,
  "egal": 4434,
  "val ": 4435,
  "sn't": 4436,
  " are a": 4437,
  "accor": 4438,
  "kers": 4439,
  "d you ": 4440,
  "reme": 4441,
  " Af": 4442,
  " custom": 4443,
  "evelop": 4444,
  "ternational ": 4445,
  " main ": 4446,
  " bur": 4447,
  "s re": 4448,
  "ried": 4449,
  " a lot of ": 4450,
  " natural": 4451,
  "dies": 4452,
  "beca": 4453,
  " whether ": 4454,
  "use the ": 4455,
  "re\u2019s ": 4456,
  " Ind": 4457,
  " sus": 4458,
  "tra ": 4459,
  "ter,": 4460,
  "ET": 4461,
  " that you ": 4462,
  "NS": 4463,
  "sugg": 4464,
  " dif": 4465,
  "ting to ": 4466,
  ". If you ": 4467,
  "From": 4468,
  "therap": 4469,
  " against ": 4470,
  "atest ": 4471,
  "osed": 4472,
  "decision": 4473,
  " National": 4474,
  " quite": 4475,
  " social ": 4476,
  "nce,": 4477,
  " is that": 4478,
  "Cons": 4479,
  " article": 4480,
  "beli": 4481,
  "ote ": 4482,
  "almost": 4483,
  "(S": 4484,
  "travel": 4485,
  " bad": 4486,
  " 21": 4487,
  " gre": 4488,
  " anything": 4489,
  "bit ": 4490,
  " board": 4491,
  "igital": 4492,
  "ogni": 4493,
  " accor": 4494,
  "communic": 4495,
  "lier": 4496,
  "s I ": 4497,
  "gran": 4498,
  " Bl": 4499,
  " dro": 4500,
  "purp": 4501,
  " sug": 4502,
  "hina": 4503,
  "in their": 4504,
  "/ ": 4505,
  "purchase": 4506,
  " compa": 4507,
  " loa": 4508,
  " compu": 4509,
  "ques": 4510,
  "lite": 4511,
  "of all": 4512,
  " floor": 4513,
  "2013": 4514,
  "relationship": 4515,
  "liti": 4516,
  "wever,": 4517,
  " aud": 4518,
  " times": 4519,
  "sit ": 4520,
  " Fl": 4521,
  "either ": 4522,
  " thr": 4523,
  "responsi": 4524,
  "esse": 4525,
  "or to ": 4526,
  " May": 4527,
  " Hu": 4528,
  ".\nK": 4529,
  "ity,": 4530,
  " ready": 4531,
  "RA": 4532,
  "gical ": 4533,
  " suppl": 4534,
  "inding": 4535,
  "sually": 4536,
  "We are": 4537,
  "I think ": 4538,
  ". Do": 4539,
  " food ": 4540,
  "lian": 4541,
  "tching": 4542,
  "IL": 4543,
  "experience ": 4544,
  "ogle": 4545,
  " is also": 4546,
  "loss": 4547,
  " expec": 4548,
  "to you": 4549,
  "G ": 4550,
  ".\nTh": 4551,
  "ately ": 4552,
  "deas": 4553,
  "!\nI": 4554,
  "and we": 4555,
  "ndia": 4556,
  " specific ": 4557,
  "stea": 4558,
  " suggest": 4559,
  " of my": 4560,
  "limit": 4561,
  "alys": 4562,
  " party": 4563,
  "include ": 4564,
  "bill": 4565,
  "s this": 4566,
  " especially ": 4567,
  "aste": 4568,
  "etai": 4569,
  "hind": 4570,
  "corr": 4571,
  " por": 4572,
  "edding": 4573,
  " leave": 4574,
  "CC": 4575,
  "th of": 4576,
  ", he": 4577,
  " young": 4578,
  "TO": 4579,
  "ms and": 4580,
  "wed ": 4581,
  " communi": 4582,
  "fire": 4583,
  " room ": 4584,
  "arts": 4585,
  " resourc": 4586,
  " picture": 4587,
  "gin ": 4588,
  "rative": 4589,
  "PA": 4590,
  "whole ": 4591,
  "There ": 4592,
  " meeting": 4593,
  "start ": 4594,
  " the p": 4595,
  "audi": 4596,
  ".\nU": 4597,
  "eria": 4598,
  "recommen": 4599,
  "ctur": 4600,
  " quali": 4601,
  " bri": 4602,
  "inally": 4603,
  "II": 4604,
  "challeng": 4605,
  ", that": 4606,
  "cot": 4607,
  " writing": 4608,
  "I would ": 4609,
  "order ": 4610,
  "difficul": 4611,
  "ed as ": 4612,
  " treatment": 4613,
  "major ": 4614,
  "rche": 4615,
  " High": 4616,
  " integ": 4617,
  "especially": 4618,
  "lves": 4619,
  " log": 4620,
  "echa": 4621,
  "else": 4622,
  "ashing": 4623,
  "lthough ": 4624,
  "together ": 4625,
  "itself": 4626,
  "acher": 4627,
  "learning": 4628,
  "omic": 4629,
  " Hi": 4630,
  " ren": 4631,
  ".2": 4632,
  "ceive ": 4633,
  "disp": 4634,
  "ivate ": 4635,
  " goo": 4636,
  "65": 4637,
  "to s": 4638,
  "pril": 4639,
  "trie": 4640,
  "ells": 4641,
  " scr": 4642,
  "Part": 4643,
  "isk ": 4644,
  "extr": 4645,
  "rill": 4646,
  "board ": 4647,
  "song": 4648,
  "age of": 4649,
  " obs": 4650,
  "iews": 4651,
  "ts in ": 4652,
  " retur": 4653,
  "heat": 4654,
  "elli": 4655,
  " play ": 4656,
  " charg": 4657,
  "and more": 4658,
  "knowledg": 4659,
  "unce": 4660,
  "asy ": 4661,
  " single ": 4662,
  " summer": 4663,
  "flow": 4664,
  "election": 4665,
  " famil": 4666,
  "you have": 4667,
  " taken": 4668,
  ".\nIn ": 4669,
  " comfor": 4670,
  "Y ": 4671,
  "ires": 4672,
  "ncil": 4673,
  " track": 4674,
  "f course": 4675,
  "55": 4676,
  "perfect ": 4677,
  "ustral": 4678,
  " concern": 4679,
  "pped": 4680,
  "unding": 4681,
  " a t": 4682,
  "ians": 4683,
  " area ": 4684,
  " dog": 4685,
  " (S": 4686,
  " computer": 4687,
  ", then": 4688,
  "eight ": 4689,
  "there is": 4690,
  " cop": 4691,
  "rder to ": 4692,
  "elev": 4693,
  "ing for ": 4694,
  "\u00ae": 4695,
  " believe ": 4696,
  "angu": 4697,
  "assess": 4698,
  " hop": 4699,
  "stration": 4700,
  " amazing": 4701,
  "wear": 4702,
  " history": 4703,
  " further ": 4704,
  "vill": 4705,
  "e.\nS": 4706,
  "s. C": 4707,
  "etty": 4708,
  "simply ": 4709,
  " guide": 4710,
  "ety ": 4711,
  "crib": 4712,
  "prove": 4713,
  "tery": 4714,
  "98": 4715,
  "rence ": 4716,
  "nificant": 4717,
  "we can": 4718,
  " professional ": 4719,
  "questions": 4720,
  "dist": 4721,
  "affe": 4722,
  "mass": 4723,
  "contact ": 4724,
  "particular": 4725,
  "ities ": 4726,
  " past ": 4727,
  "ing it": 4728,
  "-3": 4729,
  "hood": 4730,
  "control ": 4731,
  " the top": 4732,
  " higher": 4733,
  "certain ": 4734,
  "center": 4735,
  " final": 4736,
  "s will be ": 4737,
  " train": 4738,
  "prove ": 4739,
  "es in the ": 4740,
  "allow ": 4741,
  "is that ": 4742,
  "dget": 4743,
  " strateg": 4744,
  "s about ": 4745,
  "during the": 4746,
  "33": 4747,
  " however": 4748,
  "ment and": 4749,
  "nd a": 4750,
  "financial ": 4751,
  " Sta": 4752,
  "ering ": 4753,
  "approach": 4754,
  "tens": 4755,
  " to in": 4756,
  "MP": 4757,
  " Satur": 4758,
  " reach": 4759,
  "path": 4760,
  "wish": 4761,
  "informat": 4762,
  ". She ": 4763,
  "e ca": 4764,
  "hall": 4765,
  "management": 4766,
  "\u2022": 4767,
  "gal ": 4768,
  " to re": 4769,
  " encou": 4770,
  "volu": 4771,
  "rank": 4772,
  "ball ": 4773,
  "pay ": 4774,
  "was the ": 4775,
  "icle": 4776,
  "Also": 4777,
  "alf ": 4778,
  " to make": 4779,
  " lab": 4780,
  "erver": 4781,
  "NC": 4782,
  "learn ": 4783,
  "o is": 4784,
  " print": 4785,
  " veh": 4786,
  "ensive": 4787,
  "Comm": 4788,
  "ers and ": 4789,
  " simple ": 4790,
  ". No": 4791,
  "Coll": 4792,
  "2,": 4793,
  "essary": 4794,
  "Will": 4795,
  "spir": 4796,
  "house ": 4797,
  "d an": 4798,
  " collect": 4799,
  "ample ": 4800,
  "ests": 4801,
  "der to": 4802,
  " connect": 4803,
  " bea": 4804,
  "ronic": 4805,
  "ites": 4806,
  " decid": 4807,
  "credit": 4808,
  "ment, ": 4809,
  "ecessary": 4810,
  "uage": 4811,
  "wait": 4812,
  "o and ": 4813,
  "moment": 4814,
  "County": 4815,
  "impro": 4816,
  "defini": 4817,
  "almost ": 4818,
  "effor": 4819,
  "usually ": 4820,
  "rally ": 4821,
  "tanc": 4822,
  "oid ": 4823,
  " relations": 4824,
  "joy ": 4825,
  ". With": 4826,
  "deep": 4827,
  "far ": 4828,
  "vehi": 4829,
  " opportunity": 4830,
  " areas": 4831,
  " release": 4832,
  "logi": 4833,
  "music ": 4834,
  "simply": 4835,
  "sn": 4836,
  " bat": 4837,
  " compl": 4838,
  " Ti": 4839,
  "(1": 4840,
  "hen the ": 4841,
  "$1": 4842,
  "ing an": 4843,
  "document": 4844,
  "reli": 4845,
  "ing this": 4846,
  "s also": 4847,
  "ted the ": 4848,
  ".\nIt": 4849,
  "iction": 4850,
  " Center": 4851,
  "lowe": 4852,
  " deg": 4853,
  "draw": 4854,
  " week ": 4855,
  " the r": 4856,
  "auth": 4857,
  " a b": 4858,
  "atio": 4859,
  ".\nTo": 4860,
  " person ": 4861,
  "lux": 4862,
  " part ": 4863,
  "surv": 4864,
  "program ": 4865,
  "told": 4866,
  "ficult": 4867,
  "o de": 4868,
  "o th": 4869,
  "inside": 4870,
  " Service": 4871,
  "2012": 4872,
  "maxim": 4873,
  "iter": 4874,
  "ferr": 4875,
  "PR": 4876,
  "ilar": 4877,
  "uture ": 4878,
  "m is": 4879,
  "vices ": 4880,
  "earc": 4881,
  "recogn": 4882,
  " additional ": 4883,
  " potential": 4884,
  "sett": 4885,
  "policy": 4886,
  "n an": 4887,
  "ruit": 4888,
  "spective": 4889,
  "rrow": 4890,
  " effec": 4891,
  "buy ": 4892,
  "impact": 4893,
  "improve": 4894,
  "Here": 4895,
  "augh": 4896,
  "ept ": 4897,
  " perio": 4898,
  " pag": 4899,
  "manuf": 4900,
  " time to": 4901,
  " does not ": 4902,
  "syn": 4903,
  "pm": 4904,
  " cra": 4905,
  " nic": 4906,
  " Rep": 4907,
  "original": 4908,
  " is no": 4909,
  "lower ": 4910,
  "represen": 4911,
  " likely ": 4912,
  " serve": 4913,
  "lot ": 4914,
  "lang": 4915,
  "modern": 4916,
  "alb": 4917,
  " Day": 4918,
  "ending": 4919,
  "become ": 4920,
  "rout": 4921,
  "nnot": 4922,
  "ly the": 4923,
  "ult ": 4924,
  "ting and": 4925,
  " post ": 4926,
  "lies": 4927,
  "true": 4928,
  " to help": 4929,
  "probably ": 4930,
  " from a ": 4931,
  ".\nOn": 4932,
  "tures ": 4933,
  "s be": 4934,
  "ank ": 4935,
  "ations, ": 4936,
  ". An": 4937,
  " machine": 4938,
  "phone ": 4939,
  "peak": 4940,
  "85": 4941,
  "receive ": 4942,
  "allo": 4943,
  " les": 4944,
  " of these ": 4945,
  "enjo": 4946,
  "nel ": 4947,
  " order to ": 4948,
  "UN": 4949,
  "ente": 4950,
  " minim": 4951,
  "getting ": 4952,
  "at this ": 4953,
  "from a": 4954,
  "ts for": 4955,
  " and I": 4956,
  "ecut": 4957,
  "rather": 4958,
  "ps, ": 4959,
  "as an ": 4960,
  " popular": 4961,
  " protect": 4962,
  "ende": 4963,
  ". You can ": 4964,
  "TS": 4965,
  "zen": 4966,
  "weet": 4967,
  " friends": 4968,
  "ING": 4969,
  " ven": 4970,
  "Google": 4971,
  "oast": 4972,
  " of their ": 4973,
  "nce the ": 4974,
  "trust": 4975,
  " built": 4976,
  "tine": 4977,
  " significant": 4978,
  "s. P": 4979,
  "mplo": 4980,
  "lers": 4981,
  "More": 4982,
  "loud": 4983,
  "uses": 4984,
  " difficult": 4985,
  "cording to": 4986,
  " val": 4987,
  "surf": 4988,
  "among ": 4989,
  "help you": 4990,
  "rece": 4991,
  " outside": 4992,
  "izing": 4993,
  "native": 4994,
  "ser ": 4995,
  "ed into ": 4996,
  " boo": 4997,
  "OT": 4998,
  "s, which": 4999
}