{
  " ": 2,
  "e": 3,
  "t": 4,
  "a": 5,
  "o": 6,
  "i": 7,
  "n": 8,
  "s": 9,
  "r": 10,
  "h": 11,
  "l": 12,
  "d": 13,
  "c": 14,
  "u": 15,
  "m": 16,
  "p": 17,
  "f": 18,
  "g": 19,
  "y": 20,
  "e ": 21,
  "w": 22,
  "b": 23,
  ".": 24,
  "v": 25,
  "s ": 26,
  ",": 27,
  "d ": 28,
  "in": 29,
  "t ": 30,
  "er": 31,
  "n ": 32,
  "k": 33,
  "he": 34,
  "he ": 35,
  "r ": 36,
  "ti": 37,
  ". ": 38,
  "on": 39,
  "or": 40,
  " a": 41,
  "re": 42,
  "the ": 43,
  "y ": 44,
  "the": 45,
  ", ": 46,
  "o ": 47,
  " the": 48,
  "ar": 49,
  " f": 50,
  " s": 51,
  "ng": 52,
  " w": 53,
  " o": 54,
  "nd ": 55,
  "al": 56,
  "nd": 57,
  "\n": 58,
  "ed": 59,
  "ing": 60,
  "st": 61,
  "en": 62,
  "T": 63,
  "f ": 64,
  "nt": 65,
  "and ": 66,
  "es": 67,
  "an": 68,
  " t": 69,
  "I": 70,
  ".\n": 71,
  " and ": 72,
  "to": 73,
  "l ": 74,
  " p": 75,
  "g ": 76,
  "at": 77,
  "to ": 78,
  "th": 79,
  "S": 80,
  " of ": 81,
  " to ": 82,
  "a ": 83,
  "and": 84,
  "A": 85,
  " c": 86,
  "ed ": 87,
  "C": 88,
  "ro": 89,
  "it": 90,
  " and": 91,
  "in ": 92,
  "h ": 93,
  "ur": 94,
  "ri": 95,
  "0": 96,
  "er ": 97,
  " a ": 98,
  "ve": 99,
  "re ": 100,
  "ent": 101,
  "le": 102,
  "te": 103,
  "or ": 104,
  "ati": 105,
  "is": 106,
  "is ": 107,
  "li": 108,
  "-": 109,
  "of": 110,
  " in ": 111,
  "x": 112,
  "ic": 113,
  "M": 114,
  "1": 115,
  "ha": 116,
  "at ": 117,
  "as": 118,
  "co": 119,
  " of": 120,
  "on ": 121,
  "me": 122,
  "ll": 123,
  "si": 124,
  "el": 125,
  "ce": 126,
  "se": 127,
  "ne": 128,
  "ea": 129,
  "P": 130,
  "ou": 131,
  "B": 132,
  " S": 133,
  "lo": 134,
  "ch": 135,
  "for": 136,
  " b": 137,
  "an ": 138,
  "et": 139,
  "es ": 140,
  "ow": 141,
  "W": 142,
  "de": 143,
  "2": 144,
  "hi": 145,
  "H": 146,
  "D": 147,
  "al ": 148,
  "\u2019": 149,
  "be": 150,
  " co": 151,
  "ly": 152,
  "ter": 153,
  "di": 154,
  "om": 155,
  "ct": 156,
  " be": 157,
  "ho": 158,
  "ex": 159,
  "ut": 160,
  "E": 161,
  "R": 162,
  "ay": 163,
  "m ": 164,
  "F": 165,
  "N": 166,
  "pro": 167,
  "ly ": 168,
  "th ": 169,
  "pe": 170,
  "ad": 171,
  "il": 172,
  "ra": 173,
  "L": 174,
  "st ": 175,
  " is ": 176,
  "ve ": 177,
  "un": 178,
  "ll ": 179,
  "ec": 180,
  "mo": 181,
  "op": 182,
  "hat ": 183,
  "s. ": 184,
  "ci": 185,
  "mp": 186,
  "O": 187,
  "ig": 188,
  "our": 189,
  "ol": 190,
  "en ": 191,
  "ac": 192,
  " pro": 193,
  " for": 194,
  "ear": 195,
  "j": 196,
  "ta": 197,
  "ge": 198,
  "G": 199,
  "ing ": 200,
  "ma": 201,
  "we": 202,
  "ir": 203,
  "la": 204,
  "hat": 205,
  "ot": 206,
  "w ": 207,
  "wa": 208,
  "q": 209,
  "s, ": 210,
  "nt ": 211,
  "you": 212,
  "ver": 213,
  "ith ": 214,
  "s a": 215,
  "k ": 216,
  "ni": 217,
  "le ": 218,
  "'": 219,
  "ry": 220,
  "us": 221,
  "ty": 222,
  "con": 223,
  "ur ": 224,
  " that ": 225,
  "z": 226,
  "ith": 227,
  "ca": 228,
  "wor": 229,
  "ul": 230,
  "ut ": 231,
  "so": 232,
  "our ": 233,
  " with ": 234,
  "u ": 235,
  ")": 236,
  "gh": 237,
  " wa": 238,
  "vi": 239,
  "res": 240,
  "ate": 241,
  " for ": 242,
  " con": 243,
  "are ": 244,
  "ment": 245,
  "ns": 246,
  "with": 247,
  "se ": 248,
  " with": 249,
  "(": 250,
  "ou ": 251,
  " we": 252,
  "his ": 253,
  "po": 254,
  "qu": 255,
  "her": 256,
  "I ": 257,
  "per": 258,
  "tion": 259,
  "3": 260,
  " wor": 261,
  "up": 262,
  "ld": 263,
  " i": 264,
  "The ": 265,
  "5": 266,
  "ce ": 267,
  "sp": 268,
  "ck": 269,
  "ation": 270,
  "that": 271,
  "you ": 272,
  "s.\n": 273,
  "com": 274,
  "te ": 275,
  "pp": 276,
  "s and ": 277,
  "do": 278,
  "ch ": 279,
  "ab": 280,
  "U": 281,
  "ke": 282,
  "ted ": 283,
  "est": 284,
  "me ": 285,
  "am": 286,
  "ect": 287,
  "ting": 288,
  "ry ": 289,
  "ill": 290,
  "id": 291,
  "ee": 292,
  "out": 293,
  "\"": 294,
  "p ": 295,
  "ent ": 296,
  "ep": 297,
  "su": 298,
  "e, ": 299,
  ":": 300,
  "od": 301,
  "mi": 302,
  " an ": 303,
  "s f": 304,
  "der": 305,
  "be ": 306,
  " at ": 307,
  "om ": 308,
  "9": 309,
  "4": 310,
  "em": 311,
  "fi": 312,
  "J": 313,
  "por": 314,
  "no": 315,
  "fe": 316,
  "!": 317,
  "ap": 318,
  "go": 319,
  "bo": 320,
  "lu": 321,
  "im": 322,
  "it ": 323,
  "ome": 324,
  "Y": 325,
  "The": 326,
  "sa": 327,
  "her ": 328,
  "s and": 329,
  "os": 330,
  "all": 331,
  " be ": 332,
  "ne ": 333,
  "ay ": 334,
  "ist": 335,
  "ow ": 336,
  "whi": 337,
  "pa": 338,
  "one": 339,
  "8": 340,
  "ity": 341,
  "ey": 342,
  "igh": 343,
  "ld ": 344,
  "ant": 345,
  " whi": 346,
  " com": 347,
  "rom ": 348,
  "ef": 349,
  "et ": 350,
  "ht": 351,
  "your ": 352,
  "ble": 353,
  "bu": 354,
  "t. ": 355,
  " po": 356,
  "ther": 357,
  "V": 358,
  "wo": 359,
  "s a ": 360,
  "hin": 361,
  "ain": 362,
  "by ": 363,
  "gi": 364,
  "sh": 365,
  "can": 366,
  "tt": 367,
  "ew": 368,
  "ere ": 369,
  "ill ": 370,
  " ca": 371,
  "s to ": 372,
  "ny": 373,
  " so": 374,
  "c ": 375,
  "7": 376,
  "eat": 377,
  "6": 378,
  "du": 379,
  "ser": 380,
  " by ": 381,
  " sa": 382,
  "out ": 383,
  "20": 384,
  "art": 385,
  "ore": 386,
  "nes": 387,
  "ure": 388,
  "K": 389,
  "ore ": 390,
  "ot ": 391,
  "?": 392,
  " su": 393,
  "han": 394,
  "your": 395,
  "\u2019s ": 396,
  ", and ": 397,
  "age": 398,
  "na": 399,
  ": ": 400,
  " bu": 401,
  "tic": 402,
  "e and ": 403,
  " can": 404,
  "ty ": 405,
  "all ": 406,
  "ic ": 407,
  "his": 408,
  "fa": 409,
  "fo": 410,
  "va": 411,
  "s in ": 412,
  "red": 413,
  "ces": 414,
  "In": 415,
  "ter ": 416,
  "any": 417,
  "ding": 418,
  "inc": 419,
  "nal": 420,
  "ide": 421,
  "ine": 422,
  "ke ": 423,
  "da": 424,
  "sc": 425,
  "ther ": 426,
  "oo": 427,
  "rin": 428,
  "ff": 429,
  "ag": 430,
  "ust": 431,
  " wo": 432,
  "ice": 433,
  "so ": 434,
  "uc": 435,
  "s s": 436,
  "hen ": 437,
  "din": 438,
  "ate ": 439,
  "eve": 440,
  "tu": 441,
  " sp": 442,
  " it ": 443,
  "rea": 444,
  "ber": 445,
  "ge ": 446,
  "have": 447,
  "ew ": 448,
  "port": 449,
  "use": 450,
  "ny ": 451,
  "gu": 452,
  "ue": 453,
  " from ": 454,
  " bo": 455,
  " will": 456,
  "over": 457,
  "y, ": 458,
  " fo": 459,
  "ning": 460,
  "ten": 461,
  " comp": 462,
  "have ": 463,
  "tra": 464,
  " in the ": 465,
  "ok": 466,
  "end": 467,
  "us ": 468,
  "ru": 469,
  "ir ": 470,
  "0 ": 471,
  "ran": 472,
  "de ": 473,
  " this ": 474,
  "n, ": 475,
  "not": 476,
  "nu": 477,
  "ub": 478,
  " fa": 479,
  "cho": 480,
  "s the": 481,
  "act": 482,
  "low": 483,
  "day": 484,
  "ack": 485,
  " was ": 486,
  " can ": 487,
  "ner": 488,
  "man": 489,
  "s of": 490,
  "ia": 491,
  " will ": 492,
  "rom": 493,
  "s p": 494,
  " of the ": 495,
  "ring": 496,
  "t, ": 497,
  "king": 498,
  "able": 499,
  "ual": 500,
  "year": 501,
  "not ": 502,
  "ck ": 503,
  "wn": 504,
  "any ": 505,
  "ding ": 506,
  "eg": 507,
  " of the": 508,
  " are": 509,
  ", and": 510,
  "und": 511,
  "nal ": 512,
  "we ": 513,
  "by": 514,
  "own": 515,
  "ble ": 516,
  " we ": 517,
  "\u2013": 518,
  "uld ": 519,
  "og": 520,
  "es. ": 521,
  "thin": 522,
  "kin": 523,
  "ugh": 524,
  "ver ": 525,
  "ad ": 526,
  "lar": 527,
  " ta": 528,
  "sion": 529,
  "ace": 530,
  "ight": 531,
  "here ": 532,
  "ite": 533,
  "ome ": 534,
  "ee ": 535,
  "/": 536,
  "mu": 537,
  "sto": 538,
  "hel": 539,
  "pi": 540,
  "men": 541,
  "har": 542,
  "way": 543,
  "rati": 544,
  "ys": 545,
  ". S": 546,
  "ach": 547,
  "uld": 548,
  "ven": 549,
  "vel": 550,
  "'s ": 551,
  "lea": 552,
  "more ": 553,
  "now": 554,
  "tr": 555,
  " by": 556,
  " as ": 557,
  "ons": 558,
  "Co": 559,
  "les": 560,
  "ak": 561,
  "ound": 562,
  "\u201c": 563,
  "s of ": 564,
  "mer": 565,
  "war": 566,
  "bi": 567,
  "but ": 568,
  "int": 569,
  "how": 570,
  "my": 571,
  "00": 572,
  "ds ": 573,
  " one": 574,
  "hen": 575,
  " all": 576,
  " ser": 577,
  "es, ": 578,
  "unt": 579,
  "gh ": 580,
  "ast": 581,
  "um": 582,
  "\u201d": 583,
  " but ": 584,
  "nder": 585,
  "equ": 586,
  "cor": 587,
  "St": 588,
  " their ": 589,
  "ough": 590,
  "ity ": 591,
  "cha": 592,
  "It": 593,
  "mber": 594,
  "lan": 595,
  "uti": 596,
  "ded": 597,
  "mar": 598,
  "d, ": 599,
  "eli": 600,
  "in the": 601,
  "one ": 602,
  "reat": 603,
  "onal": 604,
  "red ": 605,
  "ga": 606,
  "some": 607,
  ") ": 608,
  "peop": 609,
  "nati": 610,
  "has": 611,
  "pr": 612,
  " cont": 613,
  "des": 614,
  "my ": 615,
  "!\n": 616,
  "inclu": 617,
  " fi": 618,
  "ind": 619,
  "but": 620,
  " tra": 621,
  "son": 622,
  "eas": 623,
  " pa": 624,
  "sel": 625,
  "ren": 626,
  ", the": 627,
  "rec": 628,
  "ani": 629,
  "king ": 630,
  "nin": 631,
  " work": 632,
  "min": 633,
  "lin": 634,
  "ment ": 635,
  "imp": 636,
  " some": 637,
  "ure ": 638,
  "onal ": 639,
  "ned": 640,
  "rat": 641,
  "ba": 642,
  "able ": 643,
  "shi": 644,
  "ral": 645,
  "is a": 646,
  "g the ": 647,
  "ful": 648,
  "pla": 649,
  "el ": 650,
  ", w": 651,
  "evel": 652,
  "lic": 653,
  "ose": 654,
  "ation ": 655,
  "other ": 656,
  " from": 657,
  ";": 658,
  "time": 659,
  "ring ": 660,
  "mon": 661,
  "ling": 662,
  "We": 663,
  "use ": 664,
  "about ": 665,
  "y and ": 666,
  "ated ": 667,
  "This ": 668,
  "jo": 669,
  "this": 670,
  " but": 671,
  "A ": 672,
  "ult": 673,
  "cu": 674,
  "tion ": 675,
  "rac": 676,
  "t and ": 677,
  "they": 678,
  "hem": 679,
  "ning ": 680,
  "ous": 681,
  "dy": 682,
  "ish": 683,
  "ree": 684,
  "y to ": 685,
  "get": 686,
  "ant ": 687,
  "car": 688,
  "ft": 689,
  "dent": 690,
  "ine ": 691,
  "gr": 692,
  "den": 693,
  "od ": 694,
  " to the ": 695,
  "them": 696,
  " which": 697,
  ". The ": 698,
  "rent": 699,
  "der ": 700,
  "has ": 701,
  " their": 702,
  "peri": 703,
  " which ": 704,
  "ral ": 705,
  "id ": 706,
  "sta": 707,
  "Th": 708,
  "cer": 709,
  "ast ": 710,
  "ene": 711,
  " so ": 712,
  "fic": 713,
  "ary": 714,
  "?\n": 715,
  "on the ": 716,
  "ric": 717,
  "bet": 718,
  " other": 719,
  "ount": 720,
  ", a": 721,
  "on, ": 722,
  "ali": 723,
  "ho ": 724,
  "ice ": 725,
  "! ": 726,
  " over": 727,
  "loc": 728,
  " pr": 729,
  "vin": 730,
  "led": 731,
  "stu": 732,
  " bet": 733,
  " wh": 734,
  "ans": 735,
  "how ": 736,
  "age ": 737,
  "sk": 738,
  "more": 739,
  "col": 740,
  "ever": 741,
  "new": 742,
  "am ": 743,
  "ide ": 744,
  "lay": 745,
  "sen": 746,
  "also": 747,
  "ving": 748,
  "is a ": 749,
  "In ": 750,
  "ster": 751,
  "tive": 752,
  " when ": 753,
  "was": 754,
  "es.\n": 755,
  "s are": 756,
  "i ": 757,
  "We ": 758,
  "s for ": 759,
  " was": 760,
  "dis": 761,
  "ker": 762,
  "ffe": 763,
  " if ": 764,
  "es and ": 765,
  "? ": 766,
  "bl": 767,
  "ori": 768,
  "or the ": 769,
  " app": 770,
  "llow": 771,
  "ned ": 772,
  "get ": 773,
  "form": 774,
  "also ": 775,
  "win": 776,
  "5 ": 777,
  " pla": 778,
  "fer": 779,
  "nic": 780,
  "il ": 781,
  "up ": 782,
  "\u2019s": 783,
  "und ": 784,
  "eb": 785,
  " car": 786,
  "do ": 787,
  ". The": 788,
  ", s": 789,
  ", t": 790,
  "If ": 791,
  "ick": 792,
  "pt": 793,
  "&": 794,
  "ous ": 795,
  "edi": 796,
  "s for": 797,
  "to the": 798,
  "like": 799,
  "chan": 800,
  "its ": 801,
  "ary ": 802,
  "hy": 803,
  "exp": 804,
  "emo": 805,
  " col": 806,
  "know": 807,
  "ass": 808,
  "ved": 809,
  "ug": 810,
  "as a ": 811,
  "here": 812,
  "Ma": 813,
  " were ": 814,
  "eco": 815,
  "evi": 816,
  "vo": 817,
  "under": 818,
  " they ": 819,
  "pl": 820,
  "s the ": 821,
  "rate": 822,
  "med": 823,
  "help": 824,
  "ally ": 825,
  "Al": 826,
  "Re": 827,
  "ese ": 828,
  "ber ": 829,
  "ud": 830,
  "had": 831,
  "tem": 832,
  "now ": 833,
  ", but ": 834,
  "new ": 835,
  "ek": 836,
  "ration": 837,
  "- ": 838,
  "than ": 839,
  "ger": 840,
  "las": 841,
  " ba": 842,
  "ph": 843,
  "che": 844,
  "requ": 845,
  " well": 846,
  "ite ": 847,
  "ving ": 848,
  "ild": 849,
  "ded ": 850,
  "ech": 851,
  "cial ": 852,
  "\u2019t ": 853,
  "n\u2019t ": 854,
  "ret": 855,
  ".\nThe ": 856,
  " who ": 857,
  "s an ": 858,
  "like ": 859,
  "ating": 860,
  "rough": 861,
  "ree ": 862,
  " fe": 863,
  "fri": 864,
  "experi": 865,
  "br": 866,
  "e-": 867,
  "back": 868,
  "%": 869,
  "lear": 870,
  "rou": 871,
  "att": 872,
  "ed to ": 873,
  "ens": 874,
  "Mo": 875,
  "yer": 876,
  "cc": 877,
  "nto ": 878,
  "most ": 879,
  "mis": 880,
  " part": 881,
  "ally": 882,
  "ju": 883,
  "$": 884,
  "led ": 885,
  "ack ": 886,
  "2 ": 887,
  "each": 888,
  "No": 889,
  "gin": 890,
  "es and": 891,
  "For": 892,
  "uni": 893,
  "You": 894,
  ", p": 895,
  "ign": 896,
  "day ": 897,
  "wi": 898,
  "19": 899,
  "line": 900,
  " been ": 901,
  "s,": 902,
  "Ro": 903,
  "sh ": 904,
  " what ": 905,
  "s with": 906,
  "x ": 907,
  "fter": 908,
  "He": 909,
  " cha": 910,
  "ins": 911,
  "inter": 912,
  "ok ": 913,
  "ema": 914,
  "itt": 915,
  "lat": 916,
  "ame ": 917,
  "people": 918,
  "than": 919,
  "ol ": 920,
  "row": 921,
  "just": 922,
  "emp": 923,
  " would ": 924,
  "tain": 925,
  "ced": 926,
  "vent": 927,
  "see": 928,
  "Lo": 929,
  "read": 930,
  "10": 931,
  "make": 932,
  "ose ": 933,
  "ket": 934,
  "S ": 935,
  "hu": 936,
  "very ": 937,
  "ros": 938,
  "dep": 939,
  "no ": 940,
  "ese": 941,
  "long": 942,
  "inte": 943,
  "vis": 944,
  "thing": 945,
  "side": 946,
  "let": 947,
  "s are ": 948,
  "come": 949,
  " busi": 950,
  "gra": 951,
  " what": 952,
  "most": 953,
  "mb": 954,
  "even": 955,
  "cial": 956,
  "into ": 957,
  "rest": 958,
  "on the": 959,
  "rans": 960,
  "gene": 961,
  "every": 962,
  "bil": 963,
  "vail": 964,
  "top": 965,
  "chool": 966,
  "ces ": 967,
  "ms ": 968,
  " for the ": 969,
  " cho": 970,
  "Bo": 971,
  "mat": 972,
  "ris": 973,
  "rap": 974,
  "land": 975,
  "evelop": 976,
  "ven ": 977,
  "may": 978,
  "vice": 979,
  "may ": 980,
  "ell ": 981,
  "ach ": 982,
  "\u2013 ": 983,
  " back": 984,
  "lace": 985,
  "log": 986,
  "had ": 987,
  "round": 988,
  "\u201d ": 989,
  " been": 990,
  "mber ": 991,
  "chin": 992,
  "gro": 993,
  "Uni": 994,
  "ul ": 995,
  "inform": 996,
  "ler": 997,
  "s.": 998,
  "tech": 999,
  " week": 1000,
  "ons ": 1001,
  ", f": 1002,
  "mate": 1003,
  "eat ": 1004,
  "rop": 1005,
  "eo": 1006,
  "Ca": 1007,
  "s to": 1008,
  "; ": 1009,
  "high": 1010,
  "vol": 1011,
  "pect": 1012,
  "tive ": 1013,
  "peci": 1014,
  "cy": 1015,
  "So": 1016,
  ", but": 1017,
  " sc": 1018,
  "vers": 1019,
  "e.": 1020,
  "00 ": 1021,
  "nan": 1022,
  "fter ": 1023,
  "b ": 1024,
  "life": 1025,
  "\u00ad": 1026,
  " imp": 1027,
  "through": 1028,
  "place": 1029,
  "hea": 1030,
  "pu": 1031,
  "ind ": 1032,
  "ise": 1033,
  "ence": 1034,
  "len": 1035,
  ".\nS": 1036,
  "just ": 1037,
  "rig": 1038,
  "ever ": 1039,
  "char": 1040,
  "s is ": 1041,
  "set": 1042,
  "duct": 1043,
  "nat": 1044,
  "les ": 1045,
  "It ": 1046,
  "end ": 1047,
  "develop": 1048,
  " who": 1049,
  " sub": 1050,
  "dri": 1051,
  "To": 1052,
  "mit": 1053,
  "\" ": 1054,
  "rit": 1055,
  "ved ": 1056,
  " sto": 1057,
  "s from ": 1058,
  " fri": 1059,
  "to be ": 1060,
  "about": 1061,
  " cre": 1062,
  "thing ": 1063,
  "home": 1064,
  "gram": 1065,
  "ict": 1066,
  "child": 1067,
  "ling ": 1068,
  " were": 1069,
  "ject": 1070,
  "ection": 1071,
  "chi": 1072,
  "lot": 1073,
  "& ": 1074,
  "hor": 1075,
  "stan": 1076,
  "dea": 1077,
  " br": 1078,
  "ref": 1079,
  "sw": 1080,
  " would": 1081,
  "lect": 1082,
  "hand": 1083,
  "s, and ": 1084,
  "es to ": 1085,
  " bas": 1086,
  "ract": 1087,
  " cli": 1088,
  "run": 1089,
  "udi": 1090,
  "val": 1091,
  "ks": 1092,
  " ob": 1093,
  " fami": 1094,
  "unc": 1095,
  "ming": 1096,
  "in a ": 1097,
  "member": 1098,
  "De": 1099,
  "eff": 1100,
  "nit": 1101,
  "Ho": 1102,
  "down": 1103,
  "nor": 1104,
  "Be": 1105,
  "jec": 1106,
  "ext": 1107,
  "Mar": 1108,
  "Q": 1109,
  "number": 1110,
  " wi": 1111,
  "Ch": 1112,
  " cor": 1113,
  "4 ": 1114,
  "ves ": 1115,
  "ular": 1116,
  "ced ": 1117,
  "net": 1118,
  "old": 1119,
  "right": 1120,
  "hal": 1121,
  "low ": 1122,
  "str": 1123,
  "ual ": 1124,
  "to be": 1125,
  "Con": 1126,
  " off": 1127,
  "ining": 1128,
  "ship": 1129,
  " world": 1130,
  "ana": 1131,
  "). ": 1132,
  "1 ": 1133,
  "good": 1134,
  "gain": 1135,
  "Li": 1136,
  "gg": 1137,
  " care": 1138,
  "look": 1139,
  "ful ": 1140,
  "gen": 1141,
  "h, ": 1142,
  "way ": 1143,
  "hear": 1144,
  " trans": 1145,
  "student": 1146,
  "these ": 1147,
  "\u2019t": 1148,
  "n\u2019t": 1149,
  "dia": 1150,
  "rep": 1151,
  "This": 1152,
  "Pro": 1153,
  "Wor": 1154,
  "ness ": 1155,
  "vest": 1156,
  "gar": 1157,
  " cour": 1158,
  "irst ": 1159,
  "old ": 1160,
  "s at ": 1161,
  "wo ": 1162,
  "mal": 1163,
  "on and ": 1164,
  "cons": 1165,
  "many ": 1166,
  "lit": 1167,
  "need": 1168,
  "month": 1169,
  "acc": 1170,
  "very": 1171,
  "ed, ": 1172,
  " tr": 1173,
  "made": 1174,
  "only": 1175,
  " them ": 1176,
  " some ": 1177,
  " there": 1178,
  " prof": 1179,
  "data": 1180,
  " ope": 1181,
  "org": 1182,
  "import": 1183,
  "ffer": 1184,
  "time ": 1185,
  "cip": 1186,
  "nment": 1187,
  "lis": 1188,
  "hould": 1189,
  "ed by ": 1190,
  "ff ": 1191,
  "reg": 1192,
  "cess": 1193,
  "reat ": 1194,
  "'s": 1195,
  "E ": 1196,
  "sist": 1197,
  "ron": 1198,
  "exa": 1199,
  "18": 1200,
  "list": 1201,
  "cei": 1202,
  "qual": 1203,
  "ly, ": 1204,
  "La": 1205,
  "ward": 1206,
  "rod": 1207,
  "eth": 1208,
  "rect": 1209,
  "hose": 1210,
  "ton": 1211,
  "ering": 1212,
  "For ": 1213,
  "reas": 1214,
  "nation": 1215,
  "too": 1216,
  "gy": 1217,
  "Ar": 1218,
  "'t ": 1219,
  "mor": 1220,
  "n't ": 1221,
  "es of ": 1222,
  "site": 1223,
  "make ": 1224,
  " product": 1225,
  "vari": 1226,
  "rent ": 1227,
  " show": 1228,
  "ze": 1229,
  "dist": 1230,
  ", c": 1231,
  "people ": 1232,
  "in a": 1233,
  "simp": 1234,
  "3 ": 1235,
  "Ex": 1236,
  "mple": 1237,
  "o, ": 1238,
  " such": 1239,
  "Jo": 1240,
  "mic": 1241,
  ".\nThe": 1242,
  "good ": 1243,
  "Do": 1244,
  "main": 1245,
  "\u2014": 1246,
  "righ": 1247,
  "hot": 1248,
  "eak": 1249,
  "sy": 1250,
  "sion ": 1251,
  "mes": 1252,
  " company": 1253,
  "rel": 1254,
  " pi": 1255,
  "level": 1256,
  "a, ": 1257,
  "revi": 1258,
  " cons": 1259,
  " pre": 1260,
  "s: ": 1261,
  " So": 1262,
  "nex": 1263,
  "Ha": 1264,
  " play": 1265,
  " at the ": 1266,
  "xi": 1267,
  " best": 1268,
  "hur": 1269,
  " one of ": 1270,
  "\u2018": 1271,
  "ution": 1272,
  "Pa": 1273,
  "ick ": 1274,
  "An": 1275,
  "then": 1276,
  "ques": 1277,
  "fact": 1278,
  "As": 1279,
  "see ": 1280,
  "s in the ": 1281,
  "vide": 1282,
  "ower": 1283,
  "Z": 1284,
  "help ": 1285,
  "even ": 1286,
  "son ": 1287,
  "fac": 1288,
  " from the ": 1289,
  "D ": 1290,
  " friend": 1291,
  " with the ": 1292,
  " when": 1293,
  "recei": 1294,
  " want": 1295,
  "to a": 1296,
  "room": 1297,
  "invest": 1298,
  "Sa": 1299,
  " count": 1300,
  "then ": 1301,
  "event": 1302,
  " take": 1303,
  "lar ": 1304,
  "lon": 1305,
  "efore ": 1306,
  "is the": 1307,
  "ight ": 1308,
  "mag": 1309,
  "eigh": 1310,
  "only ": 1311,
  " ty": 1312,
  "pho": 1313,
  "You ": 1314,
  " place": 1315,
  "ear ": 1316,
  " should": 1317,
  "usto": 1318,
  "ash": 1319,
  " first ": 1320,
  "you can ": 1321,
  "ppro": 1322,
  "New ": 1323,
  "ms": 1324,
  " two ": 1325,
  "go ": 1326,
  "cel": 1327,
  "again": 1328,
  " sh": 1329,
  "m, ": 1330,
  "6 ": 1331,
  "light": 1332,
  "Bu": 1333,
  " sen": 1334,
  "Po": 1335,
  "these": 1336,
  "ing the ": 1337,
  "did": 1338,
  "hould ": 1339,
  " service": 1340,
  "dec": 1341,
  "ade ": 1342,
  " over ": 1343,
  "as well": 1344,
  "Ad": 1345,
  "Ju": 1346,
  "dow": 1347,
  "ney": 1348,
  " plan": 1349,
  "oking": 1350,
  "rough ": 1351,
  "inf": 1352,
  "hop": 1353,
  " buil": 1354,
  "eng": 1355,
  "irst": 1356,
  "inan": 1357,
  "each ": 1358,
  "ical ": 1359,
  " two": 1360,
  "rate ": 1361,
  "him": 1362,
  "ed to": 1363,
  "ep ": 1364,
  "deli": 1365,
  " war": 1366,
  "ined": 1367,
  "many": 1368,
  "def": 1369,
  " set": 1370,
  "le, ": 1371,
  " book": 1372,
  "great": 1373,
  ", we ": 1374,
  "dust": 1375,
  "start": 1376,
  "Car": 1377,
  "los": 1378,
  "Ame": 1379,
  "dra": 1380,
  " said": 1381,
  "know ": 1382,
  "range": 1383,
  " after": 1384,
  "remo": 1385,
  ", S": 1386,
  " offer": 1387,
  " for the": 1388,
  "come ": 1389,
  " cur": 1390,
  "view": 1391,
  "un ": 1392,
  "X": 1393,
  ", a ": 1394,
  " take ": 1395,
  " supp": 1396,
  "Gu": 1397,
  "stic": 1398,
  "Com": 1399,
  " area": 1400,
  " avail": 1401,
  "deci": 1402,
  "gover": 1403,
  "ince ": 1404,
  " school": 1405,
  "medi": 1406,
  " could": 1407,
  "nee": 1408,
  "much ": 1409,
  " free": 1410,
  "design": 1411,
  "000": 1412,
  " could ": 1413,
  "ish ": 1414,
  "test": 1415,
  "act ": 1416,
  " spea": 1417,
  "self": 1418,
  "ystem": 1419,
  "hic": 1420,
  "earch": 1421,
  "ween ": 1422,
  "met": 1423,
  "que": 1424,
  "ness": 1425,
  "dar": 1426,
  "mark": 1427,
  "leg": 1428,
  "ki": 1429,
  "oug": 1430,
  "every ": 1431,
  "Go": 1432,
  "del": 1433,
  " treat": 1434,
  "ele": 1435,
  "itu": 1436,
  "star": 1437,
  " top": 1438,
  ". A": 1439,
  "Fi": 1440,
  "s that ": 1441,
  " thi": 1442,
  "resent": 1443,
  "van": 1444,
  "mun": 1445,
  " between ": 1446,
  "sible": 1447,
  "back ": 1448,
  "st. ": 1449,
  "is an ": 1450,
  "pe ": 1451,
  "8 ": 1452,
  "late": 1453,
  "ect ": 1454,
  " where ": 1455,
  "tional": 1456,
  "round ": 1457,
  "mul": 1458,
  "Par": 1459,
  "sive ": 1460,
  " che": 1461,
  "tial": 1462,
  ", we": 1463,
  "result": 1464,
  "team": 1465,
  "through ": 1466,
  "dr": 1467,
  " fac": 1468,
  "nger": 1469,
  "disc": 1470,
  "On": 1471,
  " pho": 1472,
  " those": 1473,
  "T ": 1474,
  "line ": 1475,
  "meth": 1476,
  "des ": 1477,
  " after ": 1478,
  "He ": 1479,
  "rol": 1480,
  "How": 1481,
  "C ": 1482,
  "k, ": 1483,
  "bit": 1484,
  "\"\n": 1485,
  ". This ": 1486,
  " pri": 1487,
  " proper": 1488,
  " speci": 1489,
  "mil": 1490,
  "rip": 1491,
  " will be ": 1492,
  "s S": 1493,
  " best ": 1494,
  "vid": 1495,
  "ull": 1496,
  "osp": 1497,
  "ess": 1498,
  "ural": 1499,
  "s, and": 1500,
  " Sa": 1501,
  "it. ": 1502,
  " work ": 1503,
  "out the ": 1504,
  "When ": 1505,
  "hap": 1506,
  "to a ": 1507,
  "ask": 1508,
  "ed with ": 1509,
  "tip": 1510,
  " by the ": 1511,
  "tim": 1512,
  "sty": 1513,
  "its": 1514,
  "abil": 1515,
  "cause ": 1516,
  "ban": 1517,
  "great ": 1518,
  "sive": 1519,
  " power": 1520,
  "Di": 1521,
  "eld": 1522,
  "En": 1523,
  "s can": 1524,
  "man ": 1525,
  " sha": 1526,
  "really ": 1527,
  "\u2026": 1528,
  "ton ": 1529,
  "Univers": 1530,
  " au": 1531,
  "um ": 1532,
  " win": 1533,
  "ming ": 1534,
  "perfor": 1535,
  "put": 1536,
  " project": 1537,
  " is the ": 1538,
  "rial": 1539,
  " and the": 1540,
  "children": 1541,
  ").\n": 1542,
  ". It": 1543,
  "ce, ": 1544,
  "law": 1545,
  "rib": 1546,
  " with a ": 1547,
  " before ": 1548,
  "And ": 1549,
  "Me": 1550,
  "less ": 1551,
  " for a ": 1552,
  "ard": 1553,
  " fu": 1554,
  "Man": 1555,
  "exc": 1556,
  "7 ": 1557,
  "bor": 1558,
  " say": 1559,
  "wing ": 1560,
  "ually ": 1561,
  "hol": 1562,
  "To ": 1563,
  " allow": 1564,
  "requi": 1565,
  "ed in ": 1566,
  "), ": 1567,
  "uction": 1568,
  "ical": 1569,
  " should ": 1570,
  "state": 1571,
  "esta": 1572,
  "me, ": 1573,
  "ott": 1574,
  "Bl": 1575,
  "bs": 1576,
  "ress": 1577,
  " program": 1578,
  " par": 1579,
  "artic": 1580,
  ". I ": 1581,
  "ra ": 1582,
  "ve a ": 1583,
  "cra": 1584,
  " point": 1585,
  " pl": 1586,
  "fort": 1587,
  " cap": 1588,
  "loy": 1589,
  "efore": 1590,
  " water": 1591,
  "s from": 1592,
  "s. S": 1593,
  "s with ": 1594,
  "report": 1595,
  "mm": 1596,
  "port ": 1597,
  " poli": 1598,
  "head": 1599,
  "im ": 1600,
  "right ": 1601,
  "ative": 1602,
  "s in": 1603,
  " of a ": 1604,
  "na ": 1605,
  "ired": 1606,
  "tie": 1607,
  "arti": 1608,
  " few ": 1609,
  "spon": 1610,
  "ety": 1611,
  "ger ": 1612,
  "ye": 1613,
  " photo": 1614,
  "Ac": 1615,
  "hig": 1616,
  "direct": 1617,
  "ffic": 1618,
  "tial ": 1619,
  " feat": 1620,
  "uring": 1621,
  "US": 1622,
  "dro": 1623,
  "going ": 1624,
  " shi": 1625,
  "ucces": 1626,
  "much": 1627,
  "upport": 1628,
  "alth": 1629,
  "market": 1630,
  "9 ": 1631,
  "cing": 1632,
  "urn": 1633,
  "tting ": 1634,
  " post": 1635,
  " first": 1636,
  "urp": 1637,
  "ps": 1638,
  "hour": 1639,
  "ident": 1640,
  " of a": 1641,
  " compani": 1642,
  "sines": 1643,
  "ider": 1644,
  "rot": 1645,
  "respon": 1646,
  " find ": 1647,
  "tional ": 1648,
  "does ": 1649,
  "uto": 1650,
  "increas": 1651,
  "Chi": 1652,
  "mid": 1653,
  " if": 1654,
  "ise ": 1655,
  " while ": 1656,
  "fe ": 1657,
  "But ": 1658,
  "ner ": 1659,
  "nis": 1660,
  "30": 1661,
  "risk": 1662,
  "last ": 1663,
  "I\u2019": 1664,
  "it is ": 1665,
  " follow": 1666,
  "tio": 1667,
  " food": 1668,
  " business ": 1669,
  "mas": 1670,
  " tru": 1671,
  "ging ": 1672,
  "still ": 1673,
  "mus": 1674,
  ", b": 1675,
  "a and ": 1676,
  " with a": 1677,
  " commun": 1678,
  "L ": 1679,
  " web": 1680,
  "ity of ": 1681,
  "experience": 1682,
  "I wa": 1683,
  "vice ": 1684,
  " provide": 1685,
  " bea": 1686,
  "17": 1687,
  "ustomer": 1688,
  " sur": 1689,
  "mer ": 1690,
  " proces": 1691,
  "ought": 1692,
  "ce and ": 1693,
  "last": 1694,
  "Ba": 1695,
  "yo": 1696,
  "There ": 1697,
  "ather ": 1698,
  "Ta": 1699,
  "inst": 1700,
  "valu": 1701,
  ", i": 1702,
  " come": 1703,
  "art ": 1704,
  "tun": 1705,
  "it\u2019s ": 1706,
  "rant": 1707,
  "They ": 1708,
  "think": 1709,
  " player": 1710,
  "ft ": 1711,
  "rain": 1712,
  " with the": 1713,
  " way ": 1714,
  " find": 1715,
  "soci": 1716,
  "dan": 1717,
  "ody": 1718,
  "tinu": 1719,
  "reli": 1720,
  "grap": 1721,
  " before": 1722,
  "gan": 1723,
  " coll": 1724,
  "invol": 1725,
  "ta ": 1726,
  "grow": 1727,
  "order": 1728,
  "looking": 1729,
  "ener": 1730,
  "And": 1731,
  " back ": 1732,
  " Su": 1733,
  "dres": 1734,
  "non": 1735,
  "ept": 1736,
  "cy ": 1737,
  "give ": 1738,
  "ilit": 1739,
  "ined ": 1740,
  "group": 1741,
  " the world": 1742,
  "question": 1743,
  "Ti": 1744,
  "atient": 1745,
  "lease": 1746,
  "think ": 1747,
  "Mi": 1748,
  " foc": 1749,
  "techno": 1750,
  " pur": 1751,
  "s on ": 1752,
  "including ": 1753,
  " posi": 1754,
  ".\"\n": 1755,
  "unit": 1756,
  "gent": 1757,
  " finan": 1758,
  " customer": 1759,
  "fici": 1760,
  "made ": 1761,
  " as a": 1762,
  "prop": 1763,
  "ective": 1764,
  "high ": 1765,
  "era": 1766,
  "enc": 1767,
  "ster ": 1768,
  "Te": 1769,
  "enti": 1770,
  "own ": 1771,
  "Thi": 1772,
  "dat": 1773,
  "joy": 1774,
  "\u2019re ": 1775,
  "15": 1776,
  "'t": 1777,
  "bur": 1778,
  "ve the ": 1779,
  "s of the": 1780,
  "lease ": 1781,
  "on to ": 1782,
  ". We ": 1783,
  " busines": 1784,
  ", so": 1785,
  "vit": 1786,
  "Tu": 1787,
  "zed": 1788,
  "ance": 1789,
  "you are ": 1790,
  " cost": 1791,
  "sional": 1792,
  "tiv": 1793,
  "dent ": 1794,
  "pert": 1795,
  "ation, ": 1796,
  "the most ": 1797,
  "effect": 1798,
  " speaker": 1799,
  "vic": 1800,
  "elect": 1801,
  "work": 1802,
  "n't": 1803,
  "Da": 1804,
  "lication": 1805,
  "has been ": 1806,
  "s that": 1807,
  "gy ": 1808,
  "re are": 1809,
  " chang": 1810,
  "As ": 1811,
  "With ": 1812,
  "happ": 1813,
  "ign ": 1814,
  " ben": 1815,
  "option": 1816,
  "around": 1817,
  "leas": 1818,
  "s. The ": 1819,
  " and the ": 1820,
  "have a ": 1821,
  "interest": 1822,
  "gether": 1823,
  "200": 1824,
  "nec": 1825,
  "10 ": 1826,
  "all the ": 1827,
  "nel": 1828,
  " creat": 1829,
  "issu": 1830,
  "ond ": 1831,
  "Nor": 1832,
  " same ": 1833,
  "three ": 1834,
  " am ": 1835,
  "m and ": 1836,
  "at the": 1837,
  "ways ": 1838,
  "ty and ": 1839,
  "recom": 1840,
  "hous": 1841,
  " succes": 1842,
  " ph": 1843,
  "ground": 1844,
  "Min": 1845,
  "epte": 1846,
  " conc": 1847,
  "idea": 1848,
  " fact": 1849,
  "Than": 1850,
  "did ": 1851,
  "What": 1852,
  "histo": 1853,
  " fut": 1854,
  " continu": 1855,
  "cas": 1856,
  "organi": 1857,
  " the S": 1858,
  "Or": 1859,
  "ments ": 1860,
  "Ja": 1861,
  "love": 1862,
  "perf": 1863,
  " can be ": 1864,
  "ative ": 1865,
  "ether ": 1866,
  "more than ": 1867,
  "earch ": 1868,
  "ring the ": 1869,
  "less": 1870,
  "stay": 1871,
  " tot": 1872,
  "night": 1873,
  "eason": 1874,
  " system": 1875,
  "Sp": 1876,
  "bar": 1877,
  "ence ": 1878,
  ", which": 1879,
  "llow ": 1880,
  " form": 1881,
  "Ra": 1882,
  "online": 1883,
  "till": 1884,
  "does": 1885,
  "hou": 1886,
  "ties ": 1887,
  "cr": 1888,
  ", the ": 1889,
  " parti": 1890,
  "bly": 1891,
  "ik": 1892,
  "together": 1893,
  "ading": 1894,
  "model": 1895,
  "N ": 1896,
  "change": 1897,
  "using ": 1898,
  "What ": 1899,
  "person": 1900,
  " conf": 1901,
  "\u2019 ": 1902,
  "s by ": 1903,
  "s, the": 1904,
  "That": 1905,
  ". In ": 1906,
  "Wa": 1907,
  "peti": 1908,
  "vil": 1909,
  "Blue": 1910,
  "side ": 1911,
  " being ": 1912,
  "R ": 1913,
  "enter": 1914,
  "tail": 1915,
  " pu": 1916,
  "-s": 1917,
  "stra": 1918,
  " because ": 1919,
  "year ": 1920,
  "nother ": 1921,
  "zing": 1922,
  "mak": 1923,
  "Na": 1924,
  "s (": 1925,
  "don\u2019t ": 1926,
  "But": 1927,
  "face": 1928,
  "eam ": 1929,
  "job": 1930,
  "P ": 1931,
  "alk": 1932,
  " where": 1933,
  "*": 1934,
  "really": 1935,
  " word": 1936,
  "chool ": 1937,
  " blo": 1938,
  "Har": 1939,
  "Y ": 1940,
  "nut": 1941,
  "dition": 1942,
  "educ": 1943,
  ".\nA": 1944,
  "information": 1945,
  "logy": 1946,
  " found": 1947,
  "ment of ": 1948,
  "desig": 1949,
  " pass": 1950,
  " ana": 1951,
  "ka": 1952,
  "cated ": 1953,
  "cher": 1954,
  "aster": 1955,
  "house": 1956,
  " support": 1957,
  ". We": 1958,
  "dual": 1959,
  "on and": 1960,
  ", which ": 1961,
  " around ": 1962,
  "Per": 1963,
  "If": 1964,
  "tions ": 1965,
  "16": 1966,
  "ev": 1967,
  "never ": 1968,
  "national": 1969,
  "Fa": 1970,
  "expert": 1971,
  "ek ": 1972,
  "eptember ": 1973,
  "eting": 1974,
  "ze ": 1975,
  "ated": 1976,
  " for a": 1977,
  "user": 1978,
  "tain ": 1979,
  "cause": 1980,
  "st, ": 1981,
  "fy": 1982,
  " sw": 1983,
  "12": 1984,
  "Ge": 1985,
  "used ": 1986,
  "achi": 1987,
  " family": 1988,
  " far": 1989,
  "expect": 1990,
  "gre": 1991,
  "fferent": 1992,
  "different": 1993,
  " both ": 1994,
  "health": 1995,
  "game": 1996,
  "divi": 1997,
  "date": 1998,
  "qui": 1999,
  "blem": 2000,
  " cri": 2001,
  "lose": 2002,
  "ant to ": 2003,
  "loo": 2004,
  "day, ": 2005,
  "land ": 2006,
  "ed the ": 2007,
  "es the ": 2008,
  " sure": 2009,
  "video": 2010,
  ". It ": 2011,
  "reason": 2012,
  "national ": 2013,
  ", so ": 2014,
  "body": 2015,
  " she": 2016,
  "out the": 2017,
  "essional": 2018,
  "s or ": 2019,
  "le and ": 2020,
  " as the ": 2021,
  "Vi": 2022,
  "roo": 2023,
  " space": 2024,
  "s, p": 2025,
  "answ": 2026,
  "unt ": 2027,
  "My": 2028,
  "heat": 2029,
  " patient": 2030,
  "mach": 2031,
  "Hear": 2032,
  "lack": 2033,
  "those ": 2034,
  "keep": 2035,
  "hit": 2036,
  "vide ": 2037,
  "mall": 2038,
  "I am ": 2039,
  "real ": 2040,
  " better": 2041,
  "direc": 2042,
  "Pre": 2043,
  " buy": 2044,
  "exi": 2045,
  "Du": 2046,
  "ruct": 2047,
  "uri": 2048,
  "into": 2049,
  "enjoy": 2050,
  "ce of ": 2051,
  "They": 2052,
  "ush": 2053,
  "tori": 2054,
  " the same ": 2055,
  "olution": 2056,
  "long ": 2057,
  "cket": 2058,
  "-in": 2059,
  "irl": 2060,
  "Hi": 2061,
  " beauti": 2062,
  " free ": 2063,
  " pie": 2064,
  " sound": 2065,
  "ves": 2066,
  "easi": 2067,
  "rice": 2068,
  "Fo": 2069,
  "ligh": 2070,
  "iss": 2071,
  "maj": 2072,
  " case": 2073,
  "ing the": 2074,
  "hare": 2075,
  "nother": 2076,
  "you are": 2077,
  ".S": 2078,
  "ed and ": 2079,
  "thou": 2080,
  " charac": 2081,
  "material": 2082,
  ", in ": 2083,
  "load": 2084,
  "ister": 2085,
  "ware": 2086,
  "fferent ": 2087,
  "rid": 2088,
  "kind": 2089,
  "zation": 2090,
  "Col": 2091,
  " well ": 2092,
  "int ": 2093,
  "re is ": 2094,
  "important": 2095,
  "11": 2096,
  "fic ": 2097,
  "Wh": 2098,
  "ge, ": 2099,
  " business": 2100,
  "hone": 2101,
  "diffic": 2102,
  "ecur": 2103,
  ",000": 2104,
  "za": 2105,
  "illa": 2106,
  "bro": 2107,
  "ry, ": 2108,
  "ing to ": 2109,
  "How ": 2110,
  " problem": 2111,
  "yc": 2112,
  " from the": 2113,
  "kn": 2114,
  " professional": 2115,
  " client": 2116,
  "glo": 2117,
  " Se": 2118,
  " call": 2119,
  "vel ": 2120,
  " coup": 2121,
  "ager": 2122,
  "up to ": 2123,
  "include": 2124,
  "Dr": 2125,
  "ection ": 2126,
  "CS": 2127,
  "different ": 2128,
  "home ": 2129,
  "able to ": 2130,
  "ural ": 2131,
  ", it ": 2132,
  "need ": 2133,
  "ational ": 2134,
  "perc": 2135,
  "gest": 2136,
  " tri": 2137,
  "cell": 2138,
  "use of ": 2139,
  "There": 2140,
  "advan": 2141,
  "into the ": 2142,
  " working": 2143,
  "open": 2144,
  " connec": 2145,
  "yn": 2146,
  "ric ": 2147,
  "ed a ": 2148,
  "making ": 2149,
  "Med": 2150,
  "manage": 2151,
  " will be": 2152,
  "hard": 2153,
  "quick": 2154,
  "0.": 2155,
  "indivi": 2156,
  " both": 2157,
  "mig": 2158,
  "though": 2159,
  " can be": 2160,
  "sition": 2161,
  ", with": 2162,
  "pecial": 2163,
  "atch": 2164,
  "Ve": 2165,
  " company ": 2166,
  " create": 2167,
  " cult": 2168,
  "making": 2169,
  " analy": 2170,
  "TH": 2171,
  "Jes": 2172,
  "sal": 2173,
  "put ": 2174,
  " that the ": 2175,
  "ually": 2176,
  "le of ": 2177,
  "ppli": 2178,
  " ban": 2179,
  " while": 2180,
  "repa": 2181,
  "mind": 2182,
  "tions": 2183,
  " course": 2184,
  "God": 2185,
  "ditional ": 2186,
  "mission": 2187,
  "These ": 2188,
  "scrip": 2189,
  " pat": 2190,
  "B ": 2191,
  " pain": 2192,
  "Wo": 2193,
  "ently": 2194,
  "study": 2195,
  "has been": 2196,
  "let ": 2197,
  "equi": 2198,
  "you can": 2199,
  "performan": 2200,
  "ration ": 2201,
  "bly ": 2202,
  "lant": 2203,
  "ream": 2204,
  "la ": 2205,
  " concer": 2206,
  "action": 2207,
  "% ": 2208,
  "deal": 2209,
  "s have": 2210,
  " to get ": 2211,
  "All ": 2212,
  "heart": 2213,
  "as an ": 2214,
  "ource": 2215,
  "me and ": 2216,
  "30 ": 2217,
  "ed a": 2218,
  "Bi": 2219,
  "real": 2220,
  "Cen": 2221,
  "01": 2222,
  "Res": 2223,
  " coun": 2224,
  " since ": 2225,
  "F ": 2226,
  "gree": 2227,
  "rie": 2228,
  "must": 2229,
  "fer ": 2230,
  "on a ": 2231,
  "lay ": 2232,
  "near": 2233,
  " begin": 2234,
  "1.": 2235,
  "It is ": 2236,
  "I am": 2237,
  "acti": 2238,
  "wri": 2239,
  " season": 2240,
  "depen": 2241,
  "yer ": 2242,
  "his a": 2243,
  "isted ": 2244,
  "set ": 2245,
  " said ": 2246,
  "50": 2247,
  "information ": 2248,
  "rence": 2249,
  " provide ": 2250,
  "ining ": 2251,
  "AN": 2252,
  "eck ": 2253,
  "rite": 2254,
  "-b": 2255,
  "es to": 2256,
  " fin": 2257,
  "All": 2258,
  "anti": 2259,
  "Au": 2260,
  "always ": 2261,
  " off ": 2262,
  "gh the ": 2263,
  "App": 2264,
  " she ": 2265,
  " share": 2266,
  "anc": 2267,
  "ed at ": 2268,
  "Comp": 2269,
  " there ": 2270,
  ".com": 2271,
  "s, w": 2272,
  "Ri": 2273,
  "impro": 2274,
  "I was ": 2275,
  "en, ": 2276,
  "tical ": 2277,
  "key": 2278,
  "flow": 2279,
  "s, s": 2280,
  "might ": 2281,
  "[": 2282,
  " a few ": 2283,
  ". In": 2284,
  ". This": 2285,
  "nment ": 2286,
  "ation and ": 2287,
  "studi": 2288,
  "ures": 2289,
  "Gi": 2290,
  ".m": 2291,
  " School": 2292,
  "under ": 2293,
  "lass": 2294,
  "Pe": 2295,
  "es are ": 2296,
  "ittle": 2297,
  "0-": 2298,
  "rack": 2299,
  " fun": 2300,
  "got": 2301,
  "ations ": 2302,
  "late ": 2303,
  "s. The": 2304,
  " small": 2305,
  "ossible": 2306,
  "known": 2307,
  "employ": 2308,
  "]": 2309,
  "ital ": 2310,
  " cas": 2311,
  "2018": 2312,
  " competi": 2313,
  "opy": 2314,
  "Inter": 2315,
  " website": 2316,
  "ublic": 2317,
  "name": 2318,
  "increa": 2319,
  "ed the": 2320,
  "everal ": 2321,
  " big": 2322,
  " want ": 2323,
  "ossi": 2324,
  "ures ": 2325,
  "money": 2326,
  "exten": 2327,
  "associ": 2328,
  " color": 2329,
  "mess": 2330,
  " close": 2331,
  "offe": 2332,
  "s have ": 2333,
  "dai": 2334,
  "ky": 2335,
  "Pres": 2336,
  "look ": 2337,
  "an, ": 2338,
  "stand": 2339,
  "I\u2019m ": 2340,
  "in, ": 2341,
  " price": 2342,
  "account": 2343,
  " away": 2344,
  " body": 2345,
  "-f": 2346,
  "100": 2347,
  "irm": 2348,
  " the best ": 2349,
  "Do ": 2350,
  "quality": 2351,
  ".\nIn ": 2352,
  ".\nThis ": 2353,
  "AR": 2354,
  "need to": 2355,
  "Dep": 2356,
  "given": 2357,
  "Por": 2358,
  "\u20ac": 2359,
  "Heart": 2360,
  "Mary": 2361,
  "require": 2362,
  " comple": 2363,
  "that the": 2364,
  "uro": 2365,
  "Our ": 2366,
  "\u2019ve ": 2367,
  "s it ": 2368,
  "Tra": 2369,
  " few": 2370,
  " cal": 2371,
  "ham": 2372,
  "ym": 2373,
  "gal": 2374,
  " feel": 2375,
  " func": 2376,
  "My ": 2377,
  " process": 2378,
  "2.": 2379,
  "read ": 2380,
  "on to": 2381,
  "opport": 2382,
  "mix": 2383,
  "Fri": 2384,
  "ften ": 2385,
  " wonder": 2386,
  "40": 2387,
  "IS": 2388,
  " clas": 2389,
  " auto": 2390,
  "quar": 2391,
  "ux": 2392,
  "guide": 2393,
  "lax": 2394,
  "-1": 2395,
  "acces": 2396,
  ". I": 2397,
  ", co": 2398,
  "14": 2399,
  "ured": 2400,
  "including": 2401,
  "mean": 2402,
  "99": 2403,
  "change ": 2404,
  "000 ": 2405,
  "local": 2406,
  "during": 2407,
  " found ": 2408,
  "door": 2409,
  "years ": 2410,
  "New": 2411,
  "ting ": 2412,
  " and a": 2413,
  "ung ": 2414,
  "50 ": 2415,
  "1, ": 2416,
  "resta": 2417,
  " prot": 2418,
  " sho": 2419,
  "s of the ": 2420,
  "redi": 2421,
  "econd": 2422,
  ". If ": 2423,
  "little": 2424,
  "istic": 2425,
  "mic ": 2426,
  "mount": 2427,
  "on a": 2428,
  "you have": 2429,
  ", be": 2430,
  "lement": 2431,
  "You can ": 2432,
  " to do": 2433,
  "ready": 2434,
  "dig": 2435,
  "ero": 2436,
  "stro": 2437,
  ", su": 2438,
  "ball": 2439,
  "next": 2440,
  " without ": 2441,
  " sure ": 2442,
  " ten": 2443,
  "seri": 2444,
  "onship": 2445,
  "mal ": 2446,
  " and a ": 2447,
  "s, t": 2448,
  " tw": 2449,
  "ed by": 2450,
  "se and ": 2451,
  "ished": 2452,
  "irc": 2453,
  " skin": 2454,
  "ression": 2455,
  "urb": 2456,
  "rist": 2457,
  "s, a": 2458,
  "term": 2459,
  " type": 2460,
  "ital": 2461,
  "eld ": 2462,
  "too ": 2463,
  "nar": 2464,
  " come ": 2465,
  "denti": 2466,
  "United ": 2467,
  " abo": 2468,
  ". He": 2469,
  "envi": 2470,
  "ronment": 2471,
  " tu": 2472,
  "include ": 2473,
  "ching ": 2474,
  "El": 2475,
  "2017": 2476,
  "yar": 2477,
  "mill": 2478,
  "reci": 2479,
  "gl": 2480,
  " soft": 2481,
  "next ": 2482,
  "kill": 2483,
  "ler ": 2484,
  " class": 2485,
  " sig": 2486,
  "step": 2487,
  "tion, ": 2488,
  "uran": 2489,
  "ro ": 2490,
  "graph": 2491,
  " such ": 2492,
  " because": 2493,
  "bili": 2494,
  "it was ": 2495,
  "ly to ": 2496,
  "Oc": 2497,
  " bit": 2498,
  "research": 2499,
  " the best": 2500,
  "Mon": 2501,
  "vehic": 2502,
  "ve, ": 2503,
  " particip": 2504,
  " wri": 2505,
  "sio": 2506,
  "Lea": 2507,
  "order ": 2508,
  " secur": 2509,
  " works": 2510,
  "living": 2511,
  " Sp": 2512,
  "ittle ": 2513,
  "struct": 2514,
  " being": 2515,
  "I have": 2516,
  "hr": 2517,
  " training": 2518,
  "zed ": 2519,
  "today": 2520,
  " put ": 2521,
  "ES": 2522,
  " ind": 2523,
  "ed for ": 2524,
  "the most": 2525,
  "ity and ": 2526,
  "must ": 2527,
  "rating": 2528,
  "IN": 2529,
  "never": 2530,
  "lia": 2531,
  " country": 2532,
  "got ": 2533,
  "ey are": 2534,
  "' ": 2535,
  "number of ": 2536,
  " was a": 2537,
  "Our": 2538,
  "environment": 2539,
  "music": 2540,
  " offe": 2541,
  "rather ": 2542,
  "Your ": 2543,
  "eature": 2544,
  "2, ": 2545,
  "Counc": 2546,
  "lic ": 2547,
  "out of ": 2548,
  "regi": 2549,
  " benef": 2550,
  "Un": 2551,
  " bar": 2552,
  "keep ": 2553,
  "stor": 2554,
  "nger ": 2555,
  "20 ": 2556,
  "With": 2557,
  "need to ": 2558,
  "12 ": 2559,
  " pas": 2560,
  ", o": 2561,
  "general": 2562,
  " was a ": 2563,
  "meas": 2564,
  "s part": 2565,
  " want to ": 2566,
  "life ": 2567,
  "ver the ": 2568,
  " building": 2569,
  " available": 2570,
  "lb": 2571,
  "ably": 2572,
  "lege": 2573,
  "cular ": 2574,
  "ata ": 2575,
  " ori": 2576,
  "sonal": 2577,
  "review": 2578,
  "Americ": 2579,
  "you have ": 2580,
  "link": 2581,
  " consu": 2582,
  "Ed": 2583,
  " bro": 2584,
  "-c": 2585,
  "don": 2586,
  "done": 2587,
  "U.S": 2588,
  "On ": 2589,
  " pict": 2590,
  "ject ": 2591,
  "One": 2592,
  "top ": 2593,
  "dam": 2594,
  "s on": 2595,
  "s will": 2596,
  "hole": 2597,
  "eu": 2598,
  "method": 2599,
  ". He ": 2600,
  " fil": 2601,
  "fication": 2602,
  "image": 2603,
  "..\n": 2604,
  " cent": 2605,
  "tool": 2606,
  "ute ": 2607,
  "..": 2608,
  "At": 2609,
  "pot": 2610,
  "es that ": 2611,
  ") and ": 2612,
  "individual": 2613,
  "issue": 2614,
  "Le": 2615,
  " within": 2616,
  "cyc": 2617,
  "ulation": 2618,
  " cr": 2619,
  "gine": 2620,
  ", with ": 2621,
  " often ": 2622,
  " several ": 2623,
  "goal": 2624,
  "ard ": 2625,
  "us. ": 2626,
  "ry and ": 2627,
  "mili": 2628,
  "Br": 2629,
  "him ": 2630,
  "play ": 2631,
  "pecial ": 2632,
  " contact ": 2633,
  " bott": 2634,
  "ef ": 2635,
  "3, ": 2636,
  "Air": 2637,
  "tai": 2638,
  " pay": 2639,
  "I have ": 2640,
  " try": 2641,
  " something ": 2642,
  " beca": 2643,
  "hes": 2644,
  " the first ": 2645,
  "about the ": 2646,
  " tur": 2647,
  "At ": 2648,
  " same": 2649,
  "th of ": 2650,
  " service ": 2651,
  "zing ": 2652,
  "ince": 2653,
  "online ": 2654,
  "during ": 2655,
  "may be ": 2656,
  " past": 2657,
  "owner": 2658,
  "nect": 2659,
  " tal": 2660,
  "ed on ": 2661,
  "are not ": 2662,
  "he was ": 2663,
  "phone": 2664,
  "TE": 2665,
  "O ": 2666,
  " Ser": 2667,
  " typ": 2668,
  "east": 2669,
  "bra": 2670,
  "nufact": 2671,
  "omm": 2672,
  ", if ": 2673,
  " below": 2674,
  "leader": 2675,
  "cess ": 2676,
  "s? ": 2677,
  "alled ": 2678,
  " present": 2679,
  "ides ": 2680,
  " full": 2681,
  " why ": 2682,
  "lated ": 2683,
  " parent": 2684,
  "Wi": 2685,
  "sful": 2686,
  " family ": 2687,
  "After": 2688,
  "mone": 2689,
  ". You ": 2690,
  "s who ": 2691,
  "rator": 2692,
  "ties": 2693,
  "Ber": 2694,
  "urge": 2695,
  "7, ": 2696,
  "stat": 2697,
  " set ": 2698,
  "disp": 2699,
  "ditional": 2700,
  "ve the": 2701,
  "large": 2702,
  "s so ": 2703,
  "mine": 2704,
  "Ne": 2705,
  " check": 2706,
  "th, ": 2707,
  "ray": 2708,
  "strate": 2709,
  " prob": 2710,
  "s, the ": 2711,
  "es with": 2712,
  "da ": 2713,
  "s or": 2714,
  "Wil": 2715,
  "has a ": 2716,
  " beli": 2717,
  "ak ": 2718,
  "ften": 2719,
  "cade": 2720,
  "Of": 2721,
  "ment, ": 2722,
  " bring": 2723,
  "government": 2724,
  " page": 2725,
  "y, and ": 2726,
  "tern": 2727,
  "move": 2728,
  "o and ": 2729,
  " women": 2730,
  "expl": 2731,
  "getting ": 2732,
  "'ve ": 2733,
  "Gro": 2734,
  "struction": 2735,
  "May": 2736,
  "rand ": 2737,
  "ating ": 2738,
  " travel": 2739,
  "tooth": 2740,
  "ma ": 2741,
  "ild ": 2742,
  "tical": 2743,
  "mall ": 2744,
  " skill": 2745,
  "might": 2746,
  " coo": 2747,
  "deter": 2748,
  "bre": 2749,
  "ecome": 2750,
  "assist": 2751,
  " prac": 2752,
  " still": 2753,
  "chedu": 2754,
  "Op": 2755,
  "here are ": 2756,
  "sent ": 2757,
  " flow": 2758,
  " clear": 2759,
  "activi": 2760,
  "'re ": 2761,
  "sible ": 2762,
  ".\n\"": 2763,
  "wide": 2764,
  "glob": 2765,
  " full ": 2766,
  "Pi": 2767,
  "pproach": 2768,
  "logy ": 2769,
  "scrib": 2770,
  "\u00e9": 2771,
  "Ci": 2772,
  "little ": 2773,
  "nea": 2774,
  "leng": 2775,
  "vant": 2776,
  "used": 2777,
  "tory": 2778,
  "ope ": 2779,
  "t the ": 2780,
  " field": 2781,
  "eating": 2782,
  "thought": 2783,
  "\u2019ll ": 2784,
  " become": 2785,
  "ries ": 2786,
  "noun": 2787,
  "nov": 2788,
  "limit": 2789,
  "ently ": 2790,
  " bur": 2791,
  "ings ": 2792,
  "Fe": 2793,
  " identi": 2794,
  "milli": 2795,
  "experien": 2796,
  "rough the ": 2797,
  "moder": 2798,
  " choice": 2799,
  "Wal": 2800,
  "ody ": 2801,
  " over the ": 2802,
  "rence ": 2803,
  "time, ": 2804,
  "199": 2805,
  "OH": 2806,
  "dump": 2807,
  "\u00e2": 2808,
  "\u00e2\u20ac": 2809,
  "M ": 2810,
  "love ": 2811,
  " webs": 2812,
  "ester": 2813,
  "live": 2814,
  "amount": 2815,
  "ween": 2816,
  "jour": 2817,
  "resi": 2818,
  " solution": 2819,
  "Mc": 2820,
  " prepa": 2821,
  "t to": 2822,
  "ce the ": 2823,
  "tead": 2824,
  " tar": 2825,
  "sequ": 2826,
  " compa": 2827,
  " beh": 2828,
  "atten": 2829,
  "gest ": 2830,
  " place ": 2831,
  "rial ": 2832,
  "Pri": 2833,
  "as well as ": 2834,
  " base": 2835,
  " foot": 2836,
  " comfort": 2837,
  "through the ": 2838,
  " audi": 2839,
  "iding": 2840,
  "ed in the ": 2841,
  "neigh": 2842,
  "urant": 2843,
  " corpo": 2844,
  "apart": 2845,
  "300": 2846,
  "ons of ": 2847,
  "ird": 2848,
  "wan": 2849,
  "pet": 2850,
  "you will ": 2851,
  " to make": 2852,
  "local ": 2853,
  " someth": 2854,
  "lion": 2855,
  "s in the": 2856,
  "ways": 2857,
  " public": 2858,
  "es, and ": 2859,
  "refer": 2860,
  "ider ": 2861,
  "Eve": 2862,
  "going": 2863,
  "s.\nThe ": 2864,
  " aver": 2865,
  "at a ": 2866,
  "tem ": 2867,
  "vement": 2868,
  "stru": 2869,
  "rated ": 2870,
  "sional ": 2871,
  "example": 2872,
  "que ": 2873,
  "early ": 2874,
  "une ": 2875,
  "ing a ": 2876,
  "National ": 2877,
  "Bar": 2878,
  "ected ": 2879,
  "makes ": 2880,
  " common": 2881,
  "staff": 2882,
  "iner": 2883,
  "lexi": 2884,
  "accom": 2885,
  " phys": 2886,
  "itch": 2887,
  ", this ": 2888,
  "animal": 2889,
  "duced": 2890,
  " school ": 2891,
  "ure of ": 2892,
  "aken": 2893,
  " copy": 2894,
  "8, ": 2895,
  " blood": 2896,
  "ternal ": 2897,
  "rub": 2898,
  " Supp": 2899,
  "Is": 2900,
  "sonal ": 2901,
  " better ": 2902,
  "value": 2903,
  "is to ": 2904,
  "etc": 2905,
  " safe": 2906,
  "represent": 2907,
  " super": 2908,
  "s as ": 2909,
  "Dis": 2910,
  " between": 2911,
  "ured ": 2912,
  "enough": 2913,
  " story": 2914,
  "emplo": 2915,
  " another ": 2916,
  "When": 2917,
  "Ga": 2918,
  "rite ": 2919,
  "Ke": 2920,
  " be a": 2921,
  " such as ": 2922,
  "return": 2923,
  "18 ": 2924,
  " character": 2925,
  "wide ": 2926,
  "ractice": 2927,
  "men ": 2928,
  "tice ": 2929,
  "dio": 2930,
  "lean": 2931,
  " feature": 2932,
  " fan": 2933,
  " total": 2934,
  "8-": 2935,
  " speak": 2936,
  "s for the ": 2937,
  "unch": 2938,
  "perfect": 2939,
  "down ": 2940,
  "These": 2941,
  "manufact": 2942,
  "s?\n": 2943,
  " another": 2944,
  "ted to": 2945,
  ".\u201d ": 2946,
  "dor": 2947,
  "size": 2948,
  "mobi": 2949,
  "No ": 2950,
  "igned": 2951,
  " community": 2952,
  "style": 2953,
  ",000 ": 2954,
  "thy": 2955,
  "duce": 2956,
  "large ": 2957,
  " possi": 2958,
  "ing, ": 2959,
  "email": 2960,
  "ationship": 2961,
  " famili": 2962,
  "point": 2963,
  "meet": 2964,
  " book ": 2965,
  "Cha": 2966,
  "ildr": 2967,
  " a new ": 2968,
  "techni": 2969,
  "IT": 2970,
  " occ": 2971,
  "hotel": 2972,
  " circ": 2973,
  "March ": 2974,
  "relax": 2975,
  "July ": 2976,
  "Thur": 2977,
  "Thurs": 2978,
  " financial ": 2979,
  "v. ": 2980,
  "mass": 2981,
  " flo": 2982,
  "ors ": 2983,
  "Qu": 2984,
  "Indi": 2985,
  "dustry": 2986,
  "road": 2987,
  "stand ": 2988,
  " working ": 2989,
  "lot of ": 2990,
  "It\u2019s ": 2991,
  "ogni": 2992,
  "ing a": 2993,
  "rema": 2994,
  " to make ": 2995,
  "ment. ": 2996,
  "multip": 2997,
  "als ": 2998,
  "book": 2999,
  "lip": 3000,
  "s can ": 3001,
  "al and ": 3002,
  "Net": 3003,
  " plant": 3004,
  " brand": 3005,
  "propri": 3006,
  " show ": 3007,
  "mot": 3008,
  " Sun": 3009,
  "matic": 3010,
  "ingle ": 3011,
  "U ": 3012,
  "location": 3013,
  "restaurant": 3014,
  "cording ": 3015,
  " Sw": 3016,
  "CN": 3017,
  "until ": 3018,
  "detail": 3019,
  " application": 3020,
  " second": 3021,
  " feel ": 3022,
  "lick ": 3023,
  "personal ": 3024,
  "having": 3025,
  "dard": 3026,
  "However": 3027,
  " pack": 3028,
  " wro": 3029,
  "elie": 3030,
  " compu": 3031,
  "upport ": 3032,
  "cond ": 3033,
  "s, but ": 3034,
  " spe": 3035,
  ". A ": 3036,
  "z ": 3037,
  "acher": 3038,
  " along": 3039,
  "3.": 3040,
  "effort": 3041,
  "it's ": 3042,
  "dom": 3043,
  "half": 3044,
  "announ": 3045,
  "rew": 3046,
  " wall": 3047,
  "mon ": 3048,
  "ed with": 3049,
  "race": 3050,
  " say ": 3051,
  "Janu": 3052,
  "icket": 3053,
  " water ": 3054,
  "doing": 3055,
  "relationship": 3056,
  "gui": 3057,
  "end of ": 3058,
  ". And ": 3059,
  "Ban": 3060,
  ",\" ": 3061,
  "ates ": 3062,
  "Af": 3063,
  "run ": 3064,
  "evol": 3065,
  " play ": 3066,
  "Cent": 3067,
  "veni": 3068,
  "mination": 3069,
  "investig": 3070,
  " buy ": 3071,
  " tab": 3072,
  "s!\n": 3073,
  "+": 3074,
  " clo": 3075,
  "able to": 3076,
  "Euro": 3077,
  " by the": 3078,
  "reach": 3079,
  "hort": 3080,
  "s we ": 3081,
  "bb": 3082,
  "mend": 3083,
  " prin": 3084,
  "vision": 3085,
  "vor": 3086,
  "percent": 3087,
  "grea": 3088,
  " team ": 3089,
  "st and ": 3090,
  "ough ": 3091,
  "us, ": 3092,
  " future": 3093,
  "rior": 3094,
  " special": 3095,
  " of this ": 3096,
  "ash ": 3097,
  "ford": 3098,
  "bilit": 3099,
  "they are": 3100,
  "ward ": 3101,
  "ult ": 3102,
  "India": 3103,
  "chas": 3104,
  "ters ": 3105,
  "ability": 3106,
  "ury": 3107,
  " current ": 3108,
  "90": 3109,
  "rad": 3110,
  "Please ": 3111,
  " all the": 3112,
  " approach": 3113,
  "charge": 3114,
  "rating ": 3115,
  "Mor": 3116,
  "through the": 3117,
  " text": 3118,
  "bac": 3119,
  "Nove": 3120,
  "neg": 3121,
  " supply": 3122,
  "Code": 3123,
  " purp": 3124,
  "yl": 3125,
  " put": 3126,
  " contract": 3127,
  "Pr": 3128,
  "effici": 3129,
  "you\u2019re ": 3130,
  " conside": 3131,
  "standard": 3132,
  "ront": 3133,
  "net ": 3134,
  "\u2019ve": 3135,
  "reme": 3136,
  " cra": 3137,
  "always": 3138,
  " the p": 3139,
  "give": 3140,
  "Can": 3141,
  "into the": 3142,
  "nigh": 3143,
  " bre": 3144,
  "fully ": 3145,
  "hallen": 3146,
  "ystem ": 3147,
  "hom": 3148,
  "against ": 3149,
  " wel": 3150,
  "stop": 3151,
  " often": 3152,
  "inj": 3153,
  "hosp": 3154,
  "ents ": 3155,
  "charg": 3156,
  "ously ": 3157,
  "ously": 3158,
  "milar": 3159,
  " sol": 3160,
  "tion and ": 3161,
  "encour": 3162,
  "V ": 3163,
  "due": 3164,
  "CA": 3165,
  "ury ": 3166,
  "have a": 3167,
  " pati": 3168,
  " pol": 3169,
  "16 ": 3170,
  " board": 3171,
  "quite": 3172,
  "quarter": 3173,
  " collection": 3174,
  "9, ": 3175,
  "co ": 3176,
  "lege ": 3177,
  "stay ": 3178,
  " control": 3179,
  "personal": 3180,
  "Cor": 3181,
  "ans ": 3182,
  "esti": 3183,
  "dog": 3184,
  "industry": 3185,
  "vert": 3186,
  "celeb": 3187,
  "ly and ": 3188,
  "it, ": 3189,
  "If you ": 3190,
  "tire": 3191,
  " break": 3192,
  "rum": 3193,
  "variety": 3194,
  "ch, ": 3195,
  ". But ": 3196,
  "ant to": 3197,
  " proble": 3198,
  " the s": 3199,
  "least ": 3200,
  "quali": 3201,
  " press": 3202,
  "room ": 3203,
  "2-": 3204,
  " appro": 3205,
  "activ": 3206,
  " sy": 3207,
  "lead": 3208,
  "urther ": 3209,
  "-bas": 3210,
  "host": 3211,
  ". They ": 3212,
  "you to ": 3213,
  "outh ": 3214,
  "ation of ": 3215,
  "hood": 3216,
  "accu": 3217,
  "teri": 3218,
  "recogni": 3219,
  " connect": 3220,
  "atch ": 3221,
  "sia": 3222,
  " practice": 3223,
  "appropri": 3224,
  "One ": 3225,
  "email ": 3226,
  " treatment": 3227,
  "mode": 3228,
  "Mr": 3229,
  "AS": 3230,
  "docu": 3231,
  " air": 3232,
  "\u043e": 3233,
  " provi": 3234,
  "ER": 3235,
  "development": 3236,
  "don't ": 3237,
  "hole ": 3238,
  ". So": 3239,
  " search": 3240,
  "ably ": 3241,
  "heal": 3242,
  "ession": 3243,
  "-to": 3244,
  " commit": 3245,
  "alth ": 3246,
  "An ": 3247,
  "rust": 3248,
  "ference": 3249,
  "times ": 3250,
  "hing ": 3251,
  "ley": 3252,
  "Thank": 3253,
  "mea": 3254,
  "tee": 3255,
  " soon": 3256,
  "ve and ": 3257,
  "gram ": 3258,
  "s to the ": 3259,
  "quality ": 3260,
  " position": 3261,
  " called ": 3262,
  "s all": 3263,
  "There are ": 3264,
  "disco": 3265,
  "Goog": 3266,
  "work ": 3267,
  "4-": 3268,
  ". You": 3269,
  "ann": 3270,
  "ollo": 3271,
  "opportuni": 3272,
  "s you ": 3273,
  "regar": 3274,
  " fig": 3275,
  "US ": 3276,
  "seen": 3277,
  "sepa": 3278,
  "Gene": 3279,
  "Fl": 3280,
  "zi": 3281,
  "don\u2019t": 3282,
  "during the ": 3283,
  " prog": 3284,
  "childr": 3285,
  "to work": 3286,
  ", they ": 3287,
  "rol ": 3288,
  "lete ": 3289,
  "Depart": 3290,
  "the in": 3291,
  "bag": 3292,
  "ity and": 3293,
  "bio": 3294,
  "4, ": 3295,
  "descrip": 3296,
  " wine": 3297,
  " wire": 3298,
  "Kore": 3299,
  "riv": 3300,
  "self ": 3301,
  "s! ": 3302,
  "ations": 3303,
  "lock": 3304,
  "cord": 3305,
  "uct ": 3306,
  "especi": 3307,
  "#": 3308,
  "gue": 3309,
  " way to ": 3310,
  "qua": 3311,
  "Fir": 3312,
  "left": 3313,
  "Apr": 3314,
  " is s": 3315,
  " boo": 3316,
  " a few": 3317,
  "lent ": 3318,
  "s; ": 3319,
  " clos": 3320,
  "request": 3321,
  " poten": 3322,
  "or of ": 3323,
  "lier": 3324,
  "ed that ": 3325,
  "ummer": 3326,
  "ding the ": 3327,
  ".\nWe ": 3328,
  "Ka": 3329,
  "main ": 3330,
  " purcha": 3331,
  "enough ": 3332,
  " challen": 3333,
  "rican": 3334,
  "about the": 3335,
  "medic": 3336,
  "arri": 3337,
  "defin": 3338,
  "store": 3339,
  "Char": 3340,
  "legal": 3341,
  "in S": 3342,
  "everal": 3343,
  " oil": 3344,
  "indepen": 3345,
  "AT": 3346,
  " bat": 3347,
  "appoint": 3348,
  "nor ": 3349,
  "IC": 3350,
  "research ": 3351,
  "highly ": 3352,
  "ly. ": 3353,
  "TA": 3354,
  "mecha": 3355,
  "machine": 3356,
  "Get ": 3357,
  "simple ": 3358,
  "ircu": 3359,
  " conveni": 3360,
  " surge": 3361,
  "deral ": 3362,
  "mg": 3363,
  "nior ": 3364,
  "add": 3365,
  "I'": 3366,
  "kit": 3367,
  " benefit": 3368,
  "\u2019re": 3369,
  "G ": 3370,
  " prop": 3371,
  ".\nI ": 3372,
  "ort": 3373,
  "immedi": 3374,
  "dence": 3375,
  "eight ": 3376,
  "major": 3377,
  " be a ": 3378,
  "resp": 3379,
  "\u2019ll": 3380,
  "25": 3381,
  "hon": 3382,
  "teacher": 3383,
  " the same": 3384,
  "things ": 3385,
  " four": 3386,
  "RE": 3387,
  "rise": 3388,
  "various ": 3389,
  "on that ": 3390,
  ". For ": 3391,
  "lid": 3392,
  "alway": 3393,
  "dance": 3394,
  "201": 3395,
  " tea": 3396,
  "American": 3397,
  ") and": 3398,
  " of their ": 3399,
  "OR": 3400,
  "has a": 3401,
  "cie": 3402,
  "usually ": 3403,
  " pleas": 3404,
  "expan": 3405,
  "State": 3406,
  "TI": 3407,
  "number of": 3408,
  "14 ": 3409,
  "EN": 3410,
  "ends ": 3411,
  "lik": 3412,
  "Just": 3413,
  " told ": 3414,
  "hl": 3415,
  "min ": 3416,
  "J ": 3417,
  "elder": 3418,
  "f-": 3419,
  " condition": 3420,
  "data ": 3421,
  "minut": 3422,
  "K ": 3423,
  "tory ": 3424,
  " belie": 3425,
  "Chris": 3426,
  "ware ": 3427,
  "vent ": 3428,
  "s\u2019": 3429,
  "s\u2019 ": 3430,
  " social ": 3431,
  "1-": 3432,
  "NO": 3433,
  "Octo": 3434,
  " as the": 3435,
  "rug": 3436,
  "resh": 3437,
  "alk ": 3438,
  "4.": 3439,
  "already": 3440,
  "almost ": 3441,
  "@": 3442,
  "the right": 3443,
  " cut": 3444,
  "ment and ": 3445,
  "rently ": 3446,
  "ed and": 3447,
  "drin": 3448,
  "Ph": 3449,
  ", sa": 3450,
  "ing that ": 3451,
  " successful": 3452,
  "simple": 3453,
  "I would ": 3454,
  "rown": 3455,
  " bring ": 3456,
  "s;": 3457,
  "to take ": 3458,
  "age, ": 3459,
  "s about ": 3460,
  " combi": 3461,
  "AC": 3462,
  "us a": 3463,
  "million ": 3464,
  " to see ": 3465,
  "Ab": 3466,
  " item": 3467,
  "influ": 3468,
  "rout": 3469,
  "ly and": 3470,
  ".\" ": 3471,
  " contain": 3472,
  "Chin": 3473,
  " phone": 3474,
  "you to": 3475,
  " source": 3476,
  "children ": 3477,
  " the t": 3478,
  "Presi": 3479,
  "ton, ": 3480,
  "living ": 3481,
  "est. ": 3482,
  "lot of": 3483,
  "ity in ": 3484,
  "China": 3485,
  " circu": 3486,
  "Port": 3487,
  "his s": 3488,
  "Gre": 3489,
  "itor": 3490,
  "acros": 3491,
  "alread": 3492,
  "s were ": 3493,
  "In the ": 3494,
  "second ": 3495,
  "s, f": 3496,
  "exer": 3497,
  "resident": 3498,
  "achin": 3499,
  " indic": 3500,
  "date ": 3501,
  "s will ": 3502,
  " applic": 3503,
  " turn": 3504,
  "uthor": 3505,
  "in the ": 3506,
  "performance": 3507,
  "Coun": 3508,
  "actually ": 3509,
  "on-": 3510,
  "ing and ": 3511,
  "vered": 3512,
  "organization": 3513,
  " five ": 3514,
  "exact": 3515,
  " const": 3516,
  "have the ": 3517,
  "s avail": 3518,
  "uction ": 3519,
  " surp": 3520,
  "exist": 3521,
  "Center": 3522,
  "normal": 3523,
  "2019": 3524,
  "examp": 3525,
  " to your ": 3526,
  "enhan": 3527,
  "imag": 3528,
  "lab": 3529,
  "s.\nS": 3530,
  "later": 3531,
  " without": 3532,
  "voc": 3533,
  "mart": 3534,
  "s at the ": 3535,
  "Joh": 3536,
  "vat": 3537,
  "describ": 3538,
  "War": 3539,
  "the A": 3540,
  " ticket": 3541,
  "active": 3542,
  "agent": 3543,
  "Manage": 3544,
  "les and ": 3545,
  "Busi": 3546,
  ". She ": 3547,
  "1,": 3548,
  " p.m": 3549,
  "-p": 3550,
  "period": 3551,
  "Fran": 3552,
  "age of ": 3553,
  " some of ": 3554,
  "do not ": 3555,
  "ledge": 3556,
  "vices ": 3557,
  ", pro": 3558,
  " situ": 3559,
  "inten": 3560,
  "big ": 3561,
  " fla": 3562,
  " choose": 3563,
  "themsel": 3564,
  "Win": 3565,
  "Now": 3566,
  "s, but": 3567,
  " tell ": 3568,
  "ria": 3569,
  "hope": 3570,
  "nific": 3571,
  "fering": 3572,
  "s they ": 3573,
  ". But": 3574,
  "technology": 3575,
  " paper": 3576,
  "understand": 3577,
  "everyone": 3578,
  " four ": 3579,
  "econo": 3580,
  "essional ": 3581,
  "left ": 3582,
  "until": 3583,
  " sale": 3584,
  "ity to": 3585,
  "ecuti": 3586,
  " watch": 3587,
  "unique": 3588,
  " further ": 3589,
  "ky ": 3590,
  " commer": 3591,
  ".\nA ": 3592,
  "happen": 3593,
  "iting ": 3594,
  " fore": 3595,
  "Inst": 3596,
  ", such": 3597,
  "IP": 3598,
  "Cho": 3599,
  " special ": 3600,
  "mod": 3601,
  "Well": 3602,
  ", for": 3603,
  "ters": 3604,
  "Cour": 3605,
  "visi": 3606,
  "AL": 3607,
  "Ama": 3608,
  "-up": 3609,
  "excel": 3610,
  "ingle": 3611,
  "reading": 3612,
  " should be ": 3613,
  " wide ": 3614,
  "held": 3615,
  "loud": 3616,
  " code": 3617,
  "ecret": 3618,
  " bag": 3619,
  "Stre": 3620,
  "allo": 3621,
  ". N": 3622,
  "UR": 3623,
  "Of ": 3624,
  " sound ": 3625,
  "_": 3626,
  "version": 3627,
  " cover": 3628,
  "re-": 3629,
  "Europe": 3630,
  " partner": 3631,
  "me to ": 3632,
  "13": 3633,
  "that is ": 3634,
  "American ": 3635,
  "kid": 3636,
  ", to ": 3637,
  "roduction": 3638,
  "Inc": 3639,
  "s-": 3640,
  "ought ": 3641,
  "ilt": 3642,
  "ither": 3643,
  "already ": 3644,
  "row ": 3645,
  "nical ": 3646,
  "experience ": 3647,
  "you will": 3648,
  "check ": 3649,
  "ective ": 3650,
  "pping": 3651,
  "After ": 3652,
  "s)": 3653,
  "exerc": 3654,
  ". They": 3655,
  "Ins": 3656,
  "learn ": 3657,
  "does not ": 3658,
  "form ": 3659,
  "regular": 3660,
  "peration": 3661,
  " appli": 3662,
  "alled": 3663,
  "ished ": 3664,
  "start ": 3665,
  "pirit": 3666,
  "decision": 3667,
  "5-": 3668,
  "in an ": 3669,
  "ever, ": 3670,
  "ors": 3671,
  " suit": 3672,
  "care ": 3673,
  "ya": 3674,
  "les, ": 3675,
  "loa": 3676,
  "th and ": 3677,
  "guest": 3678,
  "son, ": 3679,
  "evalu": 3680,
  "pring": 3681,
  "Im": 3682,
  "abilit": 3683,
  "nate ": 3684,
  "answer": 3685,
  "\u2019s a ": 3686,
  " follo": 3687,
  " sign": 3688,
  "the last ": 3689,
  " whether ": 3690,
  "ashing": 3691,
  " bath": 3692,
  "mong": 3693,
  "artist": 3694,
  "going to ": 3695,
  " firm": 3696,
  "us.\n": 3697,
  " task": 3698,
  "ference ": 3699,
  "it\u2019s": 3700,
  "this a": 3701,
  "s ago": 3702,
  "100 ": 3703,
  "nalys": 3704,
  "28": 3705,
  " topic": 3706,
  "Dr. ": 3707,
  "cher ": 3708,
  "ji": 3709,
  "den ": 3710,
  " all of ": 3711,
  "fall": 3712,
  "important ": 3713,
  "blish": 3714,
  " box": 3715,
  "ship ": 3716,
  " comm": 3717,
  "ending ": 3718,
  "accor": 3719,
  "stall": 3720,
  "W ": 3721,
  "is that ": 3722,
  " servic": 3723,
  "required": 3724,
  "langu": 3725,
  "human": 3726,
  "have been ": 3727,
  "network": 3728,
  " ste": 3729,
  "meeting": 3730,
  "accept": 3731,
  " a new": 3732,
  "les. ": 3733,
  "s, c": 3734,
  "gua": 3735,
  ".\nI": 3736,
  "perat": 3737,
  "opular": 3738,
  "ense": 3739,
  "to find ": 3740,
  "needed": 3741,
  " tit": 3742,
  ",\"": 3743,
  " of your ": 3744,
  "--": 3745,
  ". T": 3746,
  "history": 3747,
  " schedu": 3748,
  " world ": 3749,
  "holi": 3750,
  " office": 3751,
  ".\nIn": 3752,
  "NA": 3753,
  ", an ": 3754,
  "atur": 3755,
  "70": 3756,
  "urance": 3757,
  "role": 3758,
  ". When ": 3759,
  "jud": 3760,
  "the C": 3761,
  "ad, ": 3762,
  "design ": 3763,
  "achie": 3764,
  "-t": 3765,
  "Wed": 3766,
  " share ": 3767,
  "Met": 3768,
  "January ": 3769,
  "high-": 3770,
  "ically": 3771,
  "lux": 3772,
  "bour": 3773,
  "s show": 3774,
  "senior ": 3775,
  ",\u201d ": 3776,
  ".\n\u201c": 3777,
  "dem": 3778,
  " is not ": 3779,
  "Christ": 3780,
  "management": 3781,
  "fy ": 3782,
  "15 ": 3783,
  "record": 3784,
  "ja": 3785,
  "ror": 3786,
  "yste": 3787,
  "s like ": 3788,
  "ed by the ": 3789,
  "hite ": 3790,
  "munic": 3791,
  " prov": 3792,
  " sit": 3793,
  "matter": 3794,
  "bit ": 3795,
  "ww": 3796,
  "once ": 3797,
  "Hu": 3798,
  "neces": 3799,
  "rali": 3800,
  "CE": 3801,
  " sense": 3802,
  "hold": 3803,
  "Gr": 3804,
  " town": 3805,
  "understan": 3806,
  "5.": 3807,
  " front": 3808,
  "(S": 3809,
  "gradu": 3810,
  "ution ": 3811,
  " spa": 3812,
  "ks to ": 3813,
  "ignific": 3814,
  "media": 3815,
  "zen": 3816,
  "mazing": 3817,
  "inspi": 3818,
  "instead": 3819,
  " oc": 3820,
  "explo": 3821,
  "Es": 3822,
  "multi": 3823,
  "19 ": 3824,
  "rently": 3825,
  "game ": 3826,
  " beautiful": 3827,
  "given ": 3828,
  "ams": 3829,
  "Hol": 3830,
  "to an ": 3831,
  "ribut": 3832,
  " occur": 3833,
  " talk": 3834,
  "employe": 3835,
  "running": 3836,
  "Her": 3837,
  "John ": 3838,
  "drop": 3839,
  " wide": 3840,
  "Washing": 3841,
  " taken": 3842,
  "reven": 3843,
  " complete ": 3844,
  "Tri": 3845,
  " for an ": 3846,
  "recently": 3847,
  "Cam": 3848,
  "yard": 3849,
  "Des": 3850,
  "equip": 3851,
  "roduc": 3852,
  "Je": 3853,
  "\u2014 ": 3854,
  "serv": 3855,
  "yourself": 3856,
  "three": 3857,
  "s from the ": 3858,
  "knowledge": 3859,
  " small ": 3860,
  " short": 3861,
  "fied ": 3862,
  " whole ": 3863,
  " contin": 3864,
  "s by": 3865,
  ", con": 3866,
  " offer ": 3867,
  "easy": 3868,
  " is not": 3869,
  " blog": 3870,
  "ON": 3871,
  "Cli": 3872,
  "Tru": 3873,
  "million": 3874,
  "s who": 3875,
  " bud": 3876,
  "strong": 3877,
  "-a": 3878,
  " is f": 3879,
  "energy": 3880,
  "2014": 3881,
  "rong ": 3882,
  "innov": 3883,
  "tely ": 3884,
  "addres": 3885,
  "as well ": 3886,
  "hos": 3887,
  "holder": 3888,
  " if you ": 3889,
  "eeling": 3890,
  " author": 3891,
  "apo": 3892,
  "similar": 3893,
  " tak": 3894,
  " spot": 3895,
  "intro": 3896,
  "ustain": 3897,
  "test ": 3898,
  " so that ": 3899,
  "leep": 3900,
  "lated": 3901,
  "member ": 3902,
  "ossible ": 3903,
  " princip": 3904,
  "ritten": 3905,
  ". It is ": 3906,
  "resist": 3907,
  "us to ": 3908,
  "onent": 3909,
  "toward": 3910,
  "88": 3911,
  "7.": 3912,
  " based ": 3913,
  " single": 3914,
  "associat": 3915,
  "pair": 3916,
  "revious ": 3917,
  "pm": 3918,
  "22": 3919,
  "udy ": 3920,
  "nel ": 3921,
  "difficul": 3922,
  "urnit": 3923,
  "Cont": 3924,
  "effective": 3925,
  " sea": 3926,
  "This is ": 3927,
  "mate ": 3928,
  "60": 3929,
  "ashi": 3930,
  "ney ": 3931,
  "urther": 3932,
  "duce ": 3933,
  "releas": 3934,
  " comb": 3935,
  "natural": 3936,
  "stre": 3937,
  " appea": 3938,
  "hn": 3939,
  "iling": 3940,
  " sec": 3941,
  "in their ": 3942,
  "ark": 3943,
  "market ": 3944,
  "the new ": 3945,
  "recommend": 3946,
  " walk": 3947,
  "ouch": 3948,
  "chit": 3949,
  " past ": 3950,
  "open ": 3951,
  "ask ": 3952,
  "that they ": 3953,
  " consist": 3954,
  " cours": 3955,
  " content": 3956,
  "use the ": 3957,
  " city": 3958,
  "Is ": 3959,
  "his is ": 3960,
  "nice": 3961,
  " believe": 3962,
  ", for ": 3963,
  "includes ": 3964,
  " in your": 3965,
  "Eng": 3966,
  "H ": 3967,
  "hort ": 3968,
  "aper ": 3969,
  "ME": 3970,
  "His ": 3971,
  "Peop": 3972,
  " piece": 3973,
  "% of ": 3974,
  "adult": 3975,
  ". She": 3976,
  " para": 3977,
  "government ": 3978,
  "t, the ": 3979,
  "medical ": 3980,
  "ficer": 3981,
  "moo": 3982,
  " food ": 3983,
  "ted the ": 3984,
  "tential ": 3985,
  "uccess": 3986,
  "meal": 3987,
  " traditional ": 3988,
  "U.S. ": 3989,
  "TV": 3990,
  " bac": 3991,
  "Nat": 3992,
  " such a": 3993,
  "Most": 3994,
  "kers ": 3995,
  "MI": 3996,
  "Glo": 3997,
  "musc": 3998,
  "More": 3999,
  " bran": 4000,
  "35 ": 4001,
  " analysi": 4002,
  "ender": 4003,
  "zo": 4004,
  "dress": 4005,
  "advant": 4006,
  "...": 4007,
  "emer": 4008,
  " call ": 4009,
  "ko": 4010,
  "cot": 4011,
  "streng": 4012,
  " partic": 4013,
  " support ": 4014,
  "al, ": 4015,
  "have been": 4016,
  "draw": 4017,
  " the first": 4018,
  "2015": 4019,
  "lai": 4020,
  " want to": 4021,
  "s) ": 4022,
  "drive": 4023,
  " camp": 4024,
  "emb": 4025,
  " property": 4026,
  "girl": 4027,
  "ately": 4028,
  "ley ": 4029,
  "ational": 4030,
  "lose ": 4031,
  "nute": 4032,
  " particular": 4033,
  "yet": 4034,
  "though ": 4035,
  "lap": 4036,
  "aniz": 4037,
  "hampi": 4038,
  "nomic": 4039,
  "latest ": 4040,
  "pace ": 4041,
  "young ": 4042,
  "You can": 4043,
  "s can be ": 4044,
  " the c": 4045,
  " potential": 4046,
  "pped ": 4047,
  "Home ": 4048,
  " fresh": 4049,
  "Gover": 4050,
  "es in": 4051,
  " career": 4052,
  "nication": 4053,
  " a good ": 4054,
  "ator": 4055,
  "money ": 4056,
  " specific ": 4057,
  " focus": 4058,
  " professional ": 4059,
  "gor": 4060,
  "Ap": 4061,
  "rab": 4062,
  "ross ": 4063,
  "Ko": 4064,
  " several": 4065,
  "rateg": 4066,
  "six": 4067,
  "Why ": 4068,
  " above": 4069,
  "yet ": 4070,
  "in-": 4071,
  "AP": 4072,
  "duced ": 4073,
  "rant ": 4074,
  "Day": 4075,
  "Wednes": 4076,
  "Fu": 4077,
  " brand ": 4078,
  "Ob": 4079,
  " write": 4080,
  "each other": 4081,
  "veri": 4082,
  "Red": 4083,
  " workshop": 4084,
  "study ": 4085,
  "hlight": 4086,
  "dating": 4087,
  " shift": 4088,
  "Back": 4089,
  "rubber": 4090,
  "Nov. ": 4091,
  " pop": 4092,
  " fl": 4093,
  "urn ": 4094,
  "80": 4095,
  "third": 4096,
  "either": 4097,
  "I think ": 4098,
  " sal": 4099,
  " plat": 4100,
  "to take": 4101,
  "08": 4102,
  "tent ": 4103,
  "s/": 4104,
  "mitt": 4105,
  "miss": 4106,
  "North ": 4107,
  "Tech": 4108,
  " over the": 4109,
  "live ": 4110,
  "I\u2019ve ": 4111,
  "done ": 4112,
  "added": 4113,
  " to help ": 4114,
  "guaran": 4115,
  " why": 4116,
  "ease": 4117,
  "evel ": 4118,
  "didn\u2019t ": 4119,
  "ages ": 4120,
  "minute": 4121,
  "least": 4122,
  "gain ": 4123,
  "increase": 4124,
  "recent ": 4125,
  "ensure ": 4126,
  "aspect": 4127,
  " single ": 4128,
  " try ": 4129,
  "ed in": 4130,
  "If you": 4131,
  " possible": 4132,
  "natural ": 4133,
  "es with ": 4134,
  " pick": 4135,
  "chitect": 4136,
  "We are ": 4137,
  "ments": 4138,
  "organiz": 4139,
  "MS": 4140,
  "cili": 4141,
  " we are ": 4142,
  " function": 4143,
  "ush ": 4144,
  "moun": 4145,
  "munication": 4146,
  ", and the ": 4147,
  "logi": 4148,
  "St. ": 4149,
  ". That": 4150,
  "micro": 4151,
  " was the": 4152,
  " following ": 4153,
  "move ": 4154,
  "dence ": 4155,
  "major ": 4156,
  "Mu": 4157,
  " finish": 4158,
  "ties, ": 4159,
  " pattern": 4160,
  "Dist": 4161,
  "I had ": 4162,
  "gives ": 4163,
  "receive": 4164,
  "incredi": 4165,
  "Mid": 4166,
  "students ": 4167,
  " writing": 4168,
  "8.": 4169,
  "desi": 4170,
  "does not": 4171,
  "range of ": 4172,
  "nice ": 4173,
  "more than": 4174,
  "Vo": 4175,
  ". For": 4176,
  "ness and ": 4177,
  "ast. ": 4178,
  " success": 4179,
  "His": 4180,
  "Jesus ": 4181,
  "\u0438": 4182,
  "\u0430": 4183,
  "ance ": 4184,
  " specific": 4185,
  " wan": 4186,
  "pping ": 4187,
  "MA": 4188,
  " confi": 4189,
  "ept ": 4190,
  "kil": 4191,
  " to have": 4192,
  "visit": 4193,
  " within ": 4194,
  "I\u2019m": 4195,
  "advert": 4196,
  " become ": 4197,
  "mini": 4198,
  "1. ": 4199,
  "apt": 4200,
  "ter, ": 4201,
  "addi": 4202,
  "June ": 4203,
  "ither ": 4204,
  "tion to ": 4205,
  "engine": 4206,
  "Dece": 4207,
  "ed for": 4208,
  " whole": 4209,
  ", as ": 4210,
  "Aust": 4211,
  "key ": 4212,
  "rio": 4213,
  "ww.": 4214,
  "ross": 4215,
  "lite": 4216,
  " there are ": 4217,
  " provided": 4218,
  "-to-": 4219,
  "took": 4220,
  "\u2019d ": 4221,
  "however": 4222,
  "April ": 4223,
  "ed.\n": 4224,
  "the other ": 4225,
  "Bro": 4226,
  "PS": 4227,
  "ower ": 4228,
  " fir": 4229,
  "dest": 4230,
  "timate": 4231,
  "University of ": 4232,
  "element": 4233,
  " signific": 4234,
  " tran": 4235,
  " feeling": 4236,
  "eye": 4237,
  " significant": 4238,
  " provides ": 4239,
  "giving ": 4240,
  "cant ": 4241,
  "ector": 4242,
  "lance": 4243,
  " purchas": 4244,
  " built": 4245,
  "thank": 4246,
  "it will": 4247,
  "Stu": 4248,
  ". There": 4249,
  "King": 4250,
  "Pol": 4251,
  "lower": 4252,
  "High": 4253,
  " table": 4254,
  " create ": 4255,
  "ing and": 4256,
  " was the ": 4257,
  "ball ": 4258,
  ", who ": 4259,
  "like to ": 4260,
  "s. This ": 4261,
  ". C": 4262,
  "his f": 4263,
  "his p": 4264,
  "ficial ": 4265,
  "entire ": 4266,
  ". Some": 4267,
  "into a": 4268,
  "lag": 4269,
  ". D": 4270,
  "zz": 4271,
  "strugg": 4272,
  "known ": 4273,
  "oppor": 4274,
  "I will": 4275,
  "2018 ": 4276,
  " culture": 4277,
  "to p": 4278,
  " common ": 4279,
  "so, ": 4280,
  "Vis": 4281,
  " financial": 4282,
  "Bea": 4283,
  " security": 4284,
  " wit": 4285,
  "Council": 4286,
  "loved": 4287,
  "THE ": 4288,
  "evil": 4289,
  "highlight": 4290,
  "Are": 4291,
  "Pra": 4292,
  "tence": 4293,
  "Care ": 4294,
  " favo": 4295,
  "using": 4296,
  "letter": 4297,
  "Feb": 4298,
  "2. ": 4299,
  "uge": 4300,
  "dou": 4301,
  "lad": 4302,
  "extreme": 4303,
  "meet ": 4304,
  "iled": 4305,
  "outh": 4306,
  "install": 4307,
  "on your ": 4308,
  "having ": 4309,
  "certain": 4310,
  " forward": 4311,
  "either ": 4312,
  "match": 4313,
  " center": 4314,
  " popular": 4315,
  ". And": 4316,
  "learn": 4317,
  " came ": 4318,
  "the next ": 4319,
  "ly the ": 4320,
  " for your ": 4321,
  "urrent": 4322,
  " at least ": 4323,
  "house ": 4324,
  "'ll ": 4325,
  "Every": 4326,
  "alon": 4327,
  "the right ": 4328,
  " contact": 4329,
  " operation": 4330,
  "stri": 4331,
  " shop": 4332,
  "on (": 4333,
  " there is ": 4334,
  "tell": 4335,
  "Bel": 4336,
  "drug": 4337,
  "It's ": 4338,
  "ed. ": 4339,
  "laim": 4340,
  "nab": 4341,
  "11 ": 4342,
  "do not": 4343,
  " taking ": 4344,
  "\u2019s f": 4345,
  ", one": 4346,
  " thou": 4347,
  "brid": 4348,
  " trade": 4349,
  "ting the": 4350,
  "\u2026 ": 4351,
  "-o": 4352,
  " by a": 4353,
  "25 ": 4354,
  "had a ": 4355,
  "et and ": 4356,
  "roll": 4357,
  "the \"": 4358,
  "mission ": 4359,
  "I think": 4360,
  "I will ": 4361,
  " combination": 4362,
  "s, which": 4363,
  "del ": 4364,
  "religi": 4365,
  " pul": 4366,
  " potential ": 4367,
  "strateg": 4368,
  "ted in": 4369,
  "milit": 4370,
  " college": 4371,
  " flu": 4372,
  "dated ": 4373,
  "Hy": 4374,
  "years of ": 4375,
  " fun ": 4376,
  "Hous": 4377,
  " Ste": 4378,
  " cash": 4379,
  "that\u2019s ": 4380,
  " analys": 4381,
  " tes": 4382,
  "Business ": 4383,
  "Afric": 4384,
  "Who": 4385,
  "Free ": 4386,
  " furnit": 4387,
  "Note": 4388,
  "ting and": 4389,
  "rayer": 4390,
  "Medic": 4391,
  "/ ": 4392,
  " priv": 4393,
  "By ": 4394,
  "rict": 4395,
  "recor": 4396,
  "rest ": 4397,
  " a lot of ": 4398,
  "gam": 4399,
  "deep": 4400,
  ".\nWe": 4401,
  " Sc": 4402,
  "e, the ": 4403,
  "inger": 4404,
  "From ": 4405,
  " consider": 4406,
  "s you": 4407,
  "Not ": 4408,
  "ampa": 4409,
  "RA": 4410,
  "\u2019s a": 4411,
  "ficial": 4412,
  " the b": 4413,
  "doct": 4414,
  " bad": 4415,
  " communic": 4416,
  " car ": 4417,
  "ded to ": 4418,
  "morning": 4419,
  "prove": 4420,
  "may be": 4421,
  "mother": 4422,
  "higher ": 4423,
  "everything ": 4424,
  "s it": 4425,
  "ird ": 4426,
  "lue ": 4427,
  "evelo": 4428,
  "retty ": 4429,
  " previ": 4430,
  " a great ": 4431,
  "is one of ": 4432,
  "ppy ": 4433,
  "retur": 4434,
  "ter and ": 4435,
  "insp": 4436,
  "name ": 4437,
  " wal": 4438,
  " to do ": 4439,
  "arm": 4440,
  " one of the ": 4441,
  "dur": 4442,
  "received": 4443,
  "difficult": 4444,
  "Bur": 4445,
  "Tr": 4446,
  "eau": 4447,
  "are not": 4448,
  "Trans": 4449,
  "outside": 4450,
  "fford": 4451,
  "(a": 4452,
  " sl": 4453,
  "rang": 4454,
  "likely ": 4455,
  " purchase": 4456,
  " written": 4457,
  "Gar": 4458,
  "strong ": 4459,
  "Hel": 4460,
  "ffect": 4461,
  " soci": 4462,
  " in this": 4463,
  "entire": 4464,
  " beco": 4465,
  "06": 4466,
  "ality": 4467,
  "60 ": 4468,
  " contr": 4469,
  "Tues": 4470,
  "2010": 4471,
  "Wel": 4472,
  "City": 4473,
  "interview": 4474,
  " couple": 4475,
  "daily ": 4476,
  "November ": 4477,
  " fema": 4478,
  ".\nFor": 4479,
  "you need": 4480,
  "Mot": 4481,
  "separate": 4482,
  "thle": 4483,
  "ya ": 4484,
  "Insta": 4485,
  ".. ": 4486,
  "document": 4487,
  "non-": 4488,
  "cer ": 4489,
  "ress ": 4490,
  "fully": 4491,
  " something": 4492,
  "light ": 4493,
  " track": 4494,
  "UK": 4495,
  "Associ": 4496,
  "the time": 4497,
  "lot ": 4498,
  ".\nIf ": 4499,
  "Lin": 4500,
  "atis": 4501,
  "halleng": 4502,
  " sun": 4503,
  "niti": 4504,
  "Mic": 4505,
  "fied": 4506,
  "hori": 4507,
  "coun": 4508,
  "ding to ": 4509,
  "understand ": 4510,
  " by a ": 4511,
  "\u2019s s": 4512,
  "New Y": 4513,
  "2016": 4514,
  "xim": 4515,
  "lif": 4516,
  "s for the": 4517,
  "\u2019s p": 4518,
  " system ": 4519,
  "zer": 4520,
  " of our ": 4521,
  " campa": 4522,
  "die": 4523,
  "certain ": 4524,
  " in 19": 4525,
  "October ": 4526,
  "vou": 4527,
  "labo": 4528,
  "s on the ": 4529,
  "rea ": 4530,
  "s but ": 4531,
  "97": 4532,
  "Ni": 4533,
  "manager": 4534,
  "seen ": 4535,
  "depart": 4536,
  "grat": 4537,
  "doing ": 4538,
  "improve": 4539,
  " for you": 4540,
  "ches": 4541,
  "9.": 4542,
  "tempt": 4543,
  "Medi": 4544,
  "wards ": 4545,
  "chance": 4546,
  "ed to the ": 4547,
  "eather": 4548,
  "oker": 4549,
  "(1": 4550,
  "n the ": 4551,
  "hop ": 4552,
  "times": 4553,
  "ly a": 4554,
  "Let": 4555,
  " occa": 4556,
  "insurance": 4557,
  " currently ": 4558,
  "midd": 4559,
  "40 ": 4560,
  " that you ": 4561,
  "urer": 4562,
  " block": 4563,
  "dict": 4564,
  "Ki": 4565,
  "Cre": 4566,
  " Sh": 4567,
  " section": 4568,
  "metal": 4569,
  "s possible": 4570,
  "enter ": 4571,
  "device": 4572,
  "reve": 4573,
  "Revi": 4574,
  "s also ": 4575,
  "hurch": 4576,
  "Most ": 4577,
  "mobile": 4578,
  " sustain": 4579,
  "blue": 4580,
  "land, ": 4581,
  " agen": 4582,
  "download": 4583,
  "gori": 4584,
  " positive ": 4585,
  "fili": 4586,
  "ategori": 4587,
  "didn't ": 4588,
  " a t": 4589,
  " award": 4590,
  "Law": 4591,
  "older ": 4592,
  "pert ": 4593,
  " officer": 4594,
  "The S": 4595,
  "tics ": 4596,
  " foundation": 4597,
  "hypo": 4598,
  "sco ": 4599,
  "lear ": 4600,
  "glas": 4601,
  "That ": 4602,
  "thern ": 4603,
  "24": 4604,
  ",\u201d": 4605,
  "event ": 4606,
  "iled ": 4607,
  " clea": 4608,
  "not be ": 4609,
  "nam": 4610,
  "happe": 4611,
  "I'm ": 4612,
  "add ": 4613,
  " comment": 4614,
  "5, ": 4615,
  "s.\nThe": 4616,
  " to see": 4617,
  "iler": 4618,
  "region": 4619,
  "sary": 4620,
  " available ": 4621,
  " taking": 4622,
  " syste": 4623,
  " fee": 4624,
  " sci": 4625,
  "how to ": 4626,
  "driver": 4627,
  "rely ": 4628,
  "ure, ": 4629,
  "t. The ": 4630,
  " touch": 4631,
  "=": 4632,
  "assess": 4633,
  " pay ": 4634,
  "ork ": 4635,
  "dustry ": 4636,
  "learning": 4637,
  "ED": 4638,
  "near ": 4639,
  "the \u201c": 4640,
  " bit ": 4641,
  " project ": 4642,
  "raction": 4643,
  "bility": 4644,
  ". You can ": 4645,
  " true": 4646,
  "means": 4647,
  "Off": 4648,
  "anything ": 4649,
  "ana ": 4650,
  " summer": 4651,
  "NE": 4652,
  "ability ": 4653,
  "human ": 4654,
  "Now ": 4655,
  "LE": 4656,
  "gard": 4657,
  "ries": 4658,
  "s, b": 4659,
  "night ": 4660,
  " a b": 4661,
  " target": 4662,
  "cious ": 4663,
  " spo": 4664,
  "mem": 4665,
  "you want": 4666,
  " save ": 4667,
  "achieve": 4668,
  "via": 4669,
  "Geor": 4670,
  " case ": 4671,
  ". To ": 4672,
  " community ": 4673,
  " to give ": 4674,
  "ecia": 4675,
  "lead ": 4676,
  "35": 4677,
  "medical": 4678,
  " offers ": 4679,
  "grand": 4680,
  "mes to ": 4681,
  "ity, ": 4682,
  "excell": 4683,
  "excellent": 4684,
  " since": 4685,
  "les of ": 4686,
  "Tur": 4687,
  "neighbor": 4688,
  "use the": 4689,
  " squ": 4690,
  ", and the": 4691,
  "selection": 4692,
  "09": 4693,
  "hard ": 4694,
  "ation to ": 4695,
  "you're ": 4696,
  " future ": 4697,
  "s also": 4698,
  " it is": 4699,
  "black ": 4700,
  " component": 4701,
  " social": 4702,
  "going to": 4703,
  "Then ": 4704,
  "2019 ": 4705,
  "range of": 4706,
  " ini": 4707,
  "Willi": 4708,
  "John": 4709,
  "ability to ": 4710,
  "House ": 4711,
  ".\nSo": 4712,
  "years ago": 4713,
  "advanced ": 4714,
  "repair": 4715,
  "general ": 4716,
  "\u0440": 4717,
  "ON ": 4718,
  "Each ": 4719,
  " conta": 4720,
  "stake": 4721,
  " impact ": 4722,
  "eper": 4723,
  "Department of ": 4724,
  "increased ": 4725,
  "estate ": 4726,
  "you should": 4727,
  " ST": 4728,
  "risk of ": 4729,
  "\u00c1": 4730,
  "\u0435": 4731,
  "black": 4732,
  "deco": 4733,
  "bon": 4734,
  "deb": 4735,
  " fall": 4736,
  " this s": 4737,
  "Rep": 4738,
  "graphic": 4739,
  "k you": 4740,
  "Cana": 4741,
  "ublic ": 4742,
  "98": 4743,
  "unding": 4744,
  "Engl": 4745,
  "Ear": 4746,
  " implement": 4747,
  "memo": 4748,
  "especially": 4749,
  " fit": 4750,
  "ation and": 4751,
  " tha": 4752,
  " white": 4753,
  " from a ": 4754,
  "thought ": 4755,
  "ld, ": 4756,
  "on your": 4757,
  "Val": 4758,
  " for your": 4759,
  " per ": 4760,
  "Art": 4761,
  "\u00a3": 4762,
  " fire": 4763,
  "17 ": 4764,
  " sk": 4765,
  "edding": 4766,
  "A. ": 4767,
  "ity of": 4768,
  "alt": 4769,
  "econ": 4770,
  "New York ": 4771,
  "integ": 4772,
  "y to": 4773,
  "develo": 4774,
  "oss": 4775,
  " went ": 4776,
  "sert": 4777,
  "education": 4778,
  "vices": 4779,
  "unds ": 4780,
  " computer": 4781,
  "6, ": 4782,
  "international": 4783,
  " survi": 4784,
  " wrong": 4785,
  "hund": 4786,
  "Bas": 4787,
  "igned ": 4788,
  "addition": 4789,
  " brow": 4790,
  " appear": 4791,
  "movement": 4792,
  "release": 4793,
  " bank": 4794,
  " practi": 4795,
  "nifi": 4796,
  "Even": 4797,
  " clean": 4798,
  "hoo": 4799,
  "ty of ": 4800,
  "related ": 4801,
  "used to ": 4802,
  ". Th": 4803,
  "rush": 4804,
  "responsible": 4805,
  " collabo": 4806,
  "rob": 4807,
  " fair": 4808,
  "II": 4809,
  "Google ": 4810,
  "eption": 4811,
  "nificant ": 4812,
  "zy": 4813,
  "minist": 4814,
  "is avail": 4815,
  "ony ": 4816,
  "ly.\n": 4817,
  " plan ": 4818,
  "omen ": 4819,
  "ly in ": 4820,
  "s!": 4821,
  "ly with ": 4822,
  "death": 4823,
  "However, ": 4824,
  "le-": 4825,
  "Loc": 4826,
  ". To": 4827,
  " consider ": 4828,
  "Ty": 4829,
  "ting and ": 4830,
  "as it ": 4831,
  "els": 4832,
  "message": 4833,
  "Down": 4834,
  "friend": 4835,
  "group ": 4836,
  " transfer": 4837,
  "uper ": 4838,
  "video ": 4839,
  "daily": 4840,
  " worth": 4841,
  "due to ": 4842,
  "lim": 4843,
  "channel": 4844,
  " previous ": 4845,
  " board ": 4846,
  "rather than ": 4847,
  "answer ": 4848,
  ".\"\n\"": 4849,
  "drive ": 4850,
  " a.m": 4851,
  "Hand": 4852,
  ".\"": 4853,
  "Thursday": 4854,
  "\u043d": 4855,
  "Excel": 4856,
  "deral": 4857,
  " would be ": 4858,
  "load ": 4859,
  " af": 4860,
  "Lu": 4861,
  "tered": 4862,
  "May ": 4863,
  "Us": 4864,
  " build": 4865,
  " of your": 4866,
  "hus": 4867,
  "International ": 4868,
  "Che": 4869,
  "grant": 4870,
  " production": 4871,
  "additional ": 4872,
  "needs ": 4873,
  "dol": 4874,
  "uggest": 4875,
  "visit ": 4876,
  "s were": 4877,
  "cast": 4878,
  "ord": 4879,
  " to get": 4880,
  " the other": 4881,
  " allow ": 4882,
  " they are ": 4883,
  " the f": 4884,
  ". \"": 4885,
  "ribu": 4886,
  ". Be": 4887,
  " current": 4888,
  ". If": 4889,
  "red to": 4890,
  "Cap": 4891,
  " came": 4892,
  "es. The ": 4893,
  "Mil": 4894,
  "ers ": 4895,
  " to your": 4896,
  ", that ": 4897,
  "itute": 4898,
  "able for ": 4899,
  "istration": 4900,
  "to provide": 4901,
  "comp": 4902,
  "remain": 4903,
  "I can": 4904,
  "growth": 4905,
  "note": 4906,
  " concern": 4907,
  "tery": 4908,
  "illing ": 4909,
  "sell": 4910,
  ". P": 4911,
  " to help": 4912,
  " with an ": 4913,
  "edge": 4914,
  "'ve": 4915,
  "industry ": 4916,
  "replace": 4917,
  "volu": 4918,
  "investment": 4919,
  "Please": 4920,
  " South ": 4921,
  "LA": 4922,
  "the new": 4923,
  "ternal": 4924,
  "direction": 4925,
  " progres": 4926,
  "Word": 4927,
  "wise": 4928,
  "kno": 4929,
  "xy": 4930,
  "later ": 4931,
  "aster ": 4932,
  " care ": 4933,
  "as well as": 4934,
  "active ": 4935,
  "list of ": 4936,
  "UN": 4937,
  "Lou": 4938,
  "lower ": 4939,
  "ants ": 4940,
  "received ": 4941,
  "or a ": 4942,
  "it.\n": 4943,
  "ility": 4944,
  "refl": 4945,
  "quite ": 4946,
  " saw": 4947,
  "s). ": 4948,
  "decided ": 4949,
  "Blo": 4950,
  " a bit": 4951,
  "out a": 4952,
  " there are": 4953,
  "strategi": 4954,
  " sector": 4955,
  "LI": 4956,
  "roof": 4957,
  "Ass": 4958,
  "President ": 4959,
  "eleg": 4960,
  " warm": 4961,
  "redu": 4962,
  "Am": 4963,
  " syn": 4964,
  "Que": 4965,
  "Found": 4966,
  "NC": 4967,
  " features ": 4968,
  "City ": 4969,
  " weekend": 4970,
  "Fun": 4971,
  "Award": 4972,
  " college ": 4973,
  "locat": 4974,
  "apartment": 4975,
  "expression": 4976,
  "Research ": 4977,
  "real estate ": 4978,
  " farmer": 4979,
  "17, ": 4980,
  "18, ": 4981,
  "jet": 4982,
  "logo": 4983,
  " surgery": 4984,
  "emotional": 4985,
  "Disco": 4986,
  " Si": 4987,
  "World ": 4988,
  "in this ": 4989,
  "hall": 4990,
  " challeng": 4991,
  "Febru": 4992,
  "lie": 4993,
  "RS": 4994,
  " someone": 4995,
  "doesn\u2019t ": 4996,
  "display": 4997,
  "fety": 4998,
  "ves. ": 4999,
  "reco": 5000,
  "responsi": 5001,
  "CO": 5002,
  "val ": 5003,
  "500": 5004,
  "dry": 5005,
  "degree": 5006,
  " site ": 5007,
  "Pla": 5008,
  "vy ": 5009,
  " websit": 5010,
  "I was": 5011,
  "akes ": 5012,
  "id, ": 5013,
  "dedic": 5014,
  "ms of ": 5015,
  " factor": 5016,
  "or, ": 5017,
  "Australi": 5018,
  "tte ": 5019,
  " obser": 5020,
  " Satur": 5021,
  "irth": 5022,
  "det": 5023,
  "es on ": 5024,
  "mentio": 5025,
  " the top": 5026,
  " someone ": 5027,
  "view ": 5028,
  "X ": 5029,
  "tion to": 5030,
  "sential": 5031,
  " beginning": 5032,
  "remi": 5033,
  "Ter": 5034,
  "s to the": 5035,
  " facili": 5036,
  " cru": 5037,
  "mel": 5038,
  " cost ": 5039,
  " policy": 5040,
  " connection": 5041,
  "ris ": 5042,
  "viro": 5043,
  "Black": 5044,
  "damage": 5045,
  "heard": 5046,
  "] ": 5047,
  " area ": 5048,
  " training ": 5049,
  "pper ": 5050,
  "Reg": 5051,
  "how to": 5052,
  "get the ": 5053,
  " power ": 5054,
  "holiday": 5055,
  "I\u2019ve": 5056,
  "es. The": 5057,
  "up and ": 5058,
  "involved": 5059,
  "ran ": 5060,
  " campaign": 5061,
  "University": 5062,
  " following": 5063,
  " beau": 5064,
  " short ": 5065,
  " path": 5066,
  "days": 5067,
  "ly for ": 5068,
  " allows ": 5069,
  " from a": 5070,
  "unded": 5071,
  "lam": 5072,
  "Vol": 5073,
  "elli": 5074,
  " was s": 5075,
  "huge": 5076,
  " probably": 5077,
  " significant ": 5078,
  "es or ": 5079,
  "modern": 5080,
  " trend": 5081,
  " watch ": 5082,
  "s after ": 5083,
  "located ": 5084,
  "tizen": 5085,
  " subject": 5086,
  "siz": 5087,
  " cause": 5088,
  "v ": 5089,
  "disease": 5090,
  "vehicle": 5091,
  "voi": 5092,
  ". All ": 5093,
  "largest ": 5094,
  "It is": 5095,
  "Pas": 5096,
  "s\u2014": 5097,
  "I want": 5098,
  "persp": 5099,
  "s after": 5100,
  " construction": 5101,
  "Let ": 5102,
  "report ": 5103,
  "expert ": 5104,
  "tery ": 5105,
  "-in-": 5106,
  "AND ": 5107,
  "vil ": 5108,
  "order to": 5109,
  "motor": 5110,
  "Her ": 5111,
  "Dia": 5112,
  "\u00b7": 5113,
  "ine, ": 5114,
  "\u2122": 5115,
  ">": 5116,
  "rica": 5117,
  "hile ": 5118,
  "While ": 5119,
  "once": 5120,
  "3-": 5121,
  " brea": 5122,
  " services ": 5123,
  "Stat": 5124,
  "lub": 5125,
  " aware": 5126,
  " software": 5127,
  "ed on": 5128,
  "uk": 5129,
  "ginal": 5130,
  " compli": 5131,
  "Pl": 5132,
  "job ": 5133,
  "rame": 5134,
  "hope ": 5135,
  " purpose": 5136,
  "chen": 5137,
  " satis": 5138,
  "demo": 5139,
  "mong ": 5140,
  "ically ": 5141,
  "struc": 5142,
  "6-": 5143,
  "door ": 5144,
  "ud ": 5145,
  " is also": 5146,
  "took ": 5147,
  ".\nFor ": 5148,
  "EC": 5149,
  " collect": 5150,
  "unique ": 5151,
  "person ": 5152,
  "to their ": 5153,
  " feed": 5154,
  "discus": 5155,
  " spirit": 5156,
  "ness, ": 5157,
  "uses ": 5158,
  "Once ": 5159,
  "kind of ": 5160,
  "Face": 5161,
  "usually": 5162,
  "resting": 5163,
  "04": 5164,
  "phi": 5165,
  "gaz": 5166,
  " communi": 5167,
  "Brit": 5168,
  "multiple ": 5169,
  " consumer": 5170,
  "6.": 5171,
  "s and the ": 5172,
  "'ll": 5173,
  "architect": 5174,
  "hold ": 5175,
  "time and ": 5176,
  " we are": 5177,
  "economic": 5178,
  " flexi": 5179,
  "logical ": 5180,
  " behind": 5181,
  "media ": 5182,
  "easy ": 5183,
  "getting": 5184,
  " behind ": 5185,
  " one of the": 5186,
  " should be": 5187,
  ". E": 5188,
  "attempt": 5189,
  " building ": 5190,
  "ners ": 5191,
  " tre": 5192,
  "or to ": 5193,
  ". B": 5194,
  ". As ": 5195,
  ". These ": 5196,
  "estate": 5197,
  "s, we": 5198,
  "omew": 5199,
  "get a ": 5200,
  ".\nAs ": 5201,
  "remember": 5202,
  "Whe": 5203,
  "ing for ": 5204,
  " cream": 5205,
  "nation ": 5206,
  "you should ": 5207,
  "ideal": 5208,
  "atego": 5209,
  "mited ": 5210,
  "ritt": 5211,
  "I've ": 5212,
  " worth ": 5213,
  ". \u201c": 5214,
  "alco": 5215,
  "hill": 5216,
  "lism": 5217,
  "Studi": 5218,
  "during the": 5219,
  "Year": 5220,
  "Star": 5221,
  " church": 5222,
  "University ": 5223,
  "le.\n": 5224,
  " spend ": 5225,
  "Asi": 5226,
  "Nu": 5227,
  "Hot": 5228,
  "Light": 5229,
  "mark ": 5230,
  " wonderful ": 5231,
  " fight": 5232,
  "di ": 5233,
  "reading ": 5234,
  "meter": 5235,
  " smart": 5236,
  " ima": 5237,
  " father": 5238,
  "mosp": 5239,
  "delivery": 5240,
  "House": 5241,
  " wee": 5242,
  "throughout the ": 5243,
  " profi": 5244,
  "attrac": 5245,
  "Also": 5246,
  "RI": 5247,
  "graphy": 5248,
  " former ": 5249,
  " prod": 5250,
  "reput": 5251,
  "General ": 5252,
  " affect": 5253,
  "outdoor": 5254,
  "People": 5255,
  " corporate ": 5256,
  "ens ": 5257,
  "updated ": 5258,
  " cab": 5259,
  "Ire": 5260,
  " prayer": 5261,
  "essay": 5262,
  "ttp": 5263,
  " fail": 5264,
  "roduct ": 5265,
  "to find": 5266,
  " complete": 5267,
  "itself": 5268,
  "ed from ": 5269,
  "Chur": 5270,
  "via ": 5271,
  "rup": 5272,
  "into a ": 5273,
  "seem": 5274,
  " sil": 5275,
  "nue ": 5276,
  "oluti": 5277,
  " appreci": 5278,
  "that are": 5279,
  "thy ": 5280,
  "I can ": 5281,
  " public ": 5282,
  " safety": 5283,
  "ble, ": 5284,
  "Just ": 5285,
  "necess": 5286,
  " of an ": 5287,
  ", at ": 5288,
  "ties. ": 5289,
  ", there": 5290,
  "maxim": 5291,
  "marketing": 5292,
  "street": 5293,
  "green": 5294,
  "-- ": 5295,
  " wood": 5296,
  " floor": 5297,
  "increase ": 5298,
  " of their": 5299,
  "side of ": 5300,
  " consult": 5301,
  "tian": 5302,
  ".\nIt": 5303,
  "45": 5304,
  ". However": 5305,
  " print": 5306,
  "tempor": 5307,
  "s. A": 5308,
  " build ": 5309,
  ", where ": 5310,
  "hile": 5311,
  " coming ": 5312,
  " concept": 5313,
  ". F": 5314,
  "mental ": 5315,
  "While": 5316,
  "zon": 5317,
  "me. ": 5318,
  "infor": 5319,
  "t. The": 5320,
  "he said": 5321,
  "les.\n": 5322,
  "radi": 5323,
  "perform": 5324,
  " correct": 5325,
  "-S": 5326,
  " sym": 5327,
  "us and ": 5328,
  " challenge": 5329,
  "Home": 5330,
  "generation": 5331,
  " communication": 5332,
  " capac": 5333,
  "vided ": 5334,
  "it would": 5335,
  "reen": 5336,
  "viding": 5337,
  "is and ": 5338,
  "5%": 5339,
  "s, S": 5340,
  "language": 5341,
  "volun": 5342,
  "\u00ae": 5343,
  "hospital": 5344,
  " bri": 5345,
  " afford": 5346,
  " aut": 5347,
  "Int": 5348,
  "assi": 5349,
  "CI": 5350,
  "dream": 5351,
  "exci": 5352,
  "rical": 5353,
  "le and": 5354,
  "zar": 5355,
  "ting a ": 5356,
  "29": 5357,
  "regard": 5358,
  " companies ": 5359,
  "Mer": 5360,
  "highe": 5361,
  "highest ": 5362,
  "s, we ": 5363,
  "itely ": 5364,
  "laying ": 5365,
  "World": 5366,
  " specia": 5367,
  "eason ": 5368,
  " for this ": 5369,
  "gel": 5370,
  "executi": 5371,
  "remember ": 5372,
  "global ": 5373,
  "technology ": 5374,
  "tail ": 5375,
  " a lot of": 5376,
  "admin": 5377,
  ": \"": 5378,
  "excellent ": 5379,
  "ites ": 5380,
  "to play": 5381,
  "ffee": 5382,
  "epi": 5383,
  "born": 5384,
  "CC": 5385,
  " panel": 5386,
  "citizen": 5387,
  "invit": 5388,
  ".) ": 5389,
  "lying": 5390,
  ".\nWhat": 5391,
  "Prin": 5392,
  "menu": 5393,
  "evening": 5394,
  "mooth": 5395,
  "manner": 5396,
  "ties and": 5397,
  " offered": 5398,
  "according ": 5399,
  " scho": 5400,
  " was p": 5401,
  "oken": 5402,
  "advis": 5403,
  " testing": 5404,
  "you need to ": 5405,
  "exam": 5406,
  "investor": 5407,
  "earning": 5408,
  "Women": 5409,
  " belong": 5410,
  "Manager": 5411,
  "Georg": 5412,
  " section ": 5413,
  "Apple": 5414,
  "dumpster": 5415,
  "vir": 5416,
  "hair": 5417,
  "st the ": 5418,
  " tour": 5419,
  "ensure": 5420,
  "Va": 5421,
  "es that": 5422,
  " tax": 5423,
  "expla": 5424,
  "Rus": 5425,
  " trip": 5426,
  "Cali": 5427,
  "America": 5428,
  "launch": 5429,
  "s like": 5430,
  "Your": 5431,
  "uss": 5432,
  " fix": 5433,
  "Cur": 5434,
  " a s": 5435,
  "you\u2019re": 5436,
  " frequ": 5437,
  "the B": 5438,
  "actually": 5439,
  "Up": 5440,
  "Not": 5441,
  " session": 5442,
  "pped": 5443,
  "incor": 5444,
  "means ": 5445,
  "state ": 5446,
  "We are": 5447,
  "resen": 5448,
  "gift": 5449,
  "rever": 5450,
  "understanding": 5451,
  "mately ": 5452,
  "December ": 5453,
  "9-": 5454,
  "designed": 5455,
  "me to": 5456,
  "the way": 5457,
  "ces of ": 5458,
  "article": 5459,
  "matic ": 5460,
  "ustom": 5461,
  ".\nWhen ": 5462,
  "vill": 5463,
  "ble and ": 5464,
  "mine ": 5465,
  "level ": 5466,
  " probably ": 5467,
  "thr": 5468,
  "Mat": 5469,
  " cyc": 5470,
  "Great ": 5471,
  "-co": 5472,
  ", while ": 5473,
  " sens": 5474,
  " wish": 5475,
  "have to": 5476,
  "held ": 5477,
  " prim": 5478,
  "modern ": 5479,
  "gger": 5480,
  "Park": 5481,
  "amount of ": 5482,
  "rical ": 5483,
  ". It\u2019s ": 5484,
  "enab": 5485,
  "utili": 5486,
  " services": 5487,
  "did not ": 5488,
  "relative": 5489,
  "entry": 5490,
  "gon": 5491,
  "Click ": 5492,
  " teach": 5493,
  "ning the ": 5494,
  " be the ": 5495,
  "solu": 5496,
  ". These": 5497,
  " sleep": 5498,
  "rates ": 5499,
  "it for ": 5500,
  "verse": 5501,
  "gges": 5502,
  "mazing ": 5503,
  "global": 5504,
  " basic ": 5505,
  "out of": 5506,
  "unda": 5507,
  " course ": 5508,
  "giving": 5509,
  " the way ": 5510,
  "cience": 5511,
  "attach": 5512,
  "garden": 5513,
  "ext ": 5514,
  " a good": 5515,
  "36": 5516,
  " average": 5517,
  "quo": 5518,
  "mend ": 5519,
  " close ": 5520,
  "motion": 5521,
  "useful": 5522,
  "OL": 5523,
  " worker": 5524,
  "drink": 5525,
  "marri": 5526,
  " is very ": 5527,
  " try to ": 5528,
  "taining ": 5529,
  " phone ": 5530,
  " overall ": 5531,
  " fear": 5532,
  "habit": 5533,
  "dinner": 5534,
  "definitely ": 5535,
  "venture": 5536,
  "example, ": 5537,
  ". (": 5538,
  "y, the ": 5539,
  "Den": 5540,
  "tained ": 5541,
  "reduce": 5542,
  "stres": 5543,
  "s - ": 5544,
  "material ": 5545,
  "recommend ": 5546,
  "semi": 5547,
  "administ": 5548,
  "nism": 5549,
  "atmosp": 5550,
  "that a": 5551,
  "grapher": 5552,
  " with you": 5553,
  "not a ": 5554,
  "them to ": 5555,
  " School ": 5556,
  "va ": 5557,
  "Bank": 5558,
  "Student": 5559,
  " pressure": 5560,
  "that\u2019s": 5561,
  "related": 5562,
  "utic": 5563,
  "may have": 5564,
  "resol": 5565,
  "join ": 5566,
  "ists ": 5567,
  "appropriate ": 5568,
  "normal ": 5569,
  " plu": 5570,
  "rental": 5571,
  " at home": 5572,
  "MO": 5573,
  "Cr": 5574,
  " weigh": 5575,
  "learned": 5576,
  "ness and": 5577,
  "FF": 5578,
  "revenue": 5579,
  "internal ": 5580,
  "Council ": 5581,
  "\u0442": 5582,
  "Pan": 5583,
  "Tor": 5584,
  "lance ": 5585,
  "chief": 5586,
  " Secret": 5587,
  " wine ": 5588,
  "\u00da": 5589,
  "diagram": 5590,
  "Ger": 5591,
  "heet": 5592,
  "vider": 5593,
  "band": 5594,
  " property ": 5595,
  "3. ": 5596,
  "are the ": 5597,
  "mari": 5598,
  "Pow": 5599,
  "mit ": 5600,
  ", who": 5601,
  " impact": 5602,
  "joy ": 5603,
  "noti": 5604,
  "access": 5605,
  "Clas": 5606,
  " opi": 5607,
  " objec": 5608,
  "ces and ": 5609,
  "else": 5610,
  " original": 5611,
  "that will ": 5612,
  " aff": 5613,
  "ronic": 5614,
  "doub": 5615,
  "tained": 5616,
  " in our ": 5617,
  "26": 5618,
  " initi": 5619,
  "international ": 5620,
  "demon": 5621,
  "ure and ": 5622,
  "resul": 5623,
  "ane ": 5624,
  " this year": 5625,
  "six ": 5626,
  "nature": 5627,
  "discuss": 5628,
  ", of": 5629,
  "nance": 5630,
  "at a": 5631,
  "mile": 5632,
  "s. It": 5633,
  "anyone": 5634,
  " in my ": 5635,
  "weet": 5636,
  "ruit": 5637,
  "it to ": 5638,
  ".\nP": 5639,
  "NS": 5640,
  "uthori": 5641,
  "necessary": 5642,
  "ing to": 5643,
  "deta": 5644,
  "out a ": 5645,
  ", some": 5646,
  "devi": 5647,
  " concent": 5648,
  "s can be": 5649,
  " a great": 5650,
  "We have ": 5651,
  " popu": 5652,
  "meaning": 5653,
  "gol": 5654,
  "Book": 5655,
  "an a": 5656,
  "ream ": 5657,
  " promo": 5658,
  "hot ": 5659,
  " is to": 5660,
  "range ": 5661,
  " body ": 5662,
  "easily ": 5663,
  "-based ": 5664,
  " bill": 5665,
  "gue ": 5666,
  " pros": 5667,
  " week ": 5668,
  "s, co": 5669,
  " train": 5670,
  "up the ": 5671,
  "log ": 5672,
  "it will ": 5673,
  " sport": 5674,
  "ils ": 5675,
  "ij": 5676,
  "respect": 5677,
  " well-": 5678,
  "Gra": 5679,
  "leading ": 5680,
  "mental": 5681,
  " faith": 5682,
  "Jam": 5683,
  "ffici": 5684,
  " is p": 5685,
  " called": 5686,
  " suggest": 5687,
  " this is ": 5688,
  "on this ": 5689,
  "deliver": 5690,
  "s which ": 5691,
  "simply ": 5692,
  " taken ": 5693,
  "statement": 5694,
  " prom": 5695,
  " beautiful ": 5696,
  "void": 5697,
  " and S": 5698,
  "on that": 5699,
  " couple of ": 5700,
  "standing": 5701,
  "s. We": 5702,
  "phon": 5703,
  "ha ": 5704,
  "they were ": 5705,
  " champi": 5706,
  " final": 5707,
  "isting": 5708,
  " among": 5709,
  "across ": 5710,
  "attor": 5711,
  ", ca": 5712,
  "earn ": 5713,
  " based on ": 5714,
  "% of": 5715,
  "young": 5716,
  " could be": 5717,
  " space ": 5718,
  "es have ": 5719,
  "-con": 5720,
  "enviro": 5721,
  "portion": 5722,
  "tification": 5723,
  " counter": 5724,
  "tee ": 5725,
  "ist. ": 5726,
  "month ": 5727,
  "gent ": 5728,
  "s and the": 5729,
  "chick": 5730,
  "limited ": 5731,
  "is of ": 5732,
  "years, ": 5733,
  ". Our": 5734,
  "s is": 5735,
  "ity.\n": 5736,
  "ties of ": 5737,
  "ass ": 5738,
  "univers": 5739,
  "us and": 5740,
  "interp": 5741,
  "Board": 5742,
  " travel ": 5743,
  ", such as ": 5744,
  "prof": 5745,
  " pred": 5746,
  "Mul": 5747,
  "500 ": 5748,
  ". What ": 5749,
  "tially": 5750,
  " talent": 5751,
  " provided ": 5752,
  "High ": 5753,
  " writt": 5754,
  " off the ": 5755,
  "55": 5756,
  "Commit": 5757,
  " theme": 5758,
  "viron": 5759,
  " breakf": 5760,
  "Before ": 5761,
  " operator": 5762,
  "your child": 5763,
  "Hosp": 5764,
  " supplement": 5765,
  " a c": 5766,
  " scholar": 5767,
  "rail": 5768,
  " successful ": 5769,
  ", in the ": 5770,
  " iP": 5771,
  "Hal": 5772,
  "to t": 5773,
  "rupt": 5774,
  "chip": 5775,
  " core": 5776,
  "IV": 5777,
  "(C": 5778,
  "Group ": 5779,
  "accommod": 5780,
  "illa ": 5781,
  "negative ": 5782,
  "ratio": 5783,
  "Minister": 5784,
  "external ": 5785,
  " Super": 5786,
  "UA": 5787,
  "Lod": 5788,
  "http": 5789,
  "RO": 5790,
  "select": 5791,
  "moment": 5792,
  "rative": 5793,
  ", is ": 5794,
  " temp": 5795,
  "divid": 5796,
  "temperat": 5797,
  "to provide ": 5798,
  "abs": 5799,
  " song": 5800,
  "rated": 5801,
  "scri": 5802,
  "OS": 5803,
  "nally": 5804,
  "argu": 5805,
  "rance": 5806,
  "myself": 5807,
  "Company": 5808,
  "gin ": 5809,
  "Cal": 5810,
  "notice": 5811,
  "seems ": 5812,
  "vy": 5813,
  "rich": 5814,
  " coming": 5815,
  "ride": 5816,
  " follow ": 5817,
  "longer": 5818,
  "Fren": 5819,
  "sa ": 5820,
  " to have ": 5821,
  " we have": 5822,
  " slow": 5823,
  "s, which ": 5824,
  "It was ": 5825,
  ", when ": 5826,
  "essential": 5827,
  "started": 5828,
  "acqui": 5829,
  "nutri": 5830,
  "sett": 5831,
  "red to ": 5832,
  "leave": 5833,
  "I don\u2019t ": 5834,
  "additional": 5835,
  "Here": 5836,
  " bed": 5837,
  " setting": 5838,
  "your own": 5839,
  "07": 5840,
  "ited": 5841,
  "s \u2013 ": 5842,
  "everyone ": 5843,
  "tion and": 5844,
  " talk ": 5845,
  "Then": 5846,
  "engage": 5847,
  " way to": 5848,
  "By": 5849,
  "EA": 5850,
  "lean ": 5851,
  "at all": 5852,
  "75": 5853,
  " convers": 5854,
  "ilo": 5855,
  "around the": 5856,
  "exactly": 5857,
  "Christian": 5858,
  "used to": 5859,
  "Cat": 5860,
  "27": 5861,
  " SE": 5862,
  "voice": 5863,
  "West ": 5864,
  ". Our ": 5865,
  "24 ": 5866,
  "year-": 5867,
  "If you are ": 5868,
  "ister ": 5869,
  "list ": 5870,
  " pet": 5871,
  "certi": 5872,
  ".\nThis": 5873,
  "Many": 5874,
  " offering": 5875,
  "ski": 5876,
  " pretty ": 5877,
  "A, ": 5878,
  "damag": 5879,
  " part of the ": 5880,
  "le. ": 5881,
  " projec": 5882,
  "disa": 5883,
  "IA": 5884,
  " beg": 5885,
  "experienced": 5886,
  " at least": 5887,
  "refore": 5888,
  " pool": 5889,
  " whe": 5890,
  "Elect": 5891,
  "s & ": 5892,
  " proced": 5893,
  "Flo": 5894,
  "I had": 5895,
  " official": 5896,
  " shown": 5897,
  "evidence": 5898,
  "versi": 5899,
  " possible ": 5900,
  " trust": 5901,
  " pub": 5902,
  " present ": 5903,
  " true ": 5904,
  "defi": 5905,
  "volunte": 5906,
  " shot": 5907,
  "sence": 5908,
  "Ru": 5909,
  "blished": 5910,
  "lio": 5911,
  "redit ": 5912,
  "gri": 5913,
  "College": 5914,
  " currently": 5915,
  "est, ": 5916,
  " and other": 5917,
  " of my ": 5918,
  " served": 5919,
  "gen ": 5920,
  "teen": 5921,
  "income": 5922,
  "designer": 5923,
  "mended": 5924,
  "RT": 5925,
  "First ": 5926,
  "healthy": 5927,
  "description": 5928,
  "Make": 5929,
  " catego": 5930,
  "23": 5931,
  "deep ": 5932,
  " commercial": 5933,
  " Sci": 5934,
  "amera": 5935,
  ". With ": 5936,
  "quickly ": 5937,
  " switch": 5938,
  "helps ": 5939,
  "guide ": 5940,
  " familiar": 5941,
  "rule": 5942,
  ".\nW": 5943,
  " part ": 5944,
  " written ": 5945,
  "diet": 5946,
  "judg": 5947,
  "in front": 5948,
  "months ": 5949,
  "logy, ": 5950,
  "use of the ": 5951,
  "members ": 5952,
  "goes ": 5953,
  "LS": 5954,
  "tunity": 5955,
  "USA": 5956,
  "65": 5957,
  "machine ": 5958,
  "vary": 5959,
  "opportunity": 5960,
  "role ": 5961,
  "States ": 5962,
  " of p": 5963,
  "s may ": 5964,
  "Right": 5965,
  " treatment ": 5966,
  "Conc": 5967,
  " polici": 5968,
  "driving": 5969,
  " Spring": 5970,
  "mur": 5971,
  "Wednesday": 5972,
  "UL": 5973,
  "Lab": 5974,
  "(G": 5975,
  "zip": 5976,
  "mechanic": 5977,
  "Test ": 5978,
  " sentence": 5979,
  "Korean ": 5980,
  " tenden": 5981,
  "\u200a": 5982,
  "., ": 5983,
  " provider": 5984,
  "... ": 5985,
  "ppy": 5986,
  "dential": 5987,
  " tou": 5988,
  "nical": 5989,
  "demand": 5990,
  "wear": 5991,
  "gredi": 5992,
  "learning ": 5993,
  "ustomer ": 5994,
  "1/": 5995,
  "C. ": 5996,
  "exclu": 5997,
  "map": 5998,
  "happy": 5999,
  "Exp": 6000,
  "nally ": 6001,
  "everything": 6002,
  "against": 6003,
  "cian": 6004,
  " believe ": 6005,
  " post ": 6006,
  "Phi": 6007,
  "guy": 6008,
  " stock ": 6009,
  "perfect ": 6010,
  "viding ": 6011,
  "started ": 6012,
  " sup": 6013,
  "ground ": 6014,
  "AM": 6015,
  "aching ": 6016,
  "head ": 6017,
  "simi": 6018,
  " if you": 6019,
  "aste": 6020,
  "prove ": 6021,
  "Tex": 6022,
  "sion, ": 6023,
  " situation": 6024,
  "Can ": 6025,
  "-w": 6026,
  "not be": 6027,
  ".\nYou ": 6028,
  " pres": 6029,
  "improve ": 6030,
  "Ari": 6031,
  " is also ": 6032,
  "Afri": 6033,
  "IS ": 6034,
  "to work ": 6035,
  " claim": 6036,
  "rise ": 6037,
  "in which ": 6038,
  " creating": 6039,
  "diag": 6040,
  "es (": 6041,
  "s is the ": 6042,
  " colo": 6043,
  "moni": 6044,
  " chemic": 6045,
  " the a": 6046,
  "internet": 6047,
  "gie": 6048,
  " cool": 6049,
  "kitchen": 6050,
  "don't": 6051,
  "ties.\n": 6052,
  "Part": 6053,
  "hundred": 6054,
  "7-": 6055,
  "es in the": 6056,
  " weather": 6057,
  " tub": 6058,
  "know that ": 6059,
  "on their ": 6060,
  "nia ": 6061,
  " corner": 6062,
  " correc": 6063,
  ": The ": 6064,
  "roller": 6065,
  "acco": 6066,
  "interesting": 6067,
  "Ken": 6068,
  "Count": 6069,
  "s. In ": 6070,
  "gets ": 6071,
  "news": 6072,
  "digital ": 6073,
  "don ": 6074,
  "mean ": 6075,
  "ense ": 6076,
  "itude": 6077,
  " bottom": 6078,
  "anyw": 6079,
  "2013": 6080,
  " popular ": 6081,
  " positive": 6082,
  "Lan": 6083,
  " proc": 6084,
  "on S": 6085,
  ". Al": 6086,
  "Friday": 6087,
  "ent to ": 6088,
  " saw ": 6089,
  " and p": 6090,
  "'s a": 6091,
  "ught ": 6092,
  "it co": 6093,
  "activity": 6094,
  " obvi": 6095,
  "elling": 6096,
  "Roy": 6097,
  "up with ": 6098,
  "music ": 6099,
  "cord ": 6100,
  " cook": 6101,
  " of these": 6102,
  "jun": 6103,
  "'s s": 6104,
  "Institute": 6105,
  "Top": 6106,
  "earth": 6107,
  "hun": 6108,
  " apply": 6109,
  "elling ": 6110,
  "explain": 6111,
  "lant ": 6112,
  "ly, the ": 6113,
  "in which": 6114,
  "itting ": 6115,
  " providing": 6116,
  "action ": 6117,
  "techniqu": 6118,
  "I could": 6119,
  "s with a ": 6120,
  ". After": 6121,
  "advantage": 6122,
  " woman": 6123,
  " camera": 6124,
  "day and ": 6125,
  "10-": 6126,
  "mid-": 6127,
  "s which": 6128,
  " the case": 6129,
  "ally, ": 6130,
  "lesson": 6131,
  " blood ": 6132,
  "33": 6133,
  "s that are ": 6134,
  "Ir": 6135,
  "vib": 6136,
  "bert ": 6137,
  "James ": 6138,
  "than a ": 6139,
  "environ": 6140,
  "Glob": 6141,
  "94": 6142,
  "base": 6143,
  "dad": 6144,
  "East ": 6145,
  " weak": 6146,
  " competitive": 6147,
  "use a": 6148,
  "United States ": 6149,
  "Central ": 6150,
  "2014 ": 6151,
  "Street": 6152,
  "37": 6153,
  "heap ": 6154,
  "vast": 6155,
  "Les": 6156,
  "studio": 6157,
  "dining": 6158,
  "Hope ": 6159,
  "heatre": 6160,
  "results ": 6161,
  "Run": 6162,
  " at 1": 6163,
  "enn": 6164,
  "requirement": 6165,
  "nia": 6166,
  "Jap": 6167,
  "redit": 6168,
  "vey": 6169,
  " website ": 6170,
  " custo": 6171,
  "Black ": 6172,
  "Pub": 6173,
  "Pu": 6174,
  "fference": 6175,
  "daugh": 6176,
  "difference": 6177,
  "mist": 6178,
  "nion": 6179,
  "havi": 6180,
  "urs": 6181,
  "ginal ": 6182,
  "error": 6183,
  "ri ": 6184,
  "tention": 6185,
  " suppli": 6186,
  "plex": 6187,
  "me.\n": 6188,
  "looking ": 6189,
  " a little ": 6190,
  "gate": 6191,
  "hi ": 6192,
  "stuff": 6193,
  "quickly": 6194,
  "'re": 6195,
  "Thank you": 6196,
  " progra": 6197,
  "ency": 6198,
  " be able to ": 6199,
  "Stan": 6200,
  "IL": 6201,
  "ned to ": 6202,
  " boy": 6203,
  "housand": 6204,
  "I could ": 6205,
  "movi": 6206,
  " to keep ": 6207,
  "Augu": 6208,
  "ising": 6209,
  " amazing": 6210,
  "looking for": 6211,
  "adjust": 6212,
  "dead": 6213,
  "today ": 6214,
  " wear": 6215,
  "gether ": 6216,
  "master": 6217,
  "y the ": 6218,
  "DA": 6219,
  "unity to ": 6220,
  "les and": 6221,
  "together ": 6222,
  "White ": 6223,
  " some of the ": 6224,
  " to go": 6225,
  "Medical ": 6226,
  "TS": 6227,
  "s:": 6228,
  " custom": 6229,
  " serve": 6230,
  "annual ": 6231,
  "rank": 6232,
  "indust": 6233,
  " and s": 6234,
  " wonderful": 6235,
  "recently ": 6236,
  "interes": 6237,
  " products ": 6238,
  "e to": 6239,
  "ly in": 6240,
  "absolu": 6241,
  "vie": 6242,
  "pected": 6243,
  "visitor": 6244,
  " carri": 6245,
  "easier": 6246,
  "law ": 6247,
  ". What": 6248,
  " authori": 6249,
  "es, the ": 6250,
  "Best ": 6251,
  ".\nT": 6252,
  "tions of ": 6253,
  "ast, ": 6254,
  "ding to the ": 6255,
  " photograph": 6256,
  " impres": 6257,
  "cious": 6258,
  "olid": 6259,
  "2) ": 6260,
  "Whether ": 6261,
  "gency ": 6262,
  "Dan": 6263,
  "update": 6264,
  "ded the ": 6265,
  "vac": 6266,
  "serie": 6267,
  "ents": 6268,
  " cl": 6269,
  "various": 6270,
  "leave ": 6271,
  "knew ": 6272,
  "aged": 6273,
  "likely": 6274,
  "you don\u2019t ": 6275,
  "s. If ": 6276,
  " transport": 6277,
  " sugges": 6278,
  " began": 6279,
  "dom ": 6280,
  "in their": 6281,
  " which is ": 6282,
  " competition": 6283,
  "it comes to ": 6284,
  " sce": 6285,
  "he is ": 6286,
  "Micha": 6287,
  "quant": 6288,
  " pick ": 6289,
  "otic": 6290,
  " carry ": 6291,
  " as possible": 6292,
  "gave ": 6293,
  "you want ": 6294,
  "es of the ": 6295,
  "65 ": 6296,
  "thinking ": 6297,
  " suc": 6298,
  " word ": 6299,
  "sion and ": 6300,
  "had been ": 6301,
  " for their ": 6302,
  "ensive ": 6303,
  "amin ": 6304,
  "or in": 6305,
  "urt": 6306,
  "s around ": 6307,
  "he has ": 6308,
  " built ": 6309,
  " such as": 6310,
  "or more": 6311,
  "helpful": 6312,
  "eyond ": 6313,
  "bec": 6314,
  " symb": 6315,
  "maker": 6316,
  "struction ": 6317,
  "Ye": 6318,
  "ituti": 6319,
  "ough, ": 6320,
  ") in ": 6321,
  "ates": 6322,
  "guarante": 6323,
  "ing.\n": 6324,
  "peed ": 6325,
  " words ": 6326,
  "Life": 6327,
  " women ": 6328,
  "intelli": 6329,
  "up to": 6330,
  "advance": 6331,
  "refore ": 6332,
  "Love": 6333,
  "s play": 6334,
  ".\nN": 6335,
  " cancer": 6336,
  " the w": 6337,
  " produced": 6338,
  "rapy": 6339,
  "model ": 6340,
  "mountain": 6341,
  "\u00b0": 6342,
  "designed ": 6343,
  " write ": 6344,
  "to say": 6345,
  "its f": 6346,
  "Yo": 6347,
  "s will be ": 6348,
  "var": 6349,
  "Fre": 6350,
  "rene": 6351,
  "nitial ": 6352,
  "OS ": 6353,
  "roof ": 6354,
  " sales": 6355,
  "regarding ": 6356,
  "chain": 6357,
  "reo": 6358,
  " initial ": 6359,
  "s. For ": 6360,
  "Kin": 6361,
  "tane": 6362,
  "advoc": 6363,
  " patter": 6364,
  "hyper": 6365,
  "student ": 6366,
  "inspiration": 6367,
  "driving ": 6368,
  " with my": 6369,
  " clinic": 6370,
  " icon": 6371,
  "ku": 6372,
  "$2": 6373,
  "draft": 6374,
  "database": 6375,
  "visor": 6376,
  "ines ": 6377,
  "you need to": 6378,
  " friendly": 6379,
  "enthu": 6380,
  "Order": 6381,
  "nant ": 6382,
  "fore, ": 6383,
  "Robert ": 6384,
  "Ros": 6385,
  "67": 6386,
  "evere ": 6387,
  "Result": 6388,
  "Part ": 6389,
  "dining ": 6390,
  "examination": 6391,
  "% of the ": 6392,
  "):": 6393,
  "Orlan": 6394,
  "Off ": 6395,
  "dumpster ": 6396,
  "!!\n": 6397,
  "\u2022": 6398,
  "\u200b": 6399,
  "tered ": 6400,
  " product ": 6401,
  "Educ": 6402,
  " produc": 6403,
  " agree": 6404,
  "reser": 6405,
  "Califor": 6406,
  "dard ": 6407,
  "lick": 6408,
  "board": 6409,
  "PC": 6410,
  "or more ": 6411,
  "Any": 6412,
  "s should": 6413,
  "aged ": 6414,
  "kin ": 6415,
  "Bra": 6416,
  "illing": 6417,
  " a little": 6418,
  "interest ": 6419,
  "address": 6420,
  "Prof": 6421,
  "listing": 6422,
  " of S": 6423,
  " far ": 6424,
  "nest": 6425,
  " picture": 6426,
  "harm": 6427,
  ". So ": 6428,
  " cross": 6429,
  "Gal": 6430,
  "God ": 6431,
  " further": 6432,
  " complex": 6433,
  "resource": 6434,
  " between the ": 6435,
  "February ": 6436,
  "s I": 6437,
  "stal": 6438,
  " birth": 6439,
  "similar ": 6440,
  " below ": 6441,
  "included": 6442,
  "gular ": 6443,
  "rative ": 6444,
  "that will": 6445,
  "or and ": 6446,
  "UK ": 6447,
  "ordi": 6448,
  " buyer": 6449,
  "hether": 6450,
  " button": 6451,
  "ed of ": 6452,
  " to our ": 6453,
  "Micro": 6454,
  "Clo": 6455,
  " frame": 6456,
  "s'": 6457,
  "energy ": 6458,
  " thousand": 6459,
  " with your ": 6460,
  "individ": 6461,
  "individual ": 6462,
  " choose ": 6463,
  "licens": 6464,
  " process ": 6465,
  "issue ": 6466,
  "vio": 6467,
  "variety of ": 6468,
  " of these ": 6469,
  " complet": 6470,
  " in order": 6471,
  "articular": 6472,
  " conclu": 6473,
  "strength": 6474,
  "running ": 6475,
  "station": 6476,
  "care": 6477,
  "opportunity to ": 6478,
  "to their": 6479,
  "uppor": 6480,
  "numer": 6481,
  "ting a": 6482,
  "ation.\n": 6483,
  ", where": 6484,
  "You will ": 6485,
  "feren": 6486,
  "s, a ": 6487,
  "nothing": 6488,
  "ript": 6489,
  "to this ": 6490,
  " wish ": 6491,
  "ensive": 6492,
  " constant": 6493,
  "real estate": 6494,
  "needed ": 6495,
  "maybe ": 6496,
  "-based": 6497,
  "red by ": 6498,
  " around the ": 6499,
  ", sp": 6500,
  "EL": 6501,
  "have the": 6502,
  "ing in ": 6503,
  "ate the ": 6504,
  "abric": 6505,
  " after the ": 6506,
  " and is ": 6507,
  "84": 6508,
  " bad ": 6509,
  " considered": 6510,
  "ummer ": 6511,
  "heel": 6512,
  " screen": 6513,
  "DI": 6514,
  "require ": 6515,
  "ving the ": 6516,
  " profit": 6517,
  " plen": 6518,
  "s from the": 6519,
  ". If you ": 6520,
  "ry and": 6521,
  "book ": 6522,
  " a year": 6523,
  "desk": 6524,
  "num": 6525,
  "Other ": 6526,
  "D. ": 6527,
  "in and ": 6528,
  " supplier": 6529,
  "Cra": 6530,
  "ds to": 6531,
  "s available": 6532,
  ", if": 6533,
  "'d ": 6534,
  " this p": 6535,
  "ties and ": 6536,
  " sell ": 6537,
  "restric": 6538,
  "like to": 6539,
  " prevent": 6540,
  "or other ": 6541,
  "unch ": 6542,
  " plac": 6543,
  "instruction": 6544,
  "coming": 6545,
  "itely": 6546,
  "end of the ": 6547,
  "BC": 6548,
  "experienced ": 6549,
  "to be a ": 6550,
  "version ": 6551,
  "dyna": 6552,
  "porting ": 6553,
  " fro": 6554,
  " football": 6555,
  "economy": 6556,
  "verse ": 6557,
  "aint ": 6558,
  "Work": 6559,
  " cloud": 6560,
  "help you": 6561,
  "moved": 6562,
  "s, or ": 6563,
  " favou": 6564,
  "any other ": 6565,
  "Hen": 6566,
  "'s f": 6567,
  "appropriate": 6568,
  "record ": 6569,
  "independent": 6570,
  " approach ": 6571,
  ".\nBut ": 6572,
  "s out": 6573,
  "Colo": 6574,
  "eligi": 6575,
  " confirm": 6576,
  " suffici": 6577,
  ", I ": 6578,
  "s there": 6579,
  "vering": 6580,
  " tree": 6581,
  "vention": 6582,
  " it and ": 6583,
  "Post": 6584,
  "valid": 6585,
  "bid": 6586,
  "Commer": 6587,
  "app ": 6588,
  "vision ": 6589,
  ".\nIf": 6590,
  "ism": 6591,
  "paper": 6592,
  ". There are ": 6593,
  "\" and ": 6594,
  " who are ": 6595,
  " bus": 6596,
  "directly ": 6597,
  "rapid": 6598,
  " whatever ": 6599,
  "Online ": 6600,
  "dating ": 6601,
  "Court": 6602,
  " season ": 6603,
  " society": 6604,
  " coffee": 6605,
  "s away": 6606,
  " of the S": 6607,
  "Data": 6608,
  " a bit ": 6609,
  "it with ": 6610,
  " apply ": 6611,
  "associated with ": 6612,
  "\u2019s S": 6613,
  " score": 6614,
  "knew": 6615,
  "Midd": 6616,
  "folio": 6617,
  " feature ": 6618,
  " security ": 6619,
  "Ry": 6620,
  "Dani": 6621,
  "Ita": 6622,
  "African ": 6623,
  "gio": 6624,
  "s she": 6625,
  "Gri": 6626,
  "sory ": 6627,
  " corporate": 6628,
  "decade": 6629,
  "OF ": 6630,
  "libr": 6631,
  "perspective": 6632,
  "stag": 6633,
  "here to": 6634,
  "Fut": 6635,
  "dose": 6636,
  "ultra": 6637,
  "Buy ": 6638,
  "HI": 6639,
  "Rou": 6640,
  " patients with ": 6641,
  "\u20b9": 6642,
  " card": 6643,
  "ingredi": 6644,
  " window": 6645,
  " file": 6646,
  "extra": 6647,
  "Out": 6648,
  "time to ": 6649,
  "inding": 6650,
  " colour": 6651,
  "als": 6652,
  "seat": 6653,
  "crat": 6654,
  "vea": 6655,
  " behavi": 6656,
  "Mus": 6657,
  " of our": 6658,
  " final ": 6659,
  " wea": 6660,
  "legal ": 6661,
  "response": 6662,
  "State ": 6663,
  "longer ": 6664,
  "I love ": 6665,
  "Program": 6666,
  "expos": 6667,
  "establish": 6668,
  "Are ": 6669,
  "had a": 6670,
  "inside": 6671,
  "logical": 6672,
  "posi": 6673,
  "or a": 6674,
  "native": 6675,
  "ID": 6676,
  " opp": 6677,
  "lex ": 6678,
  "Tw": 6679,
  "dollar": 6680,
  "Buil": 6681,
  "enjoy ": 6682,
  " servi": 6683,
  "step ": 6684,
  "regu": 6685,
  " focus ": 6686,
  "days ": 6687,
  "extra ": 6688,
  "* ": 6689,
  "CH": 6690,
  " a p": 6691,
  "nearly ": 6692,
  "From": 6693,
  "this week": 6694,
  "thre": 6695,
  "assu": 6696,
  " average ": 6697,
  "Bal": 6698,
  " to use ": 6699,
  "use of": 6700,
  "alb": 6701,
  "layer": 6702,
  "across the ": 6703,
  " sort": 6704,
  "'s p": 6705,
  "Fig": 6706,
  "Ce": 6707,
  " when the ": 6708,
  "s of a": 6709,
  "performance ": 6710,
  "perman": 6711,
  " paid": 6712,
  "sions ": 6713,
  "loved ": 6714,
  " comes ": 6715,
  " sin": 6716,
  " takes ": 6717,
  "s your ": 6718,
  " publish": 6719,
  "'s a ": 6720,
  "ourc": 6721,
  " be able to": 6722,
  "helped ": 6723,
  "First": 6724,
  "perate": 6725,
  "s. I ": 6726,
  "HE": 6727,
  "ed from": 6728,
  "ank": 6729,
  "se the ": 6730,
  "Have ": 6731,
  "number ": 6732,
  "LL": 6733,
  "account ": 6734,
  " within the": 6735,
  "ect the ": 6736,
  "County ": 6737,
  " coach": 6738,
  " continue": 6739,
  " feet": 6740,
  " somew": 6741,
  "ing from ": 6742,
  "haps ": 6743,
  "ER ": 6744,
  "Company ": 6745,
  "Inform": 6746,
  "statistic": 6747,
  " conduct": 6748,
  "you need ": 6749,
  " prefer": 6750,
  "hood ": 6751,
  " fif": 6752,
  "up the": 6753,
  "coming ": 6754,
  "alized ": 6755,
  "eeding": 6756,
  "help you ": 6757,
  "look at ": 6758,
  " premi": 6759,
  "place ": 6760,
  "serious ": 6761,
  " of my": 6762,
  " beer": 6763,
  ".\nTo": 6764,
  " before the ": 6765,
  "tainly ": 6766,
  " push": 6767,
  "osted ": 6768,
  " amazing ": 6769,
  " fal": 6770,
  ".\nE": 6771,
  "happi": 6772,
  " balance": 6773,
  " though ": 6774,
  "2012": 6775,
  "necessary ": 6776,
  "veget": 6777,
  " compet": 6778,
  " cause ": 6779,
  "attle": 6780,
  "With the ": 6781,
  "me that ": 6782,
  " spend": 6783,
  " context": 6784,
  "lass ": 6785,
  "storage": 6786,
  "s since ": 6787,
  "Van": 6788,
  "90 ": 6789,
  "s about": 6790,
  " physical": 6791,
  " is in ": 6792,
  "vul": 6793,
  "Techno": 6794,
  " and that ": 6795,
  "kept ": 6796,
  "items ": 6797,
  "\"S": 6798,
  "definitely": 6799,
  "involved ": 6800,
  "to share": 6801,
  "effect ": 6802,
  " opening": 6803,
  "ages": 6804,
  " critical ": 6805,
  "ested ": 6806,
  " sm": 6807,
  " in my": 6808,
  "Hea": 6809,
  " this f": 6810,
  "Review": 6811,
  "Over ": 6812,
  " oil ": 6813,
  " figure ": 6814,
  "ford ": 6815,
  "Use ": 6816,
  "removed": 6817,
  "starting ": 6818,
  "Water": 6819,
  "77": 6820,
  "t or": 6821,
  " won\u2019t ": 6822,
  "not the ": 6823,
  "porting": 6824,
  "Fac": 6825,
  "out and ": 6826,
  " caus": 6827,
  "rising": 6828,
  "s along": 6829,
  "\u00ed": 6830,
  "recommended": 6831,
  " is that": 6832,
  "deck": 6833,
  "s and a ": 6834,
  "2009": 6835,
  "spite ": 6836,
  "perform ": 6837,
  "vine": 6838,
  "print": 6839,
  " forum": 6840,
  "ary of ": 6841,
  "terior ": 6842,
  "rai": 6843,
  "liste": 6844,
  "\u00ae ": 6845,
  " bod": 6846,
  " passion": 6847,
  "oker ": 6848,
  "MC": 6849,
  ":30": 6850,
  " poss": 6851,
  "interpret": 6852,
  " opened ": 6853,
  " object": 6854,
  " beauty": 6855,
  "22 ": 6856,
  "/or": 6857,
  "day of ": 6858,
  " witness": 6859,
  ". However, ": 6860,
  " categori": 6861,
  " becoming": 6862,
  "er to": 6863,
  ". My": 6864,
  "he\u2019s ": 6865,
  " freedom": 6866,
  "accurate": 6867,
  "they will ": 6868,
  "s, they ": 6869,
  "input": 6870,
  "remove ": 6871,
  "Water ": 6872,
  "ishment": 6873,
  " senti": 6874,
  " those who ": 6875,
  "ciety ": 6876,
  "neering ": 6877,
  "\u00b7 ": 6878,
  " plant ": 6879,
  "aste ": 6880,
  "Zea": 6881,
  "New Zea": 6882,
  " fluid": 6883,
  "cm": 6884,
  "\u043b": 6885,
  "19, ": 6886,
  "expens": 6887,
  "tamin": 6888,
  "Chief ": 6889,
  "Test": 6890,
  " scre": 6891,
  "Viet": 6892,
  " in C": 6893,
  "Mecha": 6894,
  "tooth ": 6895,
  "located at ": 6896,
  "Develop": 6897,
  " stock": 6898,
  " in your ": 6899,
  "geo": 6900,
  " program ": 6901,
  "PA": 6902,
  "upon": 6903,
  "13 ": 6904,
  " customer ": 6905,
  "cing ": 6906,
  " we can ": 6907,
  "Em": 6908,
  "Bri": 6909,
  "stage": 6910,
  "Rec": 6911,
  "ink": 6912,
  " candi": 6913,
  "simply": 6914,
  ".\nR": 6915,
  "have to ": 6916,
  "alized": 6917,
  "style ": 6918,
  "rehen": 6919,
  " condi": 6920,
  "Plan": 6921,
  "Act": 6922,
  "measure": 6923,
  "s on the": 6924,
  "taining": 6925,
  "ed on the ": 6926,
  ": S": 6927,
  "Window": 6928,
  "rian": 6929,
  "incorpo": 6930,
  "tially ": 6931,
  "effective ": 6932,
  "leading": 6933,
  "August ": 6934,
  " shar": 6935,
  "desti": 6936,
  " produce": 6937,
  "Commun": 6938,
  "knowled": 6939,
  "scription": 6940,
  "express": 6941,
  "1:": 6942,
  " a very ": 6943,
  "Pen": 6944,
  " bul": 6945,
  "lin ": 6946,
  "third ": 6947,
  "; and ": 6948,
  "kie": 6949,
  "gun": 6950,
  "employee": 6951,
  "on their": 6952,
  "Ben": 6953,
  " weight ": 6954,
  "lying ": 6955,
  "fulf": 6956,
  " paint": 6957,
  "Poli": 6958,
  "Accor": 6959,
  "variety of": 6960,
  " can\u2019t": 6961,
  "according to ": 6962,
  " completely ": 6963,
  "immediately": 6964,
  "Jack": 6965,
  " trave": 6966,
  "hand ": 6967,
  "pite": 6968,
  "NY": 6969,
  "diffe": 6970,
  "they can ": 6971,
  "hibit": 6972,
  " tro": 6973,
  "Gol": 6974,
  " acade": 6975,
  "AB": 6976,
  "manufacturer": 6977,
  "Why": 6978,
  " to use": 6979,
  "early": 6980,
  "they\u2019re ": 6981,
  "Mas": 6982,
  "neck": 6983,
  "/w": 6984,
  "depending ": 6985,
  " opinion": 6986,
  "ource ": 6987,
  " fact ": 6988,
  "OT": 6989,
  "Indian ": 6990,
  "s. It ": 6991,
  " trac": 6992,
  "Free": 6993,
  "down the ": 6994,
  "out. ": 6995,
  "I know ": 6996,
  "determine": 6997,
  ".\nTo ": 6998,
  "it i": 6999,
  " to go ": 7000,
  "technical ": 7001,
  "rely": 7002,
  " pic": 7003,
  " brough": 7004,
  "Uk": 7005,
  ", wh": 7006,
  "er, ": 7007,
  ".\nB": 7008,
  "assistance": 7009,
  "danger": 7010,
  "turing ": 7011,
  " talking ": 7012,
  "ters, ": 7013,
  "Each": 7014,
  "s per ": 7015,
  " of what ": 7016,
  " conference": 7017,
  "TR": 7018,
  "way of ": 7019,
  " brought ": 7020,
  "they can": 7021,
  "existing ": 7022,
  "selling": 7023,
  " office ": 7024,
  "logist": 7025,
  "certainly ": 7026,
  "latest": 7027,
  "s, so": 7028,
  "earlier": 7029,
  "British ": 7030,
  "Network": 7031,
  "terior": 7032,
  "yi": 7033,
  "else ": 7034,
  "Histo": 7035,
  "network ": 7036,
  "nap": 7037,
  "like a": 7038,
  "decide": 7039,
  "(or ": 7040,
  " one of": 7041,
  "ising ": 7042,
  " between the": 7043,
  "Friday ": 7044,
  "Lat": 7045,
  "s, so ": 7046,
  " afterno": 7047,
  " placed ": 7048,
  "a, and ": 7049,
  "ries, ": 7050,
  " a lot ": 7051,
  ". No": 7052,
  "staff ": 7053,
  "Paci": 7054,
  "fication ": 7055,
  "OP": 7056,
  "red the ": 7057,
  "on, the ": 7058,
  "use and ": 7059,
  "s at": 7060,
  "opportuniti": 7061,
  "he was": 7062,
  "edding ": 7063,
  "as soon": 7064,
  "although ": 7065,
  " substan": 7066,
  "materi": 7067,
  "lict": 7068,
  "moving ": 7069,
  "lunch": 7070,
  "tering ": 7071,
  " calcu": 7072,
  ". Some ": 7073,
  "\u201cS": 7074,
  "happy ": 7075,
  "maximum": 7076,
  "seni": 7077,
  " speed": 7078,
  "Chica": 7079,
  "appe": 7080,
  " creative": 7081,
  " symbol": 7082,
  "197": 7083,
  "on an ": 7084,
  "DC": 7085,
  "directly": 7086,
  "day to ": 7087,
  "EE": 7088,
  "Chr": 7089,
  "posal": 7090,
  " specialist": 7091,
  "s. I": 7092,
  "threat": 7093,
  "laugh": 7094,
  "wesome": 7095,
  "reflect": 7096,
  "than the": 7097,
  "take": 7098,
  "s. He": 7099,
  ", what": 7100,
  "Hall": 7101,
  "image ": 7102,
  "cope": 7103,
  "Washington ": 7104,
  " sand": 7105,
  "es to the ": 7106,
  "Maybe ": 7107,
  "32": 7108,
  " for those": 7109,
  "it and": 7110,
  " parking": 7111,
  "heard ": 7112,
  " seven ": 7113,
  ", she ": 7114,
  "attorney": 7115,
  "WA": 7116,
  "Center ": 7117,
  " that they": 7118,
  "ed in the": 7119,
  " created ": 7120,
  " part of ": 7121,
  ". You can": 7122,
  "inde": 7123,
  "man, ": 7124,
  "2:": 7125,
  "may have ": 7126,
  " capable": 7127,
  "52": 7128,
  "s first": 7129,
  "49": 7130,
  " Sunday": 7131,
  "up and": 7132,
  " playing ": 7133,
  "reprene": 7134,
  "questions ": 7135,
  " friends ": 7136,
  "IM": 7137,
  " bench": 7138,
  " place to ": 7139,
  "every day": 7140,
  " figh": 7141,
  "routine": 7142,
  "Guide": 7143,
  "he has": 7144,
  "30, ": 7145,
  "grew ": 7146,
  "sented ": 7147,
  " sid": 7148,
  " System": 7149,
  "\u00e9 ": 7150,
  "et al": 7151,
  "much more ": 7152,
  " compati": 7153,
  "Mate": 7154,
  "Time": 7155,
  "chang": 7156,
  "appointment": 7157,
  "GS": 7158,
  "earn": 7159,
  "lymp": 7160,
  "gathe": 7161,
  " Sunday ": 7162,
  " comment ": 7163,
  "Ireland": 7164,
  "enthusi": 7165,
  " pain ": 7166,
  "religious ": 7167,
  "berg ": 7168,
  "13, ": 7169,
  " total of ": 7170,
  "New Year": 7171,
  "roman": 7172,
  "tocol": 7173,
  "Tip": 7174,
  "ice cream": 7175,
  "portra": 7176,
  "heatre ": 7177,
  " copyright": 7178,
  "\u00fa": 7179,
  "term ": 7180,
  "gency": 7181,
  "elt": 7182,
  "!! ": 7183,
  "ract ": 7184,
  " bra": 7185,
  " would be": 7186,
  "Mis": 7187,
  "to s": 7188,
  "s' ": 7189,
  " party": 7190,
  "ilm": 7191,
  "Web": 7192,
  "must be ": 7193,
  "easily": 7194,
  "> ": 7195,
  " clear ": 7196,
  "mail": 7197,
  "due ": 7198,
  " turn ": 7199,
  "retty": 7200,
  " can\u2019t ": 7201,
  "LO": 7202,
  "acid": 7203,
  "that it ": 7204,
  " traffic": 7205,
  " fine": 7206,
  "ed as ": 7207,
  "es for ": 7208,
  "you would ": 7209,
  "es have": 7210,
  "ending": 7211,
  " that, ": 7212,
  " favorite ": 7213,
  "relat": 7214,
  " fund": 7215,
  "ork": 7216,
  "mple ": 7217,
  " price ": 7218,
  "receive ": 7219,
  " background": 7220,
  "95": 7221,
  " stop ": 7222,
  "greater ": 7223,
  "ed by the": 7224,
  "mani": 7225,
  "standard ": 7226,
  "see the ": 7227,
  "ded by ": 7228,
  "York": 7229,
  "Green ": 7230,
  " traditional": 7231,
  "s).\n": 7232,
  "je": 7233,
  "using the ": 7234,
  "oud ": 7235,
  "Many ": 7236,
  "stick": 7237,
  "must be": 7238,
  ".\nRe": 7239,
  " five": 7240,
  "mind ": 7241,
  "In the": 7242,
  "not only ": 7243,
  "tian ": 7244,
  "size ": 7245,
  "s. We ": 7246,
  "ka ": 7247,
  "able and ": 7248,
  "MP": 7249,
  "growing ": 7250,
  "extremely ": 7251,
  "Cons": 7252,
  "Health ": 7253,
  "hibi": 7254,
  "2,": 7255,
  "\u201d and ": 7256,
  "PE": 7257,
  " wait": 7258,
  "arrange": 7259,
  ", or ": 7260,
  " turned ": 7261,
  "s in a ": 7262,
  "I would": 7263,
  " sugar": 7264,
  "get a": 7265,
  " form ": 7266,
  "hear ": 7267,
  "discount": 7268,
  "Group": 7269,
  "Inf": 7270,
  " basi": 7271,
  "nothing ": 7272,
  "as we ": 7273,
  "added ": 7274,
  "west ": 7275,
  " whether": 7276,
  "Def": 7277,
  "depos": 7278,
  "Andro": 7279,
  " overall": 7280,
  "vid ": 7281,
  "ractic": 7282,
  "ishing": 7283,
  "illust": 7284,
  "Here ": 7285,
  "huge ": 7286,
  " baby": 7287,
  "hit ": 7288,
  "(f": 7289,
  "ince the ": 7290,
  " flight": 7291,
  "you and ": 7292,
  "ning, ": 7293,
  "adequ": 7294,
  " to keep": 7295,
  "rian ": 7296,
  ". All": 7297,
  "recog": 7298,
  "asked ": 7299,
  "s app": 7300,
  " sca": 7301,
  "ed with the ": 7302,
  "return ": 7303,
  "access to ": 7304,
  " back to ": 7305,
  "vig": 7306,
  "jus": 7307,
  "economic ": 7308,
  "rict ": 7309,
  " co-": 7310,
  " in our": 7311,
  " sales ": 7312,
  ", please ": 7313,
  " physical ": 7314,
  "years": 7315,
  "exec": 7316,
  " trou": 7317,
  "remin": 7318,
  "out of the": 7319,
  "ups": 7320,
  "Trump": 7321,
  "value ": 7322,
  "accomp": 7323,
  " carry": 7324,
  "bility ": 7325,
  " ahead": 7326,
  " page ": 7327,
  "absor": 7328,
  " track ": 7329,
  " produce ": 7330,
  "Idea": 7331,
  "lands": 7332,
  "s their ": 7333,
  "inch": 7334,
  " is in": 7335,
  " if the ": 7336,
  "CP": 7337,
  " circum": 7338,
  " purpos": 7339,
  "Mari": 7340,
  " a small ": 7341,
  " walk ": 7342,
  "els ": 7343,
  "2011": 7344,
  "&apo": 7345,
  "level of ": 7346,
  "reason ": 7347,
  "usual": 7348,
  "Texa": 7349,
  "s some ": 7350,
  "double ": 7351,
  " problems ": 7352,
  "ence and ": 7353,
  " for me": 7354,
  "e and the ": 7355,
  " identifi": 7356,
  " in his ": 7357,
  "fair": 7358,
  " balan": 7359,
  "poration": 7360,
  "pie": 7361,
  " ten ": 7362,
  "ready to ": 7363,
  "48": 7364,
  "ractor": 7365,
  "&apos;": 7366,
  ", but the ": 7367,
  "Lt": 7368,
  " for all ": 7369,
  "bia": 7370,
  "Han": 7371,
  " paper ": 7372,
  "hotos": 7373,
  ". and ": 7374,
  "ng, ": 7375,
  " chemical": 7376,
  "ING ": 7377,
  "dealing": 7378,
  "tainly": 7379,
  "ndon ": 7380,
  "it wa": 7381,
  "Northern ": 7382,
  "delay": 7383,
  "2016 ": 7384,
  "dential ": 7385,
  "memori": 7386,
  "Michael ": 7387,
  "West": 7388,
  "lator": 7389,
  "Aug": 7390,
  " so much ": 7391,
  "s far": 7392,
  "quare": 7393,
  ", which is ": 7394,
  "how much ": 7395,
  "inven": 7396,
  "ft. ": 7397,
  "ucing ": 7398,
  "ned to": 7399,
  "it in ": 7400,
  " photographer": 7401,
  "half ": 7402,
  " comfortable": 7403,
  "rison": 7404,
  "th-": 7405,
  "injuri": 7406,
  "Two ": 7407,
  "sari": 7408,
  "s will be": 7409,
  " bec": 7410,
  "Top ": 7411,
  "guidance": 7412,
  " career ": 7413,
  "outcome": 7414,
  "anticip": 7415,
  " sharing ": 7416,
  " and will": 7417,
  "developing ": 7418,
  "Road": 7419,
  ", it": 7420,
  "Enter": 7421,
  " became ": 7422,
  "useum": 7423,
  "df": 7424,
  "middle": 7425,
  "label": 7426,
  " sample": 7427,
  " index": 7428,
  " bless": 7429,
  "s and a": 7430,
  " patient ": 7431,
  "senior": 7432,
  "generally": 7433,
  "peak ": 7434,
  "Street ": 7435,
  " police": 7436,
  ", she": 7437,
  "grate": 7438,
  " president": 7439,
  "norm": 7440,
  "(the ": 7441,
  ", there are ": 7442,
  "decisi": 7443,
  "eight": 7444,
  "en to": 7445,
  "ed with a ": 7446,
  "alist ": 7447,
  "Open ": 7448,
  "Mont": 7449,
  "s. They ": 7450,
  "announced ": 7451,
  "thlet": 7452,
  "output": 7453,
  "3,": 7454,
  "likely to ": 7455,
  "resolution": 7456,
  " contribut": 7457,
  " identify": 7458,
  "Monday": 7459,
  "youth": 7460,
  "port, ": 7461,
  " predic": 7462,
  "however ": 7463,
  "located": 7464,
  "result ": 7465,
  "extensive": 7466,
  "BO": 7467,
  "testing ": 7468,
  "using the": 7469,
  "visual ": 7470,
  "Global ": 7471,
  " sister": 7472,
  "portfolio": 7473,
  " teams ": 7474,
  "s of this ": 7475,
  "Prime ": 7476,
  " prices ": 7477,
  "or even ": 7478,
  "tioning": 7479,
  "vast ": 7480,
  " initial": 7481,
  "advanced": 7482,
  " to my": 7483,
  "info ": 7484,
  " spec": 7485,
  "investigation": 7486,
  " type ": 7487,
  "outf": 7488,
  "King ": 7489,
  "removal": 7490,
  " predict": 7491,
  "Apple ": 7492,
  "reti": 7493,
  " of The ": 7494,
  "s. She ": 7495,
  " cheap ": 7496,
  "empha": 7497,
  " players ": 7498,
  "Instagram": 7499,
  "lates ": 7500,
  "staying ": 7501,
  "Call": 7502,
  " automo": 7503,
  "repli": 7504,
  "Store": 7505,
  " object ": 7506,
  "generic ": 7507,
  "amsung ": 7508,
  "portable ": 7509,
  "PR": 7510,
  "self-": 7511,
  "upon ": 7512,
  "Dri": 7513,
  "long-": 7514,
  "com ": 7515,
  "Direct": 7516,
  " weight": 7517,
  "aller": 7518,
  " original ": 7519,
  " point ": 7520,
  "it was": 7521,
  " says ": 7522,
  "Vir": 7523,
  " we can": 7524,
  "reach ": 7525,
  "itution": 7526,
  " private ": 7527,
  "05": 7528,
  "higher": 7529,
  " film": 7530,
  "d to": 7531,
  "isn\u2019t ": 7532,
  " the work": 7533,
  "ment of": 7534,
  ". With": 7535,
  "dark": 7536,
  "ordin": 7537,
  "luc": 7538,
  " cup": 7539,
  "vered ": 7540,
  "United Stat": 7541,
  "accompl": 7542,
  "modi": 7543,
  " white ": 7544,
  "es.\nThe ": 7545,
  ", because ": 7546,
  " web ": 7547,
  " as s": 7548,
  "Mart": 7549,
  " away ": 7550,
  "Over": 7551,
  "tar ": 7552,
  "thinking": 7553,
  " with your": 7554,
  "divers": 7555,
  "AD": 7556,
  " slight": 7557,
  "unding ": 7558,
  " of his ": 7559,
  "able, ": 7560,
  " fr": 7561,
  "Chan": 7562,
  "Although ": 7563,
  "Mag": 7564,
  "OU": 7565,
  "ong ": 7566,
  "I don't ": 7567,
  " of this": 7568,
  " political ": 7569,
  "tely": 7570,
  "s sub": 7571,
  "age and ": 7572,
  "exercise": 7573,
  "ban ": 7574,
  "like a ": 7575,
  "instru": 7576,
  " plastic": 7577,
  "Pal": 7578,
  " fact that ": 7579,
  " shape": 7580,
  "Class": 7581,
  "s to be": 7582,
  "ources ": 7583,
  " sle": 7584,
  " park": 7585,
  "that a ": 7586,
  "Ran": 7587,
  "Caro": 7588,
  ". That ": 7589,
  "riting ": 7590,
  "Austra": 7591,
  "Rob": 7592,
  "s for a ": 7593,
  " city ": 7594,
  ". R": 7595,
  "yester": 7596,
  " agre": 7597,
  " click": 7598,
  "Cong": 7599,
  "us to": 7600,
  " particular ": 7601,
  "s should ": 7602,
  "Australia": 7603,
  "volume": 7604,
  "HS": 7605,
  "Dig": 7606,
  "Facebook": 7607,
  " aim": 7608,
  "on this": 7609,
  " sent ": 7610,
  "heart ": 7611,
  "regular ": 7612,
  " a f": 7613,
  "Catho": 7614,
  "x, ": 7615,
  "olution ": 7616,
  " www.": 7617,
  "movie": 7618,
  " a long ": 7619,
  "peace": 7620,
  "grow ": 7621,
  "us on ": 7622,
  "Regi": 7623,
  "lari": 7624,
  "Hill": 7625,
  "Fro": 7626,
  "istration ": 7627,
  "they were": 7628,
  " that are ": 7629,
  "North": 7630,
  "(A": 7631,
  "), and ": 7632,
  " types of ": 7633,
  "(s": 7634,
  "2017 ": 7635,
  "get to ": 7636,
  "quot": 7637,
  "il, ": 7638,
  " chair": 7639,
  "Finan": 7640,
  "did not": 7641,
  "how the ": 7642,
  "make sure ": 7643,
  "looking for ": 7644,
  "risk ": 7645,
  "Ann": 7646,
  " spect": 7647,
  " tel": 7648,
  "Acade": 7649,
  " clean ": 7650,
  "inspired": 7651,
  "Good": 7652,
  "ly-": 7653,
  "standing ": 7654,
  " began ": 7655,
  "ated in ": 7656,
  "roll ": 7657,
  " an in": 7658,
  "Find ": 7659,
  "distance": 7660,
  " brother": 7661,
  "moist": 7662,
  "are also ": 7663,
  "Ope": 7664,
  "has the": 7665,
  " painting": 7666,
  ". There ": 7667,
  ". By ": 7668,
  ", tra": 7669,
  " a large ": 7670,
  "certainly": 7671,
  "HO": 7672,
  "gone ": 7673,
  "didn\u2019t": 7674,
  " beyond ": 7675,
  "p the ": 7676,
  " sour": 7677,
  "s, or": 7678,
  " submit": 7679,
  ") is ": 7680,
  " powerful ": 7681,
  " confir": 7682,
  "s all ": 7683,
  " snow": 7684,
  "rising ": 7685,
  "numerous ": 7686,
  " primary": 7687,
  " and we ": 7688,
  "defini": 7689,
  " served ": 7690,
  "vering ": 7691,
  " sac": 7692,
  "rimari": 7693,
  "named": 7694,
  " class ": 7695,
  "along ": 7696,
  ".\nThat": 7697,
  " sale ": 7698,
  ". No ": 7699,
  "BA": 7700,
  "Eli": 7701,
  "itch ": 7702,
  "diseas": 7703,
  "Canada": 7704,
  "adventure": 7705,
  "ation is ": 7706,
  "ager ": 7707,
  "day. ": 7708,
  "tist ": 7709,
  "Camp": 7710,
  "liqu": 7711,
  ", or": 7712,
  " firm ": 7713,
  "able and": 7714,
  ".\nAnd ": 7715,
  "College ": 7716,
  ". Even": 7717,
  "ing an ": 7718,
  "increased": 7719,
  " conflict": 7720,
  "quick ": 7721,
  "ed an ": 7722,
  "jump": 7723,
  "binet": 7724,
  "oken ": 7725,
  "Do you ": 7726,
  "percent ": 7727,
  " created": 7728,
  " can't ": 7729,
  "thetic": 7730,
  "amount of": 7731,
  "ria ": 7732,
  "Management ": 7733,
  "92": 7734,
  "Monday ": 7735,
  "had to ": 7736,
  "31": 7737,
  "hotel ": 7738,
  " biggest": 7739,
  " powerful": 7740,
  "military ": 7741,
  "just a": 7742,
  "listen": 7743,
  "moved ": 7744,
  "disclos": 7745,
  "race ": 7746,
  "order to ": 7747,
  " offered ": 7748,
  " credit ": 7749,
  "Management": 7750,
  " auth": 7751,
  "Love ": 7752,
  " seven": 7753,
  " and an ": 7754,
  "Take": 7755,
  " and then ": 7756,
  ". Please ": 7757,
  "\".\n": 7758,
  "2 and ": 7759,
  "cale ": 7760,
  " contain ": 7761,
  "retail": 7762,
  " part of the": 7763,
  " is part": 7764,
  " sounds ": 7765,
  "engineering": 7766,
  " crash": 7767,
  " scope": 7768,
  "Chair": 7769,
  "Perf": 7770,
  " the company": 7771,
  "AG": 7772,
  "-out": 7773,
  "my own": 7774,
  "minat": 7775,
  ". Most": 7776,
  "lence": 7777,
  " where the": 7778,
  "lamp": 7779,
  " tac": 7780,
  "health care": 7781,
  "visual": 7782,
  "\u2019s the ": 7783,
  "buil": 7784,
  "Dra": 7785,
  "Pro ": 7786,
  ".\nPro": 7787,
  "Bob": 7788,
  " conten": 7789,
  "lod": 7790,
  " founder": 7791,
  " fast ": 7792,
  "rish ": 7793,
  "Advan": 7794,
  " trick": 7795,
  "or \u201c": 7796,
  "ables ": 7797,
  " center ": 7798,
  "negative": 7799,
  ": \u201c": 7800,
  "Amaz": 7801,
  "Grand ": 7802,
  "-win": 7803,
  "unless ": 7804,
  "invi": 7805,
  "alcohol": 7806,
  "series of ": 7807,
  " controller": 7808,
  "case": 7809,
  ". I\u2019m ": 7810,
  " willing ": 7811,
  "Lau": 7812,
  "gineering ": 7813,
  " therap": 7814,
  "Dr ": 7815,
  "s. But ": 7816,
  "18-": 7817,
  "2nd ": 7818,
  "enables ": 7819,
  " worry": 7820,
  " female ": 7821,
  "Cro": 7822,
  "luxury ": 7823,
  " comic": 7824,
  " conven": 7825,
  "4th ": 7826,
  "Give ": 7827,
  "on all ": 7828,
  "your business ": 7829,
  " School of ": 7830,
  " friends and": 7831,
  "Rail": 7832,
  "hei": 7833,
  "wai": 7834,
  "Ryan ": 7835,
  "Apart": 7836,
  "Moreover": 7837,
  "Mol": 7838,
  "massage": 7839,
  "Dump": 7840,
  "\u2009": 7841,
  "nuc": 7842,
  " server": 7843,
  " court": 7844,
  "that we ": 7845,
  "equipment": 7846,
  "west": 7847,
  "easy to ": 7848,
  " click ": 7849,
  " search ": 7850,
  " choco": 7851,
  "una": 7852,
  " favorite": 7853,
  " ship": 7854,
  "the result": 7855,
  " private": 7856,
  "in the world": 7857,
  " platform": 7858,
  "outside ": 7859,
  "ondon": 7860,
  " pha": 7861,
  "discip": 7862,
  "xe": 7863,
  "journey": 7864,
  "health ": 7865,
  ".\nC": 7866,
  "Ya": 7867,
  "Church": 7868,
  "London": 7869,
  "almost": 7870,
  "Demo": 7871,
  " brain": 7872,
  "nated": 7873,
  "hair ": 7874,
  " fast": 7875,
  "s but": 7876,
  "reader": 7877,
  "ussion": 7878,
  "Lar": 7879,
  " to re": 7880,
  "es on": 7881,
  "ternative": 7882,
  " software ": 7883,
  "not only": 7884,
  "like the ": 7885,
  "to S": 7886,
  "nos": 7887,
  "ximately ": 7888,
  "Coo": 7889,
  "grade": 7890,
  "ation of": 7891,
  "pproximately ": 7892,
  " soluti": 7893,
  "especially ": 7894,
  "Mark": 7895,
  "anyone ": 7896,
  " pag": 7897,
  "NG": 7898,
  " cla": 7899,
  "earcher": 7900,
  " above ": 7901,
  "an and ": 7902,
  "yr": 7903,
  "void ": 7904,
  "New York": 7905,
  " control ": 7906,
  "Other": 7907,
  "Dec": 7908,
  ". This is ": 7909,
  "tone ": 7910,
  " presen": 7911,
  "highly": 7912,
  "cement": 7913,
  " among ": 7914,
  " planning": 7915,
  " of all": 7916,
  " prior": 7917,
  "\u00e1": 7918,
  "ers": 7919,
  "deser": 7920,
  ".\nWhat ": 7921,
  " won": 7922,
  "to other": 7923,
  "reference": 7924,
  "21": 7925,
  ").": 7926,
  "85": 7927,
  " said, ": 7928,
  "Internet": 7929,
  " within the ": 7930,
  " as part": 7931,
  " compla": 7932,
  " content ": 7933,
  "increasing": 7934,
  "dered": 7935,
  ", I": 7936,
  "idea ": 7937,
  "$1": 7938,
  "English ": 7939,
  "s. In": 7940,
  "straight": 7941,
  "inding ": 7942,
  " again ": 7943,
  " suppor": 7944,
  " companie": 7945,
  " cheap": 7946,
  " surro": 7947,
  "interac": 7948,
  " spi": 7949,
  "respective": 7950,
  " pair": 7951,
  "mir": 7952,
  "alternative": 7953,
  "dition ": 7954,
  ", from ": 7955,
  "itting": 7956,
  "to buy": 7957,
  "s\u201d ": 7958,
  "himself": 7959,
  "s have been ": 7960,
  "tox": 7961,
  "Check ": 7962,
  "senger": 7963,
  "rui": 7964,
  " poor": 7965,
  " of them ": 7966,
  " of all ": 7967,
  "opti": 7968,
  "leadership": 7969,
  " when you": 7970,
  "electric": 7971,
  "Read ": 7972,
  ". One": 7973,
  "Art ": 7974,
  "\u201d.\n": 7975,
  "arch": 7976,
  "timi": 7977,
  ". W": 7978,
  "advertise": 7979,
  ".\nSo ": 7980,
  " take a ": 7981,
  " country ": 7982,
  "rais": 7983,
  "the-": 7984,
  "mac": 7985,
  "things": 7986,
  "hang": 7987,
  "to bring ": 7988,
  "Design ": 7989,
  ".\nBe": 7990,
  "enable ": 7991,
  " Service ": 7992,
  "one-": 7993,
  "ama ": 7994,
  "DS": 7995,
  " sometimes ": 7996,
  "Play": 7997,
  "ries. ": 7998,
  ". There are": 7999,
  "to be a": 8000,
  "200 ": 8001,
  " can't": 8002,
  "honor": 8003,
  "minutes ": 8004,
  "interested in ": 8005,
  "urg": 8006,
  "ewin": 8007,
  "Old ": 8008,
  "ation that ": 8009,
  "ires ": 8010,
  " fruit": 8011,
  "technologi": 8012,
  "at this ": 8013,
  "it a": 8014,
  " commercial ": 8015,
  "Book ": 8016,
  " critical": 8017,
  "including the ": 8018,
  " procedure": 8019,
  ". Un": 8020,
  "I\u2019ll ": 8021,
  "Tim": 8022,
  "encourage ": 8023,
  "23 ": 8024,
  "ptom": 8025,
  "ding and ": 8026,
  "year, ": 8027,
  ", by ": 8028,
  "eye ": 8029,
  "radio": 8030,
  "seg": 8031,
  "s them ": 8032,
  "ability to": 8033,
  "drop ": 8034,
  "it can ": 8035,
  " practic": 8036,
  "ray ": 8037,
  "ump ": 8038,
  ". It's ": 8039,
  " cool ": 8040,
  "ganis": 8041,
  "lives ": 8042,
  "although": 8043,
  "s.\nThis ": 8044,
  " told": 8045,
  "1 and ": 8046,
  "rint ": 8047,
  " friend ": 8048,
  "field ": 8049,
  " we were ": 8050,
  " schedule": 8051,
  "info": 8052,
  "alp": 8053,
  "larger": 8054,
  "s free": 8055,
  "75 ": 8056,
  "tari": 8057,
  "annual": 8058,
  "Learn ": 8059,
  " favor": 8060,
  "Bio": 8061,
  "repre": 8062,
  ".e": 8063,
  "km": 8064,
  "may not ": 8065,
  " work, ": 8066,
  "2000": 8067,
  "ate and ": 8068,
  " solid": 8069,
  "immediate": 8070,
  " sli": 8071,
  "know what ": 8072,
  "doesn\u2019t": 8073,
  "Who ": 8074,
  "anti-": 8075,
  "fort ": 8076,
  " smooth": 8077,
  "around the world": 8078,
  "minute ": 8079,
  " occasion": 8080,
  "arc": 8081,
  "venue": 8082,
  "neighborhood": 8083,
  "Direc": 8084,
  " totally ": 8085,
  "Congres": 8086,
  "replacement": 8087,
  "ation of the": 8088,
  "instituti": 8089,
  "Io": 8090,
  "low-": 8091,
  "simul": 8092,
  "Thin": 8093,
  "indi": 8094,
  "or her ": 8095,
  " worked ": 8096,
  "44": 8097,
  "eory": 8098,
  "jection": 8099,
  "atio": 8100,
  "regnan": 8101,
  "s was ": 8102,
  "tive and ": 8103,
  " publ": 8104,
  "deman": 8105,
  " projects ": 8106,
  " placed": 8107,
  ", but it ": 8108,
  "Tab": 8109,
  " conver": 8110,
  " sight": 8111,
  " cros": 8112,
  ".\nAs": 8113,
  "I do": 8114,
  "equipp": 8115,
  " classi": 8116,
  "straight ": 8117,
  "raise": 8118,
  ". Co": 8119,
  "instead of ": 8120,
  "developer": 8121,
  "evolution": 8122,
  "s into ": 8123,
  "entreprene": 8124,
  " clients ": 8125,
  "): ": 8126,
  "levels of ": 8127,
  " container": 8128,
  "Assist": 8129,
  ".\nSt": 8130,
  "William ": 8131,
  "Map": 8132,
  " serving": 8133,
  " of t": 8134,
  " willing": 8135,
  "Ku": 8136,
  "entr": 8137,
  "ink ": 8138,
  "Ash": 8139,
  " what we ": 8140,
  "ous and ": 8141,
  " creating ": 8142,
  "Chinese": 8143,
  "cutting ": 8144,
  "Year ": 8145,
  "born ": 8146,
  "MB": 8147,
  " is an": 8148,
  "pair ": 8149,
  "t. It ": 8150,
  "12, ": 8151,
  "s. T": 8152,
  "mination ": 8153,
  "Doct": 8154,
  "risk of": 8155,
  "are, ": 8156,
  "influence ": 8157,
  " therapy": 8158,
  "Amazon ": 8159,
  "cement ": 8160,
  "Phil": 8161,
  "upper ": 8162,
  "(T": 8163,
  ".\nAl": 8164,
  " Sport": 8165,
  "mill ": 8166,
  " bottle": 8167,
  " free to": 8168,
  " books ": 8169,
  " parameter": 8170,
  "Bru": 8171,
  "emotional ": 8172,
  " patch": 8173,
  " Saturday ": 8174,
  "Middle ": 8175,
  "Ol": 8176,
  "Help": 8177,
  "library": 8178,
  "Willia": 8179,
  "Joe ": 8180,
  "architecture": 8181,
  " with all ": 8182,
  "neighbour": 8183,
  "emotion": 8184,
  " counc": 8185,
  "civil ": 8186,
  "thletic": 8187,
  "logo ": 8188,
  " tablet": 8189,
  "binet ": 8190,
  "Guide ": 8191,
  "\u00a6": 8192,
  "\u2002": 8193,
  "dish": 8194,
  "virt": 8195,
  "Japan": 8196,
  "elt ": 8197,
  "under the ": 8198,
  " we have ": 8199,
  "I'm": 8200,
  "(i": 8201,
  " clai": 8202,
  " wedding": 8203,
  "mainte": 8204,
  "egg": 8205,
  "equal": 8206,
  "ingredient": 8207,
  "ly the": 8208,
  ".com ": 8209,
  " sco": 8210,
  " fat": 8211,
  "More ": 8212,
  "sions": 8213,
  " wai": 8214,
  " could be ": 8215,
  "timate ": 8216,
  " cat": 8217,
  "more about ": 8218,
  "s to be ": 8219,
  " San ": 8220,
  " surface": 8221,
  "uns": 8222,
  "doctor": 8223,
  "Jour": 8224,
  " cloth": 8225,
  " went": 8226,
  "pers": 8227,
  "greement": 8228,
  "last year": 8229,
  "user ": 8230,
  ".\nD": 8231,
  ") to ": 8232,
  "also be ": 8233,
  "seem ": 8234,
  "towards ": 8235,
  "ii": 8236,
  "you\u2019ll ": 8237,
  "ks of ": 8238,
  "mort": 8239,
  "s\"": 8240,
  "kind of": 8241,
  "HA": 8242,
  "ignment": 8243,
  "lou": 8244,
  "do you ": 8245,
  " agreement": 8246,
  "maintain": 8247,
  "English": 8248,
  "fferen": 8249,
  " areas": 8250,
  "iction": 8251,
  "lost": 8252,
  "96": 8253,
  "download ": 8254,
  "um, ": 8255,
  "doe": 8256,
  " pre-": 8257,
  "accident": 8258,
  "knowledge ": 8259,
  "ridge": 8260,
  " scene": 8261,
  "reduce ": 8262,
  "or to": 8263,
  "that we": 8264,
  "ambi": 8265,
  " poin": 8266,
  "s for a": 8267,
  "Every ": 8268,
  "blig": 8269,
  "magaz": 8270,
  " sensi": 8271,
  "ing of ": 8272,
  " craft": 8273,
  "ression ": 8274,
  " title": 8275,
  "alone": 8276,
  ". When": 8277,
  "galle": 8278,
  " color ": 8279,
  "I know": 8280,
  " political": 8281,
  "that can ": 8282,
  "Or ": 8283,
  " choos": 8284,
  "mut": 8285,
  "cape": 8286,
  " so many ": 8287,
  "e.g": 8288,
  "\"The ": 8289,
  "out to ": 8290,
  ".\nIt ": 8291,
  "ning and ": 8292,
  "lined": 8293,
  "(whi": 8294,
  "time to": 8295,
  "ity. ": 8296,
  " Sha": 8297,
  "alize ": 8298,
  "ranch": 8299,
  "you, ": 8300,
  ".\nHow ": 8301,
  " party ": 8302,
  "destination": 8303,
  "store ": 8304,
  " wat": 8305,
  "rival": 8306,
  "graphic ": 8307,
  "ducer": 8308,
  "Although": 8309,
  "Blu": 8310,
  "Today": 8311,
  "rown ": 8312,
  "EP": 8313,
  "vot": 8314,
  "t. It": 8315,
  "Jer": 8316,
  "tion of ": 8317,
  "ves, ": 8318,
  " provision": 8319,
  " onto ": 8320,
  "monit": 8321,
  ". L": 8322,
  "cio": 8323,
  "Vic": 8324,
  "ting in ": 8325,
  "efficiency": 8326,
  ".\nHe": 8327,
  "encoun": 8328,
  "important to ": 8329,
  " two-": 8330,
  " practice ": 8331,
  "position": 8332,
  " bathroom": 8333,
  "doesn't ": 8334,
  "immer": 8335,
  "cou": 8336,
  "DV": 8337,
  "Mac": 8338,
  "ous s": 8339,
  " type of": 8340,
  "IP ": 8341,
  "mys": 8342,
  "gged ": 8343,
  " a week": 8344,
  "tunate": 8345,
  "xid": 8346,
  "mad": 8347,
  "s with a": 8348,
  "s when ": 8349,
  "(p": 8350,
  ". I am ": 8351,
  "selling ": 8352,
  "adding": 8353,
  " operating": 8354,
  " samp": 8355,
  "existing": 8356,
  "seeing ": 8357,
  ". 1": 8358,
  "group of ": 8359,
  "minal": 8360,
  ".co": 8361,
  "any other": 8362,
  "45 ": 8363,
  "s up": 8364,
  "es will ": 8365,
  "George ": 8366,
  "helping ": 8367,
  " critic": 8368,
  "34": 8369,
  "explore": 8370,
  "39": 8371,
  "not to ": 8372,
  "owned": 8373,
  "orga": 8374,
  "regulation": 8375,
  "s, with": 8376,
  " winner": 8377,
  "update ": 8378,
  " works ": 8379,
  "your busines": 8380,
  "you're": 8381,
  "glad": 8382,
  "; the": 8383,
  "CD": 8384,
  "teaching ": 8385,
  " is made": 8386,
  "ration of ": 8387,
  "(2": 8388,
  " compens": 8389,
  "heavi": 8390,
  "Cas": 8391,
  "recommendation": 8392,
  "stea": 8393,
  "dium": 8394,
  "reme ": 8395,
  "dates ": 8396,
  "larger ": 8397,
  " participant": 8398,
  " characteristic": 8399,
  "organis": 8400,
  " plus ": 8401,
  " wheel": 8402,
  "rights ": 8403,
  "nisation": 8404,
  "on its ": 8405,
  " we\u2019re ": 8406,
  " as you ": 8407,
  " when it comes to ": 8408,
  "za ": 8409,
  "instant": 8410,
  "able. ": 8411,
  "level of": 8412,
  "mant": 8413,
  "torie": 8414,
  " bedro": 8415,
  "technique": 8416,
  "you have a ": 8417,
  "itself ": 8418,
  " science": 8419,
  "note ": 8420,
  "Keep": 8421,
  ".\nWith ": 8422,
  "has an ": 8423,
  " bedroom": 8424,
  "estimate": 8425,
  "exchange": 8426,
  "machin": 8427,
  "!\nThe ": 8428,
  "21 ": 8429,
  "edly": 8430,
  "Coll": 8431,
  " Sto": 8432,
  "thing that ": 8433,
  "mentioned ": 8434,
  "volunteer": 8435,
  "Bud": 8436,
  "necessari": 8437,
  "Master": 8438,
  " bid": 8439,
  " is now ": 8440,
  "Ret": 8441,
  "extensive ": 8442,
  "portun": 8443,
  "ook, ": 8444,
  "s would ": 8445,
  "ate the": 8446,
  "ations, ": 8447,
  "messag": 8448,
  " promotion": 8449,
  " opt": 8450,
  " broker": 8451,
  "Amazon": 8452,
  "D, ": 8453,
  "essor": 8454,
  "Information ": 8455,
  "ency ": 8456,
  "unit ": 8457,
  "unex": 8458,
  " shows ": 8459,
  "it\u2019s a ": 8460,
  "Radi": 8461,
  "member of the ": 8462,
  " climb": 8463,
  "or even": 8464,
  "improved": 8465,
  "itar": 8466,
  " sold ": 8467,
  " category": 8468,
  " televi": 8469,
  " funda": 8470,
  "T-": 8471,
  " figure": 8472,
  "(t": 8473,
  "ativ": 8474,
  " places ": 8475,
  " furniture": 8476,
  "is one of the ": 8477,
  "sion and": 8478,
  "in all": 8479,
  "morrow": 8480,
  "environment ": 8481,
  " we were": 8482,
  "opportun": 8483,
  "Ltd": 8484,
  ". Of": 8485,
  "RES": 8486,
  "experienc": 8487,
  "reference ": 8488,
  " and b": 8489,
  "it a ": 8490,
  "that can be ": 8491,
  ".\nWith": 8492,
  "ville, ": 8493,
  "phone ": 8494,
  "ull of ": 8495,
  "Mr ": 8496,
  " features": 8497,
  ". It is": 8498,
  "ling, ": 8499,
  "Bath": 8500,
  "Temp": 8501,
  " proof": 8502,
  "zen ": 8503,
  "Chap": 8504,
  " counsel": 8505,
  " target ": 8506,
  "June": 8507,
  "ville": 8508,
  " what the": 8509,
  "reen ": 8510,
  "pool": 8511,
  "loop": 8512,
  "ed up ": 8513,
  "Comm": 8514,
  "accommo": 8515,
  "advent": 8516,
  " fas": 8517,
  "exciting": 8518,
  "star ": 8519,
  "through a": 8520,
  "an over": 8521,
  "involve": 8522,
  "ly, the": 8523,
  " audio": 8524,
  "cession": 8525,
  " pictures": 8526,
  "s, it": 8527,
  "Tel": 8528,
  " to $": 8529,
  "Start": 8530,
  "sionate ": 8531,
  " filter": 8532,
  "Mur": 8533,
  "s, please": 8534,
  "YouTu": 8535,
  ". On ": 8536,
  "depth": 8537,
  ", he": 8538,
  "/c": 8539,
  "yard ": 8540,
  "ised": 8541,
  "rapy ": 8542,
  "it will be ": 8543,
  "ed with a": 8544,
  " published": 8545,
  "Online": 8546,
  "toc": 8547,
  "hysio": 8548,
  "12-": 8549,
  "dark ": 8550,
  " will help ": 8551,
  " to all ": 8552,
  " promin": 8553,
  "Colora": 8554,
  " couple of": 8555,
  "Way": 8556,
  "retail ": 8557,
  "Beauti": 8558,
  " for free": 8559,
  "decreas": 8560,
  "General": 8561,
  "Committee": 8562,
  "had the": 8563,
  " focu": 8564,
  "appo": 8565,
  " provin": 8566,
  " before you ": 8567,
  " facing": 8568,
  "Ala": 8569,
  "acting": 8570,
  "unge": 8571,
  "visited ": 8572,
  "gender ": 8573,
  " senten": 8574,
  ". His": 8575,
  "Pict": 8576,
  " shipp": 8577,
  "ds in": 8578,
  " wallpaper": 8579,
  "De ": 8580,
  "has not": 8581,
  "vitamin": 8582,
  "Studio ": 8583,
  "portrait": 8584,
  "Natural": 8585,
  "recording ": 8586,
  "Bob ": 8587,
  "deleg": 8588,
  " of E": 8589,
  ",\" he said": 8590,
  "visa": 8591,
  "University, ": 8592,
  "gla": 8593,
  "DE": 8594,
  "mers ": 8595,
  "acy ": 8596,
  " sheet": 8597,
  "Canadi": 8598,
  "|": 8599,
  "your own ": 8600,
  "198": 8601,
  "European ": 8602,
  "sycho": 8603,
  "your home": 8604,
  " basic": 8605,
  "illed": 8606,
  "M. ": 8607,
  " providing ": 8608,
  "legis": 8609,
  "inside ": 8610,
  "tinue ": 8611,
  "route": 8612,
  "lub ": 8613,
  " promis": 8614,
  "recent": 8615,
  "Ten": 8616,
  "mas ": 8617,
  " send ": 8618,
  "ors, ": 8619,
  "ronic ": 8620,
  "Call ": 8621,
  "chen ": 8622,
  "attention": 8623,
  "Good ": 8624,
  " capt": 8625,
  "ricult": 8626,
  " format": 8627,
  "strategy": 8628,
  "olen": 8629,
  "80 ": 8630,
  ". My ": 8631,
  "king the ": 8632,
  "tific": 8633,
  "ended ": 8634,
  " when you ": 8635,
  " that you": 8636,
  " cot": 8637,
  " so much": 8638,
  " spread": 8639,
  "(and ": 8640,
  "ported ": 8641,
  "ness of ": 8642,
  "ting, ": 8643,
  " flavor": 8644,
  " protect ": 8645,
  "cky ": 8646,
  "vint": 8647,
  " broad": 8648,
  " force": 8649,
  "excep": 8650,
  "access ": 8651,
  "lots of ": 8652,
  " face ": 8653,
  "es like ": 8654,
  "gran": 8655,
  "Health": 8656,
  " subst": 8657,
  "eather ": 8658,
  "BR": 8659,
  "Los ": 8660,
  "joint": 8661,
  "you want to ": 8662,
  " spring": 8663,
  "revent ": 8664,
  "stream": 8665,
  "relation": 8666,
  "on my ": 8667,
  "you may ": 8668,
  "cies ": 8669,
  "I\u2019d ": 8670,
  " oblig": 8671,
  "out of the ": 8672,
  "wered": 8673,
  " shared": 8674,
  "OR ": 8675,
  "rele": 8676,
  "ulation ": 8677,
  "Great": 8678,
  "\u2019d": 8679,
  "than the ": 8680,
  " taste": 8681,
  "researcher": 8682,
  " wrote": 8683,
  "make a ": 8684,
  "-on": 8685,
  "or the": 8686,
  " set of ": 8687,
  "differen": 8688,
  "VE": 8689,
  "38": 8690,
  " when I ": 8691,
  " flat": 8692,
  "degre": 8693,
  "roc": 8694,
  "ble to ": 8695,
  " offering ": 8696,
  "ribution": 8697,
  " all of the ": 8698,
  "Christian ": 8699,
  "Life ": 8700,
  "had been": 8701,
  " stori": 8702,
  "temporary ": 8703,
  " cop": 8704,
  "David ": 8705,
  "1st ": 8706,
  ", there ": 8707,
  "gap": 8708,
  "kids ": 8709,
  "Office": 8710,
  "native ": 8711,
  "Africa": 8712,
  "odd": 8713,
  "//w": 8714,
  "to say ": 8715,
  "changing ": 8716,
  "you get ": 8717,
  "Fin": 8718,
  "rink": 8719,
  "up, ": 8720,
  "relev": 8721,
  "ist, ": 8722,
  "mineral": 8723,
  "link ": 8724,
  "years. ": 8725,
  "multiple": 8726,
  "tion that ": 8727,
  "County": 8728,
  "akes": 8729,
  "largest": 8730,
  "Cla": 8731,
  " sti": 8732,
  " spent": 8733,
  "efficient": 8734,
  "Google": 8735,
  "hum": 8736,
  "tein": 8737,
  " to learn ": 8738,
  " wanted ": 8739,
  "you do": 8740,
  "remark": 8741,
  ".\nOne": 8742,
  "Invest": 8743,
  "gence": 8744,
  "expertise": 8745,
  "exhibi": 8746,
  "growing": 8747,
  "amous ": 8748,
  " truly": 8749,
  " air ": 8750,
  "Windows ": 8751,
  ". At": 8752,
  "t and the ": 8753,
  " surrounding": 8754,
  "useful ": 8755,
  "performed": 8756,
  "!\nS": 8757,
  "or of the ": 8758,
  "Last": 8759,
  ". O": 8760,
  "gger ": 8761,
  "scap": 8762,
  "stun": 8763,
  "me a": 8764,
  " that I ": 8765,
  "FL": 8766,
  "navig": 8767,
  "medium": 8768,
  "literal": 8769,
  "bert": 8770,
  "lived": 8771,
  " phi": 8772,
  "question ": 8773,
  "edition": 8774,
  ". Not ": 8775,
  "sey": 8776,
  "chec": 8777,
  "lawyer": 8778,
  "king, ": 8779,
  " was an ": 8780,
  "addition to ": 8781,
  "expected ": 8782,
  "entist": 8783,
  "s. He ": 8784,
  " a lot": 8785,
  "interesting ": 8786,
  " truck": 8787,
  "lover": 8788,
  "hero": 8789,
  "inger ": 8790,
  "ded in ": 8791,
  "insight": 8792,
  "Dou": 8793,
  "marke": 8794,
  "vehicle ": 8795,
  "themselves ": 8796,
  " changes ": 8797,
  "resourc": 8798,
  ". I have": 8799,
  "how the": 8800,
  "At the ": 8801,
  "Dar": 8802,
  " transform": 8803,
  "under the": 8804,
  " bright": 8805,
  "-time ": 8806,
  "rather than": 8807,
  "remain ": 8808,
  "vendor": 8809,
  " produ": 8810,
  "lity, ": 8811,
  " is now": 8812,
  "gain, ": 8813,
  "pm ": 8814,
  "Leg": 8815,
  "box": 8816,
  "Fore": 8817,
  "el, ": 8818,
  "Cru": 8819,
  "register": 8820,
  "eder": 8821,
  "admi": 8822,
  " a \u201c": 8823,
  "ner, ": 8824,
  "to create": 8825,
  "gas ": 8826,
  " truth": 8827,
  " prospect": 8828,
  " basket": 8829,
  "out there": 8830,
  " save": 8831,
  "enough to": 8832,
  ". G": 8833,
  "Flori": 8834,
  "ematic": 8835,
  "go to": 8836,
  "damage ": 8837,
  "at S": 8838,
  " companies": 8839,
  "ful and ": 8840,
  " allowed ": 8841,
  "-free": 8842,
  " all of the": 8843,
  "life, ": 8844,
  "developed": 8845,
  " Show": 8846,
  "(R": 8847,
  " woo": 8848,
  "land and ": 8849,
  "s such as ": 8850,
  " that I": 8851,
  "here, ": 8852,
  "kers": 8853,
  "end of the": 8854,
  "disaster": 8855,
  "ures, ": 8856,
  "inted ": 8857,
  "mitted": 8858,
  " cultural": 8859,
  " is for": 8860,
  "includes": 8861,
  " create a": 8862,
  "thus ": 8863,
  "es were ": 8864,
  "Guy": 8865,
  " construct": 8866,
  "perhaps ": 8867,
  "FI": 8868,
  "Open": 8869,
  " speed ": 8870,
  " for all": 8871,
  "arrived": 8872,
  " classic": 8873,
  " participate": 8874,
  "happy to ": 8875,
  ".\nAn ": 8876,
  " over a ": 8877,
  " consequ": 8878,
  "expensive": 8879,
  "as well as the ": 8880,
  "es.\nThe": 8881,
  "expectation": 8882,
  "bilitie": 8883,
  "to all": 8884,
  "Hun": 8885,
  "Gui": 8886,
  ".\nDe": 8887,
  "highest": 8888,
  "an-": 8889,
  "them. ": 8890,
  " plenty of ": 8891,
  "repeat": 8892,
  "63": 8893,
  "VE ": 8894,
  ", while": 8895,
  "mechanism": 8896,
  " wife": 8897,
  "fy the ": 8898,
  " collec": 8899,
  "atmosphere": 8900,
  "800": 8901,
  "device ": 8902,
  " was also ": 8903,
  "period ": 8904,
  "ners": 8905,
  " conference ": 8906,
  "attend": 8907,
  " as I ": 8908,
  "Dai": 8909,
  " with her": 8910,
  "es from ": 8911,
  "yog": 8912,
  " politic": 8913,
  " careful": 8914,
  "repor": 8915,
  "tomorrow": 8916,
  " worked": 8917,
  "Walk": 8918,
  "War ": 8919,
  ". I am": 8920,
  "rhy": 8921,
  ".\nAfter": 8922,
  "DM": 8923,
  " subsequ": 8924,
  "is available": 8925,
  " floo": 8926,
  " of which ": 8927,
  " afternoon": 8928,
  "Radio ": 8929,
  "joined ": 8930,
  " SEO": 8931,
  "Buy": 8932,
  " cookie": 8933,
  "throw": 8934,
  ". Since ": 8935,
  "3:": 8936,
  "14, ": 8937,
  "medicine": 8938,
  "recording": 8939,
  " ways": 8940,
  "monthly ": 8941,
  "s feat": 8942,
  "Dy": 8943,
  "Ref": 8944,
  ". Once ": 8945,
  "Next ": 8946,
  "manual": 8947,
  "episo": 8948,
  " try to": 8949,
  "days. ": 8950,
  "William": 8951,
  "Don\u2019t": 8952,
  "understand the ": 8953,
  "appeal": 8954,
  "renov": 8955,
  "March": 8956,
  "Asia": 8957,
  " battery": 8958,
  "Mark ": 8959,
  ".\nAt": 8960,
  "I got ": 8961,
  "Wol": 8962,
  "Corpo": 8963,
  " walking ": 8964,
  "discovered": 8965,
  "ighting": 8966,
  "mond": 8967,
  "ord ": 8968,
  " forever": 8969,
  "infection": 8970,
  " brown": 8971,
  " and what ": 8972,
  "2010 ": 8973,
  "or S": 8974,
  "News": 8975,
  "memor": 8976,
  " battery ": 8977,
  ".\nIt is ": 8978,
  "involves ": 8979,
  "use this ": 8980,
  "he's ": 8981,
  "housing": 8982,
  "Foundation": 8983,
  "host ": 8984,
  "stakeholder": 8985,
  "hoc": 8986,
  " privi": 8987,
  "ushi": 8988,
  " if you are": 8989,
  " costs ": 8990,
  "MS ": 8991,
  "s who are ": 8992,
  "he wa": 8993,
  "vas": 8994,
  "Za": 8995,
  "During ": 8996,
  "Mike ": 8997,
  "Don\u2019t ": 8998,
  "Board ": 8999,
  "mood": 9000,
  " operating ": 9001,
  "remedi": 9002,
  "lets ": 9003,
  "s.\nA ": 9004,
  "tui": 9005,
  "housing ": 9006,
  "East": 9007,
  "400 ": 9008,
  " button ": 9009,
  "resort": 9010,
  "tili": 9011,
  ". Her": 9012,
  " and are": 9013,
  "minister": 9014,
  "bell": 9015,
  "Lord ": 9016,
  ". This a": 9017,
  "vitamin ": 9018,
  "Visit ": 9019,
  " compared": 9020,
  " poster": 9021,
  "es and the": 9022,
  " business and ": 9023,
  "Technology ": 9024,
  "lyn ": 9025,
  "rider": 9026,
  "TION ": 9027,
  "come to ": 9028,
  "dispos": 9029,
  "proof": 9030,
  "died ": 9031,
  "Jus": 9032,
  ", B": 9033,
  "younger": 9034,
  "bridge ": 9035,
  "League ": 9036,
  "Travel": 9037,
  "\u043c": 9038,
  "Press ": 9039,
  "murder": 9040,
  "electro": 9041,
  " conser": 9042,
  "making it ": 9043,
  "vic ": 9044,
  "ideo": 9045,
  "Ess": 9046,
  "Holy ": 9047,
  "28, ": 9048,
  "ronto": 9049,
  "roma": 9050,
  "rator ": 9051,
  "!!": 9052,
  "dw": 9053,
  "ustom ": 9054,
  "minim": 9055,
  "47": 9056,
  "ly to": 9057,
  " population": 9058,
  " wind": 9059,
  "anything": 9060,
  "Rea": 9061,
  "| ": 9062,
  "moving": 9063,
  "ham ": 9064,
  "the only ": 9065,
  "older": 9066,
  "Aut": 9067,
  "ting to ": 9068,
  " for more ": 9069,
  ". Re": 9070,
  "hoe": 9071,
  "Cer": 9072,
  "s.\nA": 9073,
  "vour": 9074,
  "technical": 9075,
  " story ": 9076,
  " finally ": 9077,
  " shall": 9078,
  " to me": 9079,
  "Ver": 9080,
  " flower": 9081,
  "distinc": 9082,
  "s of a ": 9083,
  "(w": 9084,
  "Public ": 9085,
  "management ": 9086,
  "Tho": 9087,
  " spent ": 9088,
  " shel": 9089,
  " partnership": 9090,
  "heavy ": 9091,
  "ront ": 9092,
  " finding": 9093,
  " type of ": 9094,
  "Additional": 9095,
  "(and": 9096,
  "road ": 9097,
  " bene": 9098,
  "across the": 9099,
  "deal ": 9100,
  "accoun": 9101,
  ".\nYou": 9102,
  "to build": 9103,
  "CL": 9104,
  "CT": 9105,
  " cut ": 9106,
  " objective": 9107,
  "Emp": 9108,
  "Cu": 9109,
  "goti": 9110,
  "owl": 9111,
  "illi": 9112,
  "the g": 9113,
  "cks ": 9114,
  " facilit": 9115,
  " fit ": 9116,
  "hoto": 9117,
  "improvement": 9118,
  "s pre": 9119,
  "yond": 9120,
  " budget": 9121,
  "ted on ": 9122,
  "at the same ": 9123,
  "ds are ": 9124,
  "astruct": 9125,
  "ecure": 9126,
  "digital": 9127,
  "ashion": 9128,
  "limited": 9129,
  "ledg": 9130,
  "ation. ": 9131,
  "missio": 9132,
  "cute": 9133,
  "director": 9134,
  "ure to": 9135,
  "establ": 9136,
  "negoti": 9137,
  "es or": 9138,
  "is so ": 9139,
  "J. ": 9140,
  " to meet ": 9141,
  "memory": 9142,
  "resh ": 9143,
  "Photo": 9144,
  "dance ": 9145,
  "lipp": 9146,
  "discussion": 9147,
  "on top": 9148,
  " tow": 9149,
  "Tal": 9150,
  "E. ": 9151,
  "Mel": 9152,
  "Red ": 9153,
  "estern ": 9154,
  "stone": 9155,
  "Get": 9156,
  "rug ": 9157,
  "Mach": 9158,
  "~": 9159,
  " Service": 9160,
  "Paul ": 9161,
  "etic ": 9162,
  "dimen": 9163,
  "s still": 9164,
  "Main": 9165,
  "entit": 9166,
  "ility ": 9167,
  " was f": 9168,
  "Ana": 9169,
  ". After ": 9170,
  "minal ": 9171,
  " proce": 9172,
  "Tar": 9173,
  " bal": 9174,
  "child ": 9175,
  "ide, ": 9176,
  " fabric": 9177,
  "article ": 9178,
  "ing for": 9179,
  "euro": 9180,
  "length": 9181,
  "debt": 9182,
  "59": 9183,
  " that is": 9184,
  " computer ": 9185,
  "pproved": 9186,
  "rations ": 9187,
  "led the ": 9188,
  " phase": 9189,
  "ador": 9190,
  "Ul": 9191,
  " swim": 9192,
  " beyond": 9193,
  "you might ": 9194,
  "alize": 9195,
  "ance of ": 9196,
  "Lord": 9197,
  " of its ": 9198,
  "north": 9199,
  "Data ": 9200,
  " and it ": 9201,
  " offici": 9202,
  "le of the ": 9203,
  "ed at the ": 9204,
  " skin ": 9205,
  ", what ": 9206,
  "chro": 9207,
  " won\u2019t": 9208,
  "in place": 9209,
  "edit": 9210,
  " sn": 9211,
  "expected": 9212,
  " break ": 9213,
  ", can": 9214,
  "demonst": 9215,
  " and I ": 9216,
  "eaking": 9217,
  " tor": 9218,
  "toring": 9219,
  " player ": 9220,
  "he had ": 9221,
  "generally ": 9222,
  " to our": 9223,
  "\u2019s the": 9224,
  "France": 9225,
  "or in ": 9226,
  "Like ": 9227,
  "comes ": 9228,
  " prepared": 9229,
  "mentioned": 9230,
  " course, ": 9231,
  "sman": 9232,
  "listed": 9233,
  "get the": 9234,
  "s has ": 9235,
  "weet ": 9236,
  " serve ": 9237,
  "This s": 9238,
  "Executi": 9239,
  "s. They": 9240,
  " tank": 9241,
  "kept": 9242,
  " transaction": 9243,
  "28 ": 9244,
  "internal": 9245,
  "devic": 9246,
  "ancest": 9247,
  "Cri": 9248,
  "October": 9249,
  "es on the ": 9250,
  "delight": 9251,
  "tool ": 9252,
  "lie ": 9253,
  "morning ": 9254,
  "y to the ": 9255,
  "mining": 9256,
  "2007": 9257,
  " capital": 9258,
  "glass": 9259,
  "? S": 9260,
  "it all": 9261,
  "residential": 9262,
  "TV ": 9263,
  " sharing": 9264,
  "s as": 9265,
  " cash ": 9266,
  "make it ": 9267,
  " warran": 9268,
  " ai": 9269,
  "s speci": 9270,
  "s plan": 9271,
  "Best": 9272,
  "Because ": 9273,
  "/s": 9274,
  "ed out": 9275,
  ", by": 9276,
  " supply ": 9277,
  "Leader": 9278,
  "make the ": 9279,
  " contains ": 9280,
  "1990": 9281,
  "ditio": 9282,
  "Contact ": 9283,
  " classic ": 9284,
  "visiting ": 9285,
  "ML": 9286,
  "renc": 9287,
  " of it": 9288,
  "multi-": 9289,
  "holding": 9290,
  "killed ": 9291,
  "s with the": 9292,
  " suggestion": 9293,
  " fine ": 9294,
  " producer": 9295,
  ". Sa": 9296,
  "exclusive": 9297,
  " planning ": 9298,
  " collaboration": 9299,
  "hour ": 9300,
  " century": 9301,
  "\\": 9302,
  "November": 9303,
  "Care": 9304,
  "- S": 9305,
  "4,": 9306,
  " complic": 9307,
  "-pro": 9308,
  " waste": 9309,
  "s. You ": 9310,
  " subt": 9311,
  "I really ": 9312,
  "es. This ": 9313,
  "s, with ": 9314,
  " twice": 9315,
  " and to ": 9316,
  " after the": 9317,
  " tight": 9318,
  " with our ": 9319,
  "regarding": 9320,
  ", So": 9321,
  "temporary": 9322,
  "zard": 9323,
  "rational": 9324,
  " wid": 9325,
  "ze the ": 9326,
  ".\nIn the ": 9327,
  " spark": 9328,
  " worse": 9329,
  "hundreds of ": 9330,
  " crea": 9331,
  " focus on ": 9332,
  "recon": 9333,
  " tend": 9334,
  ".\nYou can ": 9335,
  "installed": 9336,
  "gett": 9337,
  " appreciate ": 9338,
  " for the first ": 9339,
  " compl": 9340,
  "or other": 9341,
  "Club": 9342,
  " cheese": 9343,
  " opened": 9344,
  "vulner": 9345,
  "dynamic": 9346,
  "-fi": 9347,
  "recognized": 9348,
  " pursu": 9349,
  "ing your ": 9350,
  ".\nHe ": 9351,
  "graduate": 9352,
  "ttle": 9353,
  "or not": 9354,
  "toward ": 9355,
  "Mes": 9356,
  "labor": 9357,
  "Florida ": 9358,
  " champion": 9359,
  "Chri": 9360,
  ".\nOn ": 9361,
  "more, ": 9362,
  "had the ": 9363,
  "Australian ": 9364,
  " for his ": 9365,
  "nume": 9366,
  " ago": 9367,
  "drea": 9368,
  "chicken": 9369,
  "10, ": 9370,
  "understo": 9371,
  "decad": 9372,
  " of P": 9373,
  " finger": 9374,
  "laptop": 9375,
  "tivity": 9376,
  "bor ": 9377,
  "ecting": 9378,
  "\u2019ll be ": 9379,
  "ms to": 9380,
  "ze the": 9381,
  "Hor": 9382,
  " for some ": 9383,
  " with their": 9384,
  " saying ": 9385,
  "en and ": 9386,
  "Happy ": 9387,
  "decrea": 9388,
  ", but the": 9389,
  "-friend": 9390,
  "you a ": 9391,
  " pound": 9392,
  " taught ": 9393,
  "ment to": 9394,
  "you must ": 9395,
  "42": 9396,
  "dog ": 9397,
  "organization ": 9398,
  "urban": 9399,
  "increasing ": 9400,
  " if you are ": 9401,
  "magic": 9402,
  "requires ": 9403,
  "Ly": 9404,
  "Maj": 9405,
  "s 1": 9406,
  "Light ": 9407,
  "s, I ": 9408,
  " before the": 9409,
  "ures. ": 9410,
  "responsible for ": 9411,
  " corporation": 9412,
  "Office ": 9413,
  " wanted": 9414,
  "27 ": 9415,
  "time. ": 9416,
  " pit": 9417,
  "stage ": 9418,
  " chat": 9419,
  "Time ": 9420,
  " till ": 9421,
  ". One ": 9422,
  "mount ": 9423,
  "alone ": 9424,
  "external": 9425,
  "interaction": 9426,
  "Bis": 9427,
  "% of the": 9428,
  " cen": 9429,
  "Ox": 9430,
  "Hospital": 9431,
  " after a ": 9432,
  "ated to ": 9433,
  "in touch": 9434,
  "Hon": 9435,
  "dies": 9436,
  "ago, ": 9437,
  " facul": 9438,
  "s and other": 9439,
  "lifestyle": 9440,
  "end, ": 9441,
  "make the": 9442,
  ".\nThere": 9443,
  "moti": 9444,
  " presentation": 9445,
  " speech": 9446,
  ".\nFi": 9447,
  "grad": 9448,
  "hydro": 9449,
  "zer ": 9450,
  "s in your": 9451,
  "rowd": 9452,
  " proposal": 9453,
  "s pri": 9454,
  " bone": 9455,
  " faster": 9456,
  " System ": 9457,
  " weeks ": 9458,
  "thera": 9459,
  "high school": 9460,
  "Break": 9461,
  " sure that ": 9462,
  "Centre": 9463,
  "res of ": 9464,
  " concert": 9465,
  " preci": 9466,
  "nalism": 9467,
  "duti": 9468,
  " transpa": 9469,
  "ready ": 9470,
  ", said": 9471,
  ". His ": 9472,
  "t. We ": 9473,
  "Busines": 9474,
  " to his ": 9475,
  "liver": 9476,
  "Ford ": 9477,
  ", M": 9478,
  " this, ": 9479,
  " count ": 9480,
  "acher ": 9481,
  "rhyth": 9482,
  ", there is ": 9483,
  "Low": 9484,
  "s available ": 9485,
  "loading": 9486,
  "Magaz": 9487,
  "rete": 9488,
  "s support": 9489,
  "GD": 9490,
  "Note: ": 9491,
  "Download": 9492,
  "s and their": 9493,
  "ffee ": 9494,
  ". Bo": 9495,
  " when he ": 9496,
  "employment": 9497,
  "muscle": 9498,
  "engagement": 9499,
  " we\u2019ve ": 9500,
  " pricing": 9501,
  " serving ": 9502,
  " is all ": 9503,
  " featur": 9504,
  "nian ": 9505,
  " from an ": 9506,
  "knock": 9507,
  "justice": 9508,
  "s, while ": 9509,
  "generate": 9510,
  "entrepreneur": 9511,
  "regularly": 9512,
  ". Each ": 9513,
  " pray": 9514,
  "mirac": 9515,
  " circuit": 9516,
  " police ": 9517,
  "according to": 9518,
  "nose": 9519,
  " Super ": 9520,
  "that i": 9521,
  "decided to": 9522,
  ". We will ": 9523,
  "Ara": 9524,
  "s. These ": 9525,
  "bridge": 9526,
  " consistent": 9527,
  "Wiki": 9528,
  "11.": 9529,
  " centr": 9530,
  " in order to": 9531,
  "grant ": 9532,
  "Anti": 9533,
  " brief ": 9534,
  " Safe": 9535,
  "has also": 9536,
  "repair ": 9537,
  "hunt": 9538,
  " pract": 9539,
  "wa ": 9540,
  ". Lo": 9541,
  "chief ": 9542,
  " operat": 9543,
  "Deco": 9544,
  "Mary ": 9545,
  "Jesu": 9546,
  "ringe": 9547,
  "Block": 9548,
  "Motor": 9549,
  "ready to": 9550,
  "enorm": 9551,
  "or p": 9552,
  "him to ": 9553,
  "WordPres": 9554,
  "guid": 9555,
  "Wri": 9556,
  " featured": 9557,
  "heaven": 9558,
  " phone call": 9559,
  "22, ": 9560,
  "depth ": 9561,
  "email addres": 9562,
  "Hotel ": 9563,
  "happens ": 9564,
  "2013, ": 9565,
  "Justice ": 9566,
  " twel": 9567,
  "Anth": 9568,
  "hire ": 9569,
  "s. Our": 9570,
  " will be a": 9571,
  " full-": 9572,
  " Squ": 9573,
  " wireless ": 9574,
  " pattern ": 9575,
  " in her": 9576,
  " plugin": 9577,
  "\u0432": 9578,
  "to be an ": 9579,
  "Rights ": 9580,
  " furniture ": 9581,
  "27, ": 9582,
  "bodi": 9583,
  "decline": 9584,
  "Dur": 9585,
  "Beau": 9586,
  " cit": 9587,
  ". More": 9588,
  ".\nAd": 9589,
  "Asia ": 9590,
  "heart of ": 9591,
  " wealth": 9592,
  "chil": 9593,
  "cellu": 9594,
  "Toronto": 9595,
  " fanta": 9596,
  "viewed by ": 9597,
  " credit": 9598,
  "asset": 9599,
  "ately ": 9600,
  "oursel": 9601,
  "s\u201d": 9602,
  "attack": 9603,
  "ation of the ": 9604,
  "terri": 9605,
  " Sy": 9606,
  " payment": 9607,
  "ml": 9608,
  "distrib": 9609,
  " club": 9610,
  "mobile ": 9611,
  ", all": 9612,
  " continue ": 9613,
  "daughter": 9614,
  " protection": 9615,
  ", please": 9616,
  "goo": 9617,
  "rem": 9618,
  " fra": 9619,
  "horse": 9620,
  " a small": 9621,
  "NI": 9622,
  "ves.\n": 9623,
  "maintenance": 9624,
  "\". ": 9625,
  " Sta": 9626,
  " protect": 9627,
  "rier": 9628,
  "advice": 9629,
  ".\nF": 9630,
  " safety ": 9631,
  " propos": 9632,
  "i and ": 9633,
  "mail ": 9634,
  "roy": 9635,
  " package": 9636,
  "IG": 9637,
  "aliz": 9638,
  " shap": 9639,
  "India ": 9640,
  " field ": 9641,
  "infr": 9642,
  "are also": 9643,
  "development ": 9644,
  "Eco": 9645,
  "),": 9646,
  "review ": 9647,
  "89": 9648,
  "Christma": 9649,
  "people who ": 9650,
  " pot": 9651,
  "border": 9652,
  "wise ": 9653,
  "-2": 9654,
  " prevent ": 9655,
  "throughout ": 9656,
  " contrib": 9657,
  "ves to ": 9658,
  "led with ": 9659,
  "infrastruct": 9660,
  "zy ": 9661,
  "ride ": 9662,
  " tag": 9663,
  "Disc": 9664,
  "R. ": 9665,
  " to my ": 9666,
  "nmental ": 9667,
  "Community ": 9668,
  "IT ": 9669,
  "nurs": 9670,
  "cale": 9671,
  "s that are": 9672,
  "use it": 9673,
  "hell": 9674,
  "Last ": 9675,
  " breath": 9676,
  "ation (": 9677,
  ". As": 9678,
  "mart ": 9679,
  " susp": 9680,
  ". It was ": 9681,
  "s sur": 9682,
  "French ": 9683,
  "lite ": 9684,
  "its s": 9685,
  "sch": 9686,
  "ease ": 9687,
  " for their": 9688,
  "hyd": 9689,
  "\t": 9690,
  "servation": 9691,
  "s, pro": 9692,
  "Pur": 9693,
  "alleg": 9694,
  "wk": 9695,
  " belief": 9696,
  "mote ": 9697,
  "Under": 9698,
  "gone": 9699,
  " of them": 9700,
  "ence, ": 9701,
  "on my": 9702,
  "to come": 9703,
  "thes": 9704,
  " position ": 9705,
  "Champi": 9706,
  "however, ": 9707,
  "lever": 9708,
  " cry": 9709,
  "ess ": 9710,
  "s in a": 9711,
  "department": 9712,
  "relevant ": 9713,
  "matter ": 9714,
  "). The ": 9715,
  "king the": 9716,
  "might be ": 9717,
  "fli": 9718,
  "accessori": 9719,
  " secret": 9720,
  "ood, ": 9721,
  "Market": 9722,
  " their own": 9723,
  "mined": 9724,
  "Democrat": 9725,
  " fill ": 9726,
  " types of": 9727,
  "ation to": 9728,
  "ed that": 9729,
  "years.\n": 9730,
  "Chinese ": 9731,
  "Looking": 9732,
  "thri": 9733,
  " typically ": 9734,
  " promote ": 9735,
  "quote": 9736,
  "epper": 9737,
  "seller": 9738,
  " cos": 9739,
  "rolled ": 9740,
  "included ": 9741,
  " please": 9742,
  "Clea": 9743,
  "absolutely ": 9744,
  " when the": 9745,
  "PI": 9746,
  "here.\n": 9747,
  " Sur": 9748,
  " fact, ": 9749,
  "asked": 9750,
  " and c": 9751,
  ":00": 9752,
  "s, including ": 9753,
  "extremely": 9754,
  "Mexi": 9755,
  " became": 9756,
  "right now": 9757,
  "rehensive ": 9758,
  " putting ": 9759,
  "killed": 9760,
  "April": 9761,
  " properly": 9762,
  " procedur": 9763,
  "ffic ": 9764,
  " in order to ": 9765,
  "Del": 9766,
  " as they ": 9767,
  " summer ": 9768,
  "assist ": 9769,
  "goal ": 9770,
  "Gen": 9771,
  "doubt": 9772,
  " biggest ": 9773,
  "heat ": 9774,
  " train ": 9775,
  "fortun": 9776,
  "games ": 9777,
  " with my ": 9778,
  "rear": 9779,
  "you have a": 9780,
  "had to": 9781,
  "Use": 9782,
  " we will": 9783,
  "ed with the": 9784,
  "you\u2019ll": 9785,
  "Glas": 9786,
  "Oli": 9787,
  "Inclu": 9788,
  " of A": 9789,
  "French": 9790,
  "you'll ": 9791,
  "itation": 9792,
  "them.\n": 9793,
  "especial": 9794,
  " fill": 9795,
  " official ": 9796,
  "except": 9797,
  " come to ": 9798,
  "diagno": 9799,
  "and, ": 9800,
  "FA": 9801,
  "86": 9802,
  " appear ": 9803,
  " the po": 9804,
  "OK": 9805,
  "Digital ": 9806,
  " of that ": 9807,
  "you know ": 9808,
  "viol": 9809,
  " poor ": 9810,
  " when they ": 9811,
  "used for ": 9812,
  "independent ": 9813,
  " and in ": 9814,
  "Power ": 9815,
  "one, ": 9816,
  "distribut": 9817,
  "tastic": 9818,
  "you a": 9819,
  "teen ": 9820,
  "PM": 9821,
  "out, ": 9822,
  "mption": 9823,
  "valuable ": 9824,
  "here.": 9825,
  "handle ": 9826,
  " ones": 9827,
  " there is a": 9828,
  "energ": 9829,
  "s P": 9830,
  "greater": 9831,
  "s found": 9832,
  " cannot": 9833,
  "happening": 9834,
  "Real ": 9835,
  " compos": 9836,
  "too much": 9837,
  "raise ": 9838,
  " purchase ": 9839,
  "thread": 9840,
  ".\nMy ": 9841,
  "ed, and ": 9842,
  "decided": 9843,
  " and they ": 9844,
  "(M": 9845,
  " Services ": 9846,
  "accep": 9847,
  "up for ": 9848,
  "elev": 9849,
  "ket. ": 9850,
  " please ": 9851,
  "novel": 9852,
  "gues": 9853,
  "disappoint": 9854,
  "rency": 9855,
  "s in your ": 9856,
  " problems": 9857,
  "hip": 9858,
  "check out ": 9859,
  "lots of": 9860,
  "kitchen ": 9861,
  ".\nWhen": 9862,
  "learned ": 9863,
  "Park ": 9864,
  " contrac": 9865,
  " takes": 9866,
  "Executive ": 9867,
  "released ": 9868,
  "how you ": 9869,
  "Fr": 9870,
  "notice ": 9871,
  "all your ": 9872,
  "reliable": 9873,
  "permit": 9874,
  " world, ": 9875,
  "-up ": 9876,
  "Deli": 9877,
  "issues ": 9878,
  "devices ": 9879,
  " in mind": 9880,
  "ulti": 9881,
  " working with ": 9882,
  ". I was ": 9883,
  "despite": 9884,
  "needs to be ": 9885,
  "depends ": 9886,
  " treat ": 9887,
  "organisation": 9888,
  " for any ": 9889,
  "minate ": 9890,
  "using a": 9891,
  "dos": 9892,
  "Mr. ": 9893,
  "replace ": 9894,
  " calori": 9895,
  " way, ": 9896,
  "post": 9897,
  " finish ": 9898,
  "ures.\n": 9899,
  " comprehensive ": 9900,
  "Boo": 9901,
  "Expl": 9902,
  "tunity to": 9903,
  " agenci": 9904,
  "meeting ": 9905,
  "qualified ": 9906,
  " in P": 9907,
  "he is": 9908,
  " foo": 9909,
  " what they ": 9910,
  "nament": 9911,
  "that would ": 9912,
  "$5": 9913,
  "opportunity to": 9914,
  "interior": 9915,
  "ulous ": 9916,
  "deg": 9917,
  "degree ": 9918,
  "not just": 9919,
  "it can": 9920,
  " superi": 9921,
  "Federal ": 9922,
  "investment ": 9923,
  " tap": 9924,
  "outstanding": 9925,
  "Gl": 9926,
  "optimi": 9927,
  "installation": 9928,
  "revol": 9929,
  "ness.\n": 9930,
  " changing": 9931,
  "Richar": 9932,
  ".\nO": 9933,
  " choi": 9934,
  " boost": 9935,
  "ent and ": 9936,
  "s abo": 9937,
  "introduced": 9938,
  " trained": 9939,
  " at the time": 9940,
  "development of ": 9941,
  "Bon": 9942,
  "wered ": 9943,
  "ryp": 9944,
  "acting ": 9945,
  "hands": 9946,
  " wall ": 9947,
  "ellect": 9948,
  "10.": 9949,
  "tive, ": 9950,
  "ropo": 9951,
  "driven": 9952,
  "River": 9953,
  " an un": 9954,
  " as long": 9955,
  "OC": 9956,
  "year-old ": 9957,
  "uctive": 9958,
  " in any": 9959,
  "Annual ": 9960,
  " pregnan": 9961,
  " others ": 9962,
  "pecific": 9963,
  " fab": 9964,
  " in her ": 9965,
  "exception": 9966,
  "dealer": 9967,
  "Tuesday": 9968,
  "makes": 9969,
  "**": 9970,
  "; the ": 9971,
  "unles": 9972,
  " pull": 9973,
  " possibly ": 9974,
  "rism ": 9975,
  "ties in ": 9976,
  "graph ": 9977,
  " completed": 9978,
  "react": 9979,
  "lash ": 9980,
  "Tou": 9981,
  " at all ": 9982,
  " spoke": 9983,
  "chance to ": 9984,
  "use of the": 9985,
  "expense": 9986,
  "England": 9987,
  "President": 9988,
  " with other": 9989,
  " typically": 9990,
  ".D": 9991,
  "$3": 9992,
  "I got": 9993,
  "Premi": 9994,
  "enjo": 9995,
  "attractive": 9996,
  "HD": 9997,
  " troub": 9998,
  "do you": 9999,
  ". Ad": 10000,
  "about it": 10001,
  " consul": 10002,
  "anywhere ": 10003,
  " and there": 10004,
  " competitive ": 10005,
  "itut": 10006,
  "enhance": 10007,
  "leads ": 10008,
  "Fellow": 10009,
  " provides a": 10010,
  " initiative": 10011,
  " profile": 10012,
  "lank": 10013,
  " focusing ": 10014,
  "military": 10015,
  "yes, ": 10016,
  " within a ": 10017,
  " background ": 10018,
  "unknown": 10019,
  "Brook": 10020,
  " breakfast": 10021,
  "donation": 10022,
  "s are available": 10023,
  "Melbour": 10024,
  " along with ": 10025,
  "Ind": 10026,
  "goe": 10027,
  "vessel": 10028,
  " points ": 10029,
  "actively ": 10030,
  " cutting": 10031,
  "that could ": 10032,
  "ure of the ": 10033,
  " pilot": 10034,
  "listic ": 10035,
  "strategic": 10036,
  "certification": 10037,
  " wif": 10038,
  " and can ": 10039,
  " promote": 10040,
  "visible": 10041,
  " broa": 10042,
  " warning": 10043,
  "gorith": 10044,
  " previously": 10045,
  " poet": 10046,
  "employment ": 10047,
  " for her ": 10048,
  " piece ": 10049,
  "recyc": 10050,
  "GB ": 10051,
  "12.": 10052,
  "Chicago": 10053,
  "Georgia": 10054,
  "or an ": 10055,
  "design, ": 10056,
  "vention ": 10057,
  "Loui": 10058,
  " commission": 10059,
  ", this is ": 10060,
  " affordable ": 10061,
  " collection ": 10062,
  "information, ": 10063,
  "Museum": 10064,
  " if they": 10065,
  "here to ": 10066,
  "District": 10067,
  "liner": 10068,
  ": A ": 10069,
  " prompt": 10070,
  "no one": 10071,
  "sential ": 10072,
  ". Also": 10073,
  "lastic ": 10074,
  " pocket": 10075,
  "ulpt": 10076,
  "how they": 10077,
  "Hill ": 10078,
  "Road ": 10079,
  "ummy": 10080,
  "Audi": 10081,
  "eager": 10082,
  " part of": 10083,
  " woman ": 10084,
  "seminar": 10085,
  "opyright ": 10086,
  "PP": 10087,
  "fare": 10088,
  "home and ": 10089,
  "encourag": 10090,
  " continues to ": 10091,
  "university": 10092,
  " cock": 10093,
  "s in my ": 10094,
  " spee": 10095,
  "described": 10096,
  "s. She": 10097,
  " company\u2019s ": 10098,
  "how they ": 10099,
  " trau": 10100,
  " as \u201c": 10101,
  ". Her ": 10102,
  "rental ": 10103,
  "Oil": 10104,
  "Recor": 10105,
  "mg ": 10106,
  "teacher ": 10107,
  "desired ": 10108,
  "rose ": 10109,
  "intui": 10110,
  " coa": 10111,
  "gad": 10112,
  "ing it": 10113,
  "BT": 10114,
  " wide range of ": 10115,
  "reputation": 10116,
  "s of p": 10117,
  " willing to": 10118,
  " pig": 10119,
  " convenience": 10120,
  "Hong ": 10121,
  "ladi": 10122,
  " scholarship": 10123,
  " processor": 10124,
  " wish to ": 10125,
  "YouTube ": 10126,
  "ental": 10127,
  "Advanced ": 10128,
  "kg": 10129,
  "NEW ": 10130,
  "greatly ": 10131,
  "Robert": 10132,
  ". Click ": 10133,
  "Over the ": 10134,
  "Lux": 10135,
  " font": 10136,
  "tioned": 10137,
  "forms ": 10138,
  " such as the ": 10139,
  "Prince ": 10140,
  "makes a ": 10141,
  " at 7": 10142,
  "male ": 10143,
  "23, ": 10144,
  "Y, ": 10145,
  "Lad": 10146,
  " concrete": 10147,
  " county": 10148,
  "Edit": 10149,
  " place in ": 10150,
  "drag": 10151,
  "exam ": 10152,
  " balance ": 10153,
  "chee": 10154,
  "ENT ": 10155,
  " contained ": 10156,
  "\u2122 ": 10157,
  "Theo": 10158,
  "udi ": 10159,
  "Brad": 10160,
  "tivity ": 10161,
  "dining room": 10162,
  "ITY ": 10163,
  "quarter ": 10164,
  "Queen ": 10165,
  " Spe": 10166,
  "life.\n": 10167,
  "receive a": 10168,
  " supports ": 10169,
  "Hawai": 10170,
  "DB": 10171,
  " screens": 10172,
  "medy ": 10173,
  "questions and ": 10174,
  "essay ": 10175,
  " was posted ": 10176,
  " beginner": 10177,
  "QU": 10178,
  " iOS ": 10179,
  "Alt": 10180,
  "__": 10181,
  "resu": 10182,
  "matt": 10183,
  "word": 10184,
  "Eu": 10185,
  "Far": 10186,
  "tele": 10187,
  "lee": 10188,
  "estival": 10189,
  " cold": 10190,
  "Air ": 10191,
  "aging": 10192,
  " saving": 10193,
  "Wat": 10194,
  "U.S.": 10195,
  "ue to ": 10196,
  "= ": 10197,
  "ET": 10198,
  "repla": 10199,
  "astro": 10200,
  "Lake ": 10201,
  " cake": 10202,
  "wood": 10203,
  "urance ": 10204,
  "you\u2019ve ": 10205,
  "stret": 10206,
  "chance ": 10207,
  " fre": 10208,
  "anxi": 10209,
  "starting": 10210,
  " we will ": 10211,
  "ang ": 10212,
  "looks ": 10213,
  "of-": 10214,
  "structure": 10215,
  " if the": 10216,
  "Power": 10217,
  "Day ": 10218,
  "develop ": 10219,
  " sum": 10220,
  "Pat": 10221,
  " ses": 10222,
  "Cl": 10223,
  "al-": 10224,
  "rock": 10225,
  "renew": 10226,
  "alm": 10227,
  "41": 10228,
  " chocolate": 10229,
  "less than ": 10230,
  "well": 10231,
  "ations of ": 10232,
  "87": 10233,
  "! S": 10234,
  "that this ": 10235,
  "enterp": 10236,
  "to pay": 10237,
  "any, ": 10238,
  " truly ": 10239,
  "institution": 10240,
  "er and ": 10241,
  "you could ": 10242,
  " countri": 10243,
  " capa": 10244,
  "Fil": 10245,
  "Very ": 10246,
  "IN ": 10247,
  " where the ": 10248,
  "ve-": 10249,
  "mm ": 10250,
  "ences ": 10251,
  "ret ": 10252,
  "I love": 10253,
  "EX": 10254,
  "Did ": 10255,
  " sign ": 10256,
  " surpris": 10257,
  "direct ": 10258,
  " sweet": 10259,
  " to ensure ": 10260,
  ", when": 10261,
  " covered": 10262,
  "to f": 10263,
  "L. ": 10264,
  " to start": 10265,
  " Sal": 10266,
  "even if ": 10267,
  "iling ": 10268,
  " customi": 10269,
  "decision ": 10270,
  "Look": 10271,
  "ation in ": 10272,
  "GE": 10273,
  "maller ": 10274,
  "edicated ": 10275,
  "Also ": 10276,
  "On the ": 10277,
  "ure and": 10278,
  "t. This ": 10279,
  " and I": 10280,
  "pond": 10281,
  "ning the": 10282,
  "that can": 10283,
  "met ": 10284,
  "husband": 10285,
  "to b": 10286,
  " brought": 10287,
  " climate ": 10288,
  "  ": 10289,
  " wild": 10290,
  " felt": 10291,
  " sense of ": 10292,
  "(c": 10293,
  "Itali": 10294,
  "is what ": 10295,
  "hoot": 10296,
  "options": 10297,
  "nie": 10298,
  "hat. ": 10299,
  "laun": 10300,
  " prep": 10301,
  " policy ": 10302,
  "it's": 10303,
  "dedicated ": 10304,
  "ed by a ": 10305,
  "Ange": 10306,
  " affili": 10307,
  " pos": 10308,
  " problem ": 10309,
  " is still ": 10310,
  "abb": 10311,
  "your life": 10312,
  " when it": 10313,
  "Child": 10314,
  "instruct": 10315,
  "legi": 10316,
  "location ": 10317,
  ".\nBut": 10318,
  "HR": 10319,
  "marketing ": 10320,
  "reb": 10321,
  "Instead": 10322,
  "/or ": 10323,
  "that's ": 10324,
  "announced": 10325,
  "equipment ": 10326,
  "Ener": 10327,
  "BE": 10328,
  "you may": 10329,
  " wedding ": 10330,
  "hid": 10331,
  " coordi": 10332,
  "Will ": 10333,
  ", because": 10334,
  "missi": 10335,
  "; and": 10336,
  " win ": 10337,
  "agricult": 10338,
  "dry ": 10339,
  "Miss": 10340,
  " shor": 10341,
  "to support ": 10342,
  "Fami": 10343,
  " begin ": 10344,
  "hysi": 10345,
  ". If you": 10346,
  "division": 10347,
  "no longer ": 10348,
  ". I have ": 10349,
  "s. A ": 10350,
  "my life": 10351,
  "exercise ": 10352,
  "ed by a": 10353,
  "cast ": 10354,
  "kill ": 10355,
  " that. ": 10356,
  "rather": 10357,
  " suppos": 10358,
  " plate": 10359,
  "knowledg": 10360,
  "wing the ": 10361,
  " appearance": 10362,
  " playing": 10363,
  " offi": 10364,
  "About ": 10365,
  "seek": 10366,
  "known as ": 10367,
  "reality": 10368,
  " trial": 10369,
  " bir": 10370,
  "like the": 10371,
  " sent": 10372,
  "s. This": 10373,
  " Saturday": 10374,
  "eller": 10375,
  "ity of the": 10376,
  " symptom": 10377,
  "s, to ": 10378,
  " tho": 10379,
  " prec": 10380,
  " and we": 10381,
  " by S": 10382,
  "Through": 10383,
  " paid ": 10384,
  " she was ": 10385,
  "more and ": 10386,
  " sold": 10387,
  "penal": 10388,
  "in that ": 10389,
  "Os": 10390,
  "Cast": 10391,
  "View ": 10392,
  "Bor": 10393,
  "76": 10394,
  "regardles": 10395,
  " and t": 10396,
  ".\nM": 10397,
  "ised ": 10398,
  "s.\nIn ": 10399,
  " as it": 10400,
  "reduced": 10401,
  "themselve": 10402,
  " sure to ": 10403,
  "Step": 10404,
  ", said ": 10405,
  "relatively ": 10406,
  " products and": 10407,
  "rance ": 10408,
  "74": 10409,
  "- and ": 10410,
  "Thank ": 10411,
  " changed": 10412,
  "achieve ": 10413,
  "196": 10414,
  "attemp": 10415,
  "Jos": 10416,
  "according to the ": 10417,
  "ultimate": 10418,
  "rein": 10419,
  "s out ": 10420,
  " comes to": 10421,
  "TC": 10422,
  "are all ": 10423,
  " ang": 10424,
  "tailer": 10425,
  " at any ": 10426,
  " for any": 10427,
  " coverage": 10428,
  " commen": 10429,
  "Vit": 10430,
  "mol": 10431,
  "explore ": 10432,
  "van ": 10433,
  " bodi": 10434,
  " a person": 10435,
  " finding ": 10436,
  ". Every": 10437,
  ". Thank": 10438,
  " suit ": 10439,
  " there is a ": 10440,
  "upcoming ": 10441,
  "most of the ": 10442,
  ".\nAnd": 10443,
  "(D": 10444,
  " bear": 10445,
  "exciting ": 10446,
  " of his": 10447,
  "Team": 10448,
  "domain": 10449,
  "s without ": 10450,
  "Does ": 10451,
  "ashion ": 10452,
  " shopping": 10453,
  ". De": 10454,
  "retailer": 10455,
  " all, ": 10456,
  "abet": 10457,
  "biliti": 10458,
  "mented ": 10459,
  "you might": 10460,
  "und, ": 10461,
  "reasonable ": 10462,
  "Pacific ": 10463,
  " to them": 10464,
  "I didn\u2019t ": 10465,
  "kinds of ": 10466,
  "to avoid": 10467,
  " who is ": 10468,
  "vey ": 10469,
  "\u2013 and ": 10470,
  " choice ": 10471,
  "drew ": 10472,
  "Dun": 10473,
  ".\nTh": 10474,
  "IE": 10475,
  "Il": 10476,
  " some of the": 10477,
  "emphas": 10478,
  "European": 10479,
  "s, including": 10480,
  "know that": 10481,
  "verb": 10482,
  " classroom": 10483,
  "Bla": 10484,
  "last week": 10485,
  "terms of ": 10486,
  " practical ": 10487,
  " sometime": 10488,
  "island": 10489,
  "looked ": 10490,
  "returned": 10491,
  "jar": 10492,
  "ideas": 10493,
  "handle": 10494,
  "you.\n": 10495,
  " couple ": 10496,
  "knows ": 10497,
  ".\nK": 10498,
  "rate the ": 10499,
  "ding, ": 10500,
  "s. So": 10501,
  "threate": 10502,
  "nine": 10503,
  "s.\n\"": 10504,
  "instrument": 10505,
  "happen ": 10506,
  "Keep ": 10507,
  "judge": 10508,
  "its p": 10509,
  " iden": 10510,
  "not just ": 10511,
  "delic": 10512,
  "you have any ": 10513,
  "deed": 10514,
  "Level ": 10515,
  "16, ": 10516,
  "thir": 10517,
  "inct": 10518,
  " parents ": 10519,
  "26 ": 10520,
  "performing ": 10521,
  " square": 10522,
  "many other": 10523,
  "make sure": 10524,
  "recognis": 10525,
  "opportunitie": 10526,
  " former": 10527,
  ".\nNo": 10528,
  " patients ": 10529,
  "Prod": 10530,
  "monitoring": 10531,
  ". K": 10532,
  ": the": 10533,
  " speak ": 10534,
  "hire": 10535,
  "accurate ": 10536,
  " business, ": 10537,
  "you get": 10538,
  "universi": 10539,
  "11, ": 10540,
  "s, this ": 10541,
  ".\nY": 10542,
  " automatic": 10543,
  "journey ": 10544,
  "Cup": 10545,
  "unb": 10546,
  "tories ": 10547,
  "stuff ": 10548,
  "referen": 10549,
  " in B": 10550,
  " impress": 10551,
  " whose ": 10552,
  "2/": 10553,
  "details ": 10554,
  "logy and ": 10555,
  "1st": 10556,
  " changed ": 10557,
  "rif": 10558,
  "loaded": 10559,
  "medication": 10560,
  "thanks to ": 10561,
  " fiber": 10562,
  " breast": 10563,
  "metic": 10564,
  "exactly ": 10565,
  " finished ": 10566,
  " surprise": 10567,
  " books": 10568,
  "helpful ": 10569,
  " them to": 10570,
  "Jen": 10571,
  "Mem": 10572,
  "dramatic": 10573,
  "port. ": 10574,
  "Catholic": 10575,
  "developed ": 10576,
  "(E": 10577,
  " planet": 10578,
  "\"\n\"": 10579,
  "this book": 10580,
  "straw": 10581,
  "s, there": 10582,
  "theory": 10583,
  "Web ": 10584,
  "is why ": 10585,
  "celebrate": 10586,
  "asking": 10587,
  "s possi": 10588,
  "Engine": 10589,
  "earned ": 10590,
  "ent, ": 10591,
  "Valley ": 10592,
  " process of ": 10593,
  "anywhere": 10594,
  " said.\n": 10595,
  "movement ": 10596,
  " indicat": 10597,
  "Earth": 10598,
  "Fan": 10599,
  " professor": 10600,
  "layout": 10601,
  "Colum": 10602,
  "reporting": 10603,
  "mmig": 10604,
  " affect ": 10605,
  ", other": 10606,
  "expected to ": 10607,
  " brows": 10608,
  " week, ": 10609,
  "Admin": 10610,
  "FL ": 10611,
  " of which": 10612,
  "? The ": 10613,
  " behind the": 10614,
  "statement ": 10615,
  "incredible ": 10616,
  " academic": 10617,
  " so many": 10618,
  "ideal ": 10619,
  "Py": 10620,
  " construction ": 10621,
  " cases ": 10622,
  "s -": 10623,
  "information about ": 10624,
  "mainly ": 10625,
  "istic ": 10626,
  "need a ": 10627,
  "out for ": 10628,
  "doesn't": 10629,
  "deni": 10630,
  " possibly": 10631,
  " and what": 10632,
  "designed to": 10633,
  "sip": 10634,
  " posted in ": 10635,
  "intellect": 10636,
  "Card": 10637,
  " compris": 10638,
  ", you can ": 10639,
  " something that ": 10640,
  "means that ": 10641,
  ".\nHowever": 10642,
  "joined": 10643,
  " scientist": 10644,
  " been a": 10645,
  "ed at": 10646,
  "alive": 10647,
  "Thursday ": 10648,
  ", it is": 10649,
  "600": 10650,
  "healing": 10651,
  "entry was": 10652,
  " awesome": 10653,
  "hospital ": 10654,
  " competitor": 10655,
  "nai": 10656,
  "hich": 10657,
  "P. ": 10658,
  "DVD": 10659,
  "NOT ": 10660,
  "it would be ": 10661,
  "matically ": 10662,
  "despite ": 10663,
  "Living ": 10664,
  " played ": 10665,
  " calling": 10666,
  "lovely ": 10667,
  "expensive ": 10668,
  "integrated ": 10669,
  "ed out ": 10670,
  "nally, ": 10671,
  " tear": 10672,
  "I want ": 10673,
  "Vill": 10674,
  " capital ": 10675,
  "drink ": 10676,
  "s pack": 10677,
  "teran": 10678,
  "Friday, ": 10679,
  "arrest": 10680,
  "ps of ": 10681,
  "uccessful": 10682,
  "manufacturing": 10683,
  " trus": 10684,
  " focused on ": 10685,
  " with other ": 10686,
  "Georgi": 10687,
  "depend ": 10688,
  " of M": 10689,
  " all-": 10690,
  " to 1": 10691,
  ".\nDo ": 10692,
  "understanding ": 10693,
  " clearly": 10694,
  "game, ": 10695,
  " observ": 10696,
  "eeds ": 10697,
  "runch": 10698,
  "luxury": 10699,
  "its own": 10700,
  " flexible": 10701,
  "Jud": 10702,
  "algorith": 10703,
  "Russia": 10704,
  "Jesus": 10705,
  " shop ": 10706,
  "Bathroom ": 10707,
  " female": 10708,
  " analyst": 10709,
  "rules ": 10710,
  "1%": 10711,
  " was so ": 10712,
  " again, ": 10713,
  "in the first ": 10714,
  " this time": 10715,
  "manda": 10716,
  "improved ": 10717,
  "time in ": 10718,
  "Capital ": 10719,
  "make it": 10720,
  "Royal ": 10721,
  "advocate": 10722,
  "margin": 10723,
  " so that": 10724,
  "Tuesday ": 10725,
  " if it": 10726,
  "innovation": 10727,
  "Me ": 10728,
  "nature of ": 10729,
  "entry was posted in ": 10730,
  "t. This": 10731,
  " observed ": 10732,
  "s in our": 10733,
  "Washington, ": 10734,
  " and ta": 10735,
  "listening": 10736,
  ", both ": 10737,
  "asses": 10738,
  " shipping ": 10739,
  " feet ": 10740,
  "34 ": 10741,
  ".\nNo ": 10742,
  "vacation": 10743,
  "historical": 10744,
  "arrang": 10745,
  "-off": 10746,
  "every year": 10747,
  "animal ": 10748,
  "reasons": 10749,
  " subjec": 10750,
  " worship": 10751,
  "many people ": 10752,
  "m, the ": 10753,
  "essential ": 10754,
  "s. That": 10755,
  " we're ": 10756,
  "County, ": 10757,
  "Phys": 10758,
  "mino": 10759,
  "legend": 10760,
  "\u00f3": 10761,
  "here and ": 10762,
  "rain ": 10763,
  "humb": 10764,
  "loyal": 10765,
  ". For example": 10766,
  "nalist": 10767,
  "red and ": 10768,
  "Machine ": 10769,
  "devast": 10770,
  "holder ": 10771,
  " back in ": 10772,
  " some of": 10773,
  " scree": 10774,
  " focused ": 10775,
  "administrator": 10776,
  " survival": 10777,
  " calls ": 10778,
  "2018, ": 10779,
  "tioned ": 10780,
  " for those ": 10781,
  "open to ": 10782,
  "expand": 10783,
  "incredible": 10784,
  "MM": 10785,
  "racing": 10786,
  "dys": 10787,
  " treated ": 10788,
  "Eliza": 10789,
  "interact": 10790,
  "guideline": 10791,
  "other than ": 10792,
  "(a ": 10793,
  "\u043f": 10794,
  " catch ": 10795,
  " convert": 10796,
  "had an ": 10797,
  "lining": 10798,
  "Typ": 10799,
  " fasc": 10800,
  "towards": 10801,
  " cardio": 10802,
  "in the S": 10803,
  " sculpt": 10804,
  "End": 10805,
  " and their ": 10806,
  " talen": 10807,
  "pp. ": 10808,
  "Italy": 10809,
  "elegan": 10810,
  " wheel ": 10811,
  "Police ": 10812,
  "doctor ": 10813,
  "Vice ": 10814,
  " compatible": 10815,
  "strategic ": 10816,
  "s and t": 10817,
  "associate": 10818,
  "polit": 10819,
  "routine ": 10820,
  "Woo": 10821,
  " all over": 10822,
  " cable": 10823,
  "10:": 10824,
  "discri": 10825,
  " society ": 10826,
  "episode": 10827,
  "detect": 10828,
  "rela": 10829,
  "es. I ": 10830,
  "menu ": 10831,
  "URL": 10832,
  "Note ": 10833,
  "eption ": 10834,
  "keeper": 10835,
  " coffee ": 10836,
  "Lond": 10837,
  "manual ": 10838,
  "vity, ": 10839,
  "Colorado ": 10840,
  "s without": 10841,
  " in the middle": 10842,
  " one of our": 10843,
  "adminis": 10844,
  "metho": 10845,
  "Host": 10846,
  ".\nU": 10847,
  "Foc": 10848,
  "explor": 10849,
  "mixed": 10850,
  "generic": 10851,
  " cryp": 10852,
  "ed.": 10853,
  "ports ": 10854,
  "agon ": 10855,
  " physic": 10856,
  "Box": 10857,
  " prece": 10858,
  "raised": 10859,
  "racing ": 10860,
  "gun ": 10861,
  " weekly": 10862,
  "organizer": 10863,
  " speaking ": 10864,
  "performer": 10865,
  "Theatre": 10866,
  " features a": 10867,
  "Oil ": 10868,
  "gentle": 10869,
  "vascular ": 10870,
  " analysis of ": 10871,
  "durable": 10872,
  "enthusiast": 10873,
  " wants to": 10874,
  "cyber": 10875,
  "\u02dc": 10876,
  "OM": 10877,
  "+ ": 10878,
  "//": 10879,
  "://": 10880,
  "pire ": 10881,
  "teel": 10882,
  "\u2022 ": 10883,
  "irt": 10884,
  "Men": 10885,
  " to you": 10886,
  " pow": 10887,
  " felt ": 10888,
  "regis": 10889,
  "IR": 10890,
  "ing. ": 10891,
  " custom ": 10892,
  "ves and ": 10893,
  "Moun": 10894,
  "AA": 10895,
  "healthy ": 10896,
  "Arizo": 10897,
  " pretty": 10898,
  " wash": 10899,
  " total ": 10900,
  "revea": 10901,
  "lift": 10902,
  "TO ": 10903,
  "\u00fc": 10904,
  " trying to ": 10905,
  "ribute": 10906,
  "lost ": 10907,
  "required ": 10908,
  "Once": 10909,
  "-of-": 10910,
  "BM": 10911,
  "yourself ": 10912,
  "Kit": 10913,
  " proper ": 10914,
  "registration": 10915,
  "outhern ": 10916,
  "ds the ": 10917,
  " origi": 10918,
  "I just ": 10919,
  " code ": 10920,
  "Member": 10921,
  "lines ": 10922,
  "MD": 10923,
  "led by ": 10924,
  "on our": 10925,
  "PD": 10926,
  "Auto": 10927,
  "hours ": 10928,
  "dress ": 10929,
  "Pay": 10930,
  ". H": 10931,
  "defa": 10932,
  "warded": 10933,
  " chap": 10934,
  "employer": 10935,
  "greg": 10936,
  ". An ": 10937,
  "\u0441": 10938,
  "ving the": 10939,
  "alter": 10940,
  "Ext": 10941,
  ". At ": 10942,
  " contribution": 10943,
  " cata": 10944,
  " such a ": 10945,
  "istry": 10946,
  " suf": 10947,
  " when I": 10948,
  " psycho": 10949,
  "(19": 10950,
  "letter ": 10951,
  " send": 10952,
  "ror ": 10953,
  "ves and": 10954,
  " proud": 10955,
  "cele": 10956,
  "updat": 10957,
  "AI": 10958,
  "Pari": 10959,
  "face ": 10960,
  "thetic ": 10961,
  " busy": 10962,
  ". On": 10963,
  " fashion": 10964,
  " soul": 10965,
  "outdoor ": 10966,
  "BB": 10967,
  "see the": 10968,
  "motiv": 10969,
  " social media": 10970,
  "Republic": 10971,
  "Jew": 10972,
  "might be": 10973,
  "respond": 10974,
  ". How ": 10975,
  " as much": 10976,
  "\u00e4": 10977,
  "\", ": 10978,
  " functional": 10979,
  "wes": 10980,
  " sau": 10981,
  " writing ": 10982,
  "3r": 10983,
  "ethic": 10984,
  "rations": 10985,
  "time.\n": 10986,
  "Caroli": 10987,
  "gorge": 10988,
  "Inte": 10989,
  "2008": 10990,
  " of those": 10991,
  "license": 10992,
  "s \u2013": 10993,
  "Ur": 10994,
  "Jor": 10995,
  " smaller ": 10996,
  "no longer": 10997,
  " promot": 10998,
  ", along": 10999,
  " shall ": 11000,
  "Paul": 11001,
  "\u2026.": 11002,
  "Network ": 11003,
  "thentic": 11004,
  "I thought ": 11005,
  " federal ": 11006,
  "has s": 11007,
  ". Now": 11008,
  "s say": 11009,
  "amp ": 11010,
  "that there": 11011,
  " survey": 11012,
  "stress": 11013,
  " fresh ": 11014,
  ".\nH": 11015,
  "match ": 11016,
  "Er": 11017,
  "es. In ": 11018,
  " the cost": 11019,
  " film ": 11020,
  "Be ": 11021,
  " photo ": 11022,
  " what is ": 11023,
  "your home ": 11024,
  "decla": 11025,
  "dated": 11026,
  "inves": 11027,
  " based": 11028,
  "nine ": 11029,
  "end the ": 11030,
  "s as a": 11031,
  " obtain": 11032,
  "minor": 11033,
  "emergency": 11034,
  "II ": 11035,
  " feedback": 11036,
  "series ": 11037,
  "in and": 11038,
  "relevant": 11039,
  " farm": 11040,
  "Tow": 11041,
  "anci": 11042,
  "I feel ": 11043,
  "us at ": 11044,
  "-and": 11045,
  "until the ": 11046,
  "agon": 11047,
  "ushing ": 11048,
  "setting ": 11049,
  " with our": 11050,
  " to in": 11051,
  "deri": 11052,
  "Qual": 11053,
  "league": 11054,
  "list of": 11055,
  ".\nAll ": 11056,
  "unp": 11057,
  ".org": 11058,
  ", comp": 11059,
  "Big ": 11060,
  "enough to ": 11061,
  "dens": 11062,
  "quiet": 11063,
  "Week": 11064,
  "desire": 11065,
  " when we ": 11066,
  "-for": 11067,
  " brief": 11068,
  "normally ": 11069,
  "actor": 11070,
  "release ": 11071,
  "ration and ": 11072,
  "chance to": 11073,
  " trail": 11074,
  " She": 11075,
  " opening ": 11076,
  "kick": 11077,
  ".\nAfter ": 11078,
  "EM": 11079,
  "ringing ": 11080,
  "s page": 11081,
  "victim": 11082,
  "election": 11083,
  "s for your ": 11084,
  ", and a": 11085,
  "Yes, ": 11086,
  "drug ": 11087,
  "Ow": 11088,
  " it has ": 11089,
  " in its ": 11090,
  "illed ": 11091,
  " teach ": 11092,
  " chosen": 11093,
  "side of the ": 11094,
  "List": 11095,
  "it can be ": 11096,
  " slightly ": 11097,
  "cean": 11098,
  ", and a ": 11099,
  "it would ": 11100,
  "news ": 11101,
  "December": 11102,
  "events ": 11103,
  " those who": 11104,
  "Cos": 11105,
  ", will": 11106,
  "fying ": 11107,
  "incident": 11108,
  " welcome ": 11109,
  " in any ": 11110,
  " teaching": 11111,
  " passenger": 11112,
  ", some ": 11113,
  " form of ": 11114,
  "GH": 11115,
  " shoot": 11116,
  "up a ": 11117,
  "addition, ": 11118,
  "ngle": 11119,
  "lating ": 11120,
  " blog ": 11121,
  ". Your ": 11122,
  "Android ": 11123,
  "Virgi": 11124,
  "ville ": 11125,
  "), and": 11126,
  ".\nThank": 11127,
  "s, etc": 11128,
  "This is the ": 11129,
  "China ": 11130,
  "attle ": 11131,
  ". We are ": 11132,
  " prepare": 11133,
  " is very": 11134,
  "AM ": 11135,
  ", there are": 11136,
  " construc": 11137,
  "argument": 11138,
  ". Y": 11139,
  " watching ": 11140,
  "adhe": 11141,
  "maller": 11142,
  "igno": 11143,
  ", such ": 11144,
  ".\nPlease ": 11145,
  "79": 11146,
  "know what": 11147,
  "\u2013 a": 11148,
  "arrival": 11149,
  "MT": 11150,
  " approved": 11151,
  "quality of ": 11152,
  "Acc": 11153,
  " autom": 11154,
  ". Fi": 11155,
  " since the ": 11156,
  "ability and ": 11157,
  " suffer": 11158,
  "statu": 11159,
  " of us ": 11160,
  " wra": 11161,
  "you\u2019ve": 11162,
  " sor": 11163,
  "Dona": 11164,
  "field": 11165,
  " summ": 11166,
  "(the": 11167,
  "las ": 11168,
  "53": 11169,
  "es and the ": 11170,
  "68": 11171,
  ".\nNow": 11172,
  "movie ": 11173,
  "people, ": 11174,
  " of R": 11175,
  ". Then": 11176,
  " table ": 11177,
  "London ": 11178,
  "at an ": 11179,
  "ling and ": 11180,
  "Tech ": 11181,
  "Food": 11182,
  " fam": 11183,
  " overs": 11184,
  " proceeding": 11185,
  "govern": 11186,
  " web site": 11187,
  " bank ": 11188,
  ". You will ": 11189,
  "Artic": 11190,
  "re is no ": 11191,
  "less s": 11192,
  "medium ": 11193,
  "tioner": 11194,
  ".\nThese ": 11195,
  "Girl": 11196,
  "segment": 11197,
  "Project ": 11198,
  "United State": 11199,
  "GO": 11200,
  "its own ": 11201,
  "decided to ": 11202,
  ". Se": 11203,
  " would have ": 11204,
  " that your ": 11205,
  "t. We": 11206,
  "s system": 11207,
  " fair ": 11208,
  "herit": 11209,
  ":00 ": 11210,
  "listed ": 11211,
  "disciplin": 11212,
  ", of ": 11213,
  "HT": 11214,
  " bla": 11215,
  "s Sa": 11216,
  ". Then ": 11217,
  "difficult ": 11218,
  " preparation": 11219,
  "Fit": 11220,
  "just a ": 11221,
  "Make ": 11222,
  "100%": 11223,
  " trop": 11224,
  "adapt": 11225,
  " soc": 11226,
  "Perfor": 11227,
  "ed from the ": 11228,
  "environmental ": 11229,
  "vintage ": 11230,
  " coach ": 11231,
  "importance": 11232,
  "les are ": 11233,
  "Conf": 11234,
  "Food ": 11235,
  "ite the ": 11236,
  "Join ": 11237,
  "Lis": 11238,
  "ed of": 11239,
  " smaller": 11240,
  "District ": 11241,
  "enfor": 11242,
  "Academy": 11243,
  " to you ": 11244,
  "nating ": 11245,
  " areas ": 11246,
  "ardi": 11247,
  "mana": 11248,
  "300 ": 11249,
  "hesit": 11250,
  "s power": 11251,
  " flag": 11252,
  " climate": 11253,
  "Link": 11254,
  " previously ": 11255,
  "asking ": 11256,
  " pup": 11257,
  "serious": 11258,
  " contemporary ": 11259,
  " amp": 11260,
  "discuss ": 11261,
  " facility": 11262,
  "!\nThe": 11263,
  "grated": 11264,
  "s, for ": 11265,
  " of time": 11266,
  " busy ": 11267,
  "Have": 11268,
  " prior ": 11269,
  "developing": 11270,
  " source ": 11271,
  "UV": 11272,
  " sit ": 11273,
  "environmental": 11274,
  "on how ": 11275,
  "healthcare": 11276,
  " batt": 11277,
  "reduction": 11278,
  "me a ": 11279,
  "is a very ": 11280,
  " commonly ": 11281,
  " impressive ": 11282,
  "herb": 11283,
  "toxic": 11284,
  " approval": 11285,
  " take the ": 11286,
  "lob": 11287,
  " path ": 11288,
  "ns of ": 11289,
  "is a great": 11290,
  " superior ": 11291,
  ", cont": 11292,
  "massive ": 11293,
  "body ": 11294,
  " becoming ": 11295,
  "extract": 11296,
  " tissue": 11297,
  "expect ": 11298,
  "Prac": 11299,
  "42 ": 11300,
  "nite ": 11301,
  "29 ": 11302,
  " was to ": 11303,
  "s she ": 11304,
  "ation in": 11305,
  " take a": 11306,
  "anyway": 11307,
  "expansion": 11308,
  "acking": 11309,
  " compared to ": 11310,
  "43": 11311,
  " impressive": 11312,
  "or not ": 11313,
  "achievement": 11314,
  " case, ": 11315,
  " booking": 11316,
  "minated": 11317,
  " as to ": 11318,
  "downt": 11319,
  "hearing": 11320,
  " of two ": 11321,
  "receiving ": 11322,
  ", and I ": 11323,
  "grown": 11324,
  "rium": 11325,
  "62": 11326,
  "fortunately": 11327,
  "accessible": 11328,
  "though, ": 11329,
  " of her": 11330,
  " tast": 11331,
  " browser": 11332,
  "terro": 11333,
  "executive": 11334,
  "map ": 11335,
  " wind ": 11336,
  "pers ": 11337,
  ".\nDo": 11338,
  " tired": 11339,
  "in s": 11340,
  "information about": 11341,
[...]
